[PAD]	0
[UNK]	0
[CLS]	0
[SEP]	0
[MASK]	0
.	-2.50562
'	-3.1788
,	-3.19719
▁I	-3.57497
?	-3.6116
▁you	-3.69539
s	-3.72633
▁the	-3.92183
▁to	-4.05804
▁a	-4.21376
t	-4.37987
▁it	-4.61089
!	-4.80521
▁of	-4.82415
▁that	-4.82768
▁You	-4.87795
▁is	-4.97354
▁me	-4.99637
▁in	-4.9968
▁and	-5.00615
...	-5.19718
▁for	-5.24955
▁have	-5.30901
re	-5.33047
▁your	-5.34067
m	-5.3555
▁this	-5.37155
▁be	-5.40823
▁on	-5.42861
▁we	-5.42977
▁What	-5.46477
▁was	-5.47135
▁know	-5.50247
▁do	-5.50596
▁my	-5.53063
▁not	-5.54185
▁are	-5.5597
▁with	-5.58129
▁It	-5.61262
▁can	-5.64436
▁he	-5.65768
ll	-5.66373
▁what	-5.70003
▁don	-5.71132
▁	-5.71781
▁here	-5.79619
▁We	-5.84033
▁like	-5.84219
-	-5.91468
▁just	-5.91842
▁all	-5.92038
▁about	-5.92623
▁him	-5.9269
▁get	-5.95587
▁out	-5.99143
▁He	-6.0018
▁The	-6.00468
▁And	-6.0181
▁No	-6.0197
▁up	-6.02928
ve	-6.07074
▁right	-6.08389
▁there	-6.08696
▁That	-6.09842
▁her	-6.10814
▁go	-6.11369
▁one	-6.1645
▁at	-6.17182
▁so	-6.18151
▁want	-6.19654
▁think	-6.21236
d	-6.21889
▁but	-6.23141
▁they	-6.24938
▁will	-6.27636
▁got	-6.29552
▁But	-6.30614
▁if	-6.3262
▁she	-6.34908
▁Well	-6.35395
▁see	-6.37589
▁Oh	-6.4003
▁from	-6.41095
▁no	-6.41285
▁now	-6.43296
▁did	-6.44109
▁So	-6.47579
▁going	-6.4779
▁Yeah	-6.48024
▁How	-6.49414
▁time	-6.49457
▁his	-6.5019
▁us	-6.50865
▁Yes	-6.54811
▁back	-6.55104
▁an	-6.55743
▁been	-6.58924
▁Why	-6.59155
▁them	-6.60959
▁come	-6.62134
▁good	-6.63317
▁were	-6.63595
▁She	-6.64924
▁would	-6.66271
▁A	-6.67843
▁They	-6.67884
▁This	-6.68636
▁as	-6.72024
▁had	-6.72243
▁take	-6.73246
▁who	-6.75345
▁some	-6.75419
▁say	-6.75798
▁didn	-6.77
▁need	-6.77366
▁tell	-6.7917
▁could	-6.80266
▁If	-6.80366
▁how	-6.80977
▁too	-6.82135
▁or	-6.82179
▁our	-6.82545
▁Do	-6.82634
▁something	-6.84603
▁gonna	-6.8571
▁Don	-6.85733
▁when	-6.85966
▁"	-6.86784
▁way	-6.87967
▁has	-6.89948
▁There	-6.91369
▁man	-6.91997
▁more	-6.93104
▁Hey	-6.93253
▁really	-6.96076
▁make	-6.96485
▁down	-6.99618
▁should	-7.01497
▁by	-7.02385
▁look	-7.06596
▁over	-7.06936
▁then	-7.07259
▁never	-7.07526
▁Let	-7.078
▁Where	-7.08027
▁Mr	-7.08872
▁little	-7.08877
▁Come	-7.08924
▁very	-7.10196
▁only	-7.10846
▁said	-7.11213
▁off	-7.11441
▁mean	-7.11964
▁let	-7.12154
▁any	-7.12245
▁why	-7.13428
▁My	-7.13512
▁Are	-7.14863
▁much	-7.1494
▁doing	-7.15305
▁All	-7.19335
▁where	-7.20239
▁people	-7.21401
▁Now	-7.24565
▁thing	-7.24729
▁find	-7.25018
▁anything	-7.27961
▁Just	-7.28269
▁work	-7.2978
▁Who	-7.30179
▁help	-7.30618
▁Okay	-7.3108
▁give	-7.31123
▁still	-7.31886
▁two	-7.32402
ing	-7.32846
▁must	-7.33027
▁well	-7.34879
▁am	-7.36337
▁talk	-7.36556
▁love	-7.37677
▁even	-7.38217
▁thought	-7.3849
▁sure	-7.39117
▁Did	-7.39403
▁again	-7.39914
▁Can	-7.4018
▁Your	-7.41719
▁into	-7.42639
▁home	-7.42856
▁Not	-7.43275
▁won	-7.43709
▁day	-7.43836
▁night	-7.44055
▁other	-7.44188
▁call	-7.44314
▁before	-7.44383
▁told	-7.46174
▁Look	-7.46212
▁sorry	-7.47026
▁away	-7.47628
▁first	-7.47722
▁than	-7.48623
▁these	-7.48925
▁long	-7.49477
ed	-7.49616
▁better	-7.50105
▁Good	-7.51962
▁last	-7.5262
▁life	-7.52838
▁sir	-7.56997
▁Thank	-7.57452
▁please	-7.58321
▁name	-7.59456
▁their	-7.60487
▁because	-7.60613
▁place	-7.61079
▁after	-7.61355
▁money	-7.61456
▁always	-7.62426
▁nothing	-7.63814
▁put	-7.63871
▁doesn	-7.64075
▁around	-7.6589
▁When	-7.65898
▁things	-7.66053
:	-7.66852
▁In	-7.67084
▁okay	-7.671
▁Then	-7.67653
▁those	-7.677
▁leave	-7.68327
▁guy	-7.71042
▁does	-7.71163
▁years	-7.71236
▁old	-7.71882
▁keep	-7.72083
▁Maybe	-7.73143
▁-	-7.73149
▁happened	-7.73542
▁everything	-7.73783
▁course	-7.74675
y	-7.75428
▁ever	-7.75476
▁feel	-7.76544
▁lot	-7.77146
▁done	-7.78308
▁girl	-7.78472
▁ask	-7.79357
▁made	-7.79721
▁understand	-7.79863
▁house	-7.80556
▁father	-7.80945
▁God	-7.8157
▁kind	-7.81745
▁believe	-7.81834
▁Go	-7.81862
▁new	-7.81918
▁wanted	-7.82171
▁great	-7.82589
▁left	-7.827
▁isn	-7.83069
▁might	-7.83299
▁wrong	-7.84538
▁came	-7.85326
▁else	-7.85656
▁hear	-7.87435
▁guys	-7.87784
▁Get	-7.87894
▁Have	-7.88022
▁Hello	-7.88061
▁enough	-7.88089
▁Please	-7.88687
▁coming	-7.88931
▁bad	-7.89105
▁someone	-7.90824
▁own	-7.91554
▁car	-7.91761
▁To	-7.92537
▁kill	-7.92747
▁found	-7.92863
▁being	-7.9326
▁through	-7.93751
▁mind	-7.94082
▁looking	-7.94286
▁stay	-7.94447
▁big	-7.95294
▁care	-7.95624
▁stop	-7.96341
▁friend	-7.96574
▁Here	-7.96775
▁nice	-7.96795
▁today	-7.96915
▁yourself	-7.97003
▁same	-7.98263
▁another	-7.98935
▁mother	-7.99005
er	-8.00202
▁already	-8.01338
▁getting	-8.01473
▁talking	-8.01773
▁job	-8.02741
▁son	-8.03176
▁seen	-8.03918
▁For	-8.04489
▁wasn	-8.04913
▁dead	-8.05087
▁saw	-8.05207
▁remember	-8.05422
▁went	-8.05875
▁room	-8.06223
▁many	-8.06343
a	-8.07238
e	-8.07308
▁wouldn	-8.07487
▁Right	-8.07619
▁morning	-8.0831
▁show	-8.08367
▁Of	-8.09036
▁heard	-8.09205
▁wait	-8.09606
▁fine	-8.10127
▁may	-8.1107
▁idea	-8.12077
S	-8.125
▁trying	-8.12827
▁try	-8.12975
▁best	-8.13731
▁every	-8.14981
▁yet	-8.15099
▁Thanks	-8.15489
▁Sorry	-8.15702
▁real	-8.15851
▁three	-8.16067
▁haven	-8.16772
▁hell	-8.16788
▁family	-8.16863
▁next	-8.17034
▁together	-8.17159
▁Because	-8.17911
▁woman	-8.18076
▁bit	-8.18474
▁matter	-8.19042
▁live	-8.19085
▁wife	-8.19498
▁world	-8.1966
▁use	-8.20189
▁maybe	-8.20376
▁without	-8.20393
▁called	-8.21622
▁boy	-8.21768
▁head	-8.22154
▁Tell	-8.22591
in	-8.22653
ly	-8.23115
▁knew	-8.23257
▁i	-8.23363
▁Take	-8.23367
▁One	-8.2339
▁used	-8.23596
▁problem	-8.24127
▁brother	-8.25242
▁such	-8.25416
▁meet	-8.25571
▁ago	-8.25836
▁took	-8.25906
▁few	-8.26678
▁start	-8.26878
▁killed	-8.26917
▁days	-8.27248
o	-8.27522
▁worry	-8.27559
▁case	-8.27833
▁OK	-8.28183
▁pretty	-8.28242
▁Hi	-8.28316
▁school	-8.2901
▁Or	-8.29036
▁gone	-8.30745
▁while	-8.30933
▁tomorrow	-8.31028
▁hard	-8.31057
▁wanna	-8.31098
▁hope	-8.31132
▁alone	-8.31827
▁guess	-8.32013
▁Wait	-8.32168
▁play	-8.32914
▁whole	-8.33008
▁business	-8.3306
n	-8.34923
▁anyone	-8.35024
▁men	-8.35189
▁which	-8.35812
▁tonight	-8.36441
▁saying	-8.3728
▁As	-8.37375
▁ready	-8.37487
▁Uh	-8.37731
▁soon	-8.38072
▁myself	-8.38075
▁bring	-8.38106
▁YOU	-8.38135
▁yes	-8.38576
▁also	-8.39137
▁yeah	-8.39266
▁couldn	-8.39756
▁late	-8.4025
▁See	-8.40652
▁friends	-8.40856
▁Will	-8.4174
▁run	-8.42369
▁end	-8.42813
▁once	-8.42836
▁Miss	-8.43437
▁move	-8.43734
▁lost	-8.44066
▁face	-8.44466
▁happy	-8.44949
▁since	-8.45015
▁phone	-8.45529
▁most	-8.45993
▁uh	-8.46131
▁police	-8.46142
▁Nothing	-8.46221
▁eat	-8.46473
▁happen	-8.46509
▁die	-8.46513
▁both	-8.4667
▁baby	-8.46877
▁Dr	-8.47059
▁hand	-8.4719
▁minute	-8.47409
▁Like	-8.47726
▁drink	-8.47959
▁huh	-8.4842
▁thank	-8.48479
▁pay	-8.49651
▁working	-8.49966
▁thinking	-8.50025
▁gotta	-8.50591
▁until	-8.50957
▁true	-8.51115
▁later	-8.51526
▁far	-8.51669
▁Give	-8.52717
▁Listen	-8.53172
▁stuff	-8.54386
▁gave	-8.54429
▁having	-8.54782
r	-8.54892
▁dad	-8.55105
▁under	-8.55386
▁asked	-8.55448
▁Mrs	-8.55509
▁least	-8.55716
▁kid	-8.56031
▁year	-8.56088
▁person	-8.5616
▁sleep	-8.56328
▁At	-8.56765
▁change	-8.57323
▁Ah	-8.57598
▁door	-8.57829
▁husband	-8.58478
▁Sure	-8.58524
▁turn	-8.58584
▁says	-8.59252
▁daughter	-8.59369
▁With	-8.59393
▁beautiful	-8.60003
▁open	-8.60138
▁taking	-8.60675
▁death	-8.60688
▁each	-8.60774
▁minutes	-8.60795
▁deal	-8.6106
▁Really	-8.61208
▁part	-8.61461
▁waiting	-8.61576
▁water	-8.61917
▁Sir	-8.62243
▁Dad	-8.6226
▁actually	-8.62396
▁Stop	-8.62678
▁wants	-8.62801
▁l	-8.63406
▁second	-8.63796
▁probably	-8.63845
▁chance	-8.63883
▁hurt	-8.64171
▁everyone	-8.64422
▁listen	-8.64667
▁shit	-8.64692
▁trouble	-8.64809
▁Would	-8.64937
▁crazy	-8.65246
▁rest	-8.65263
i	-8.66191
▁important	-8.6631
▁afraid	-8.66324
▁kids	-8.66328
▁Excuse	-8.66402
▁heart	-8.66759
▁young	-8.66797
▁looks	-8.66915
▁inside	-8.67387
▁week	-8.67868
▁wish	-8.6812
▁check	-8.6844
▁word	-8.68565
▁quite	-8.68803
▁fucking	-8.68823
▁read	-8.69436
▁aren	-8.69722
▁1	-8.7011
▁body	-8.70358
▁speak	-8.70545
▁exactly	-8.70615
▁point	-8.70784
▁question	-8.70995
▁fun	-8.71391
▁mine	-8.71592
▁supposed	-8.71601
▁hours	-8.72294
▁married	-8.72652
▁His	-8.72655
▁moment	-8.72808
▁different	-8.73584
▁hit	-8.73838
▁sister	-8.74042
▁close	-8.74081
▁easy	-8.74536
▁doctor	-8.7487
▁party	-8.75776
▁reason	-8.75916
▁sit	-8.76052
▁forget	-8.762
▁story	-8.76243
▁eyes	-8.76383
▁THE	-8.76851
▁making	-8.76883
▁dear	-8.76935
▁office	-8.77023
▁set	-8.77046
▁against	-8.77251
▁side	-8.77718
▁fight	-8.77962
▁town	-8.78244
▁couple	-8.78371
▁watch	-8.78503
▁mom	-8.7852
I	-8.78648
▁hands	-8.79203
▁child	-8.79508
▁brought	-8.79595
▁means	-8.80094
▁blood	-8.80865
▁Be	-8.80995
▁anymore	-8.81204
▁half	-8.81525
▁hold	-8.81589
▁game	-8.81605
▁buy	-8.81746
▁Me	-8.81876
▁number	-8.81917
▁shot	-8.81952
▁died	-8.83196
▁able	-8.83313
▁fuck	-8.83323
▁truth	-8.83681
T	-8.83739
▁ain	-8.83908
▁five	-8.84289
▁break	-8.84553
▁Does	-8.85048
▁On	-8.86799
▁though	-8.87198
▁telling	-8.87264
▁answer	-8.87304
▁Very	-8.87382
▁makes	-8.87602
▁behind	-8.87614
▁goes	-8.88026
▁girls	-8.8807
▁children	-8.88454
▁tried	-8.88652
▁between	-8.89051
▁bed	-8.89434
▁Which	-8.89503
▁walk	-8.8985
▁cut	-8.89931
▁Even	-8.89975
▁Our	-8.90419
▁started	-8.90473
▁anyway	-8.90531
▁send	-8.9063
l	-8.90853
man	-8.9172
▁gun	-8.91918
▁Mom	-8.92315
es	-8.92626
▁These	-8.92738
th	-8.92739
▁months	-8.92764
▁sent	-8.92948
▁seems	-8.93328
▁fire	-8.93369
▁plan	-8.93428
▁Was	-8.93652
▁either	-8.9396
▁along	-8.94103
▁times	-8.94166
▁news	-8.94209
▁stand	-8.94658
▁hour	-8.95213
▁TO	-8.95379
▁full	-8.95736
▁dinner	-8.96052
▁lady	-8.9613
▁alive	-8.96227
▁women	-8.96986
▁almost	-8.97077
▁front	-8.9719
▁outside	-8.97275
▁thanks	-8.97478
▁free	-8.97552
▁After	-8.97769
▁miss	-8.9798
▁food	-8.98328
▁order	-8.98386
▁high	-8.98678
▁become	-8.98686
▁four	-8.98691
▁somebody	-8.99052
▁ahead	-8.99257
▁stupid	-8.99569
▁leaving	-9.00147
▁war	-9.00785
▁taken	-9.01036
▁shouldn	-9.0111
▁trust	-9.01146
▁line	-9.01423
▁pick	-9.01498
▁Some	-9.02229
▁Could	-9.02237
▁comes	-9.02847
▁book	-9.02974
▁feeling	-9.03284
▁An	-9.03488
▁Only	-9.03735
▁2	-9.03872
▁shall	-9.04252
▁safe	-9.04288
▁save	-9.04347
▁May	-9.0462
▁clear	-9.04629
▁Any	-9.04669
▁Isn	-9.04711
▁asking	-9.04828
▁hate	-9.0514
▁lose	-9.05388
▁Nice	-9.05529
▁O	-9.05697
am	-9.05742
▁sick	-9.05917
▁em	-9.05957
▁boys	-9.06143
▁Two	-9.06497
▁parents	-9.06515
▁Everything	-9.06522
▁possible	-9.06727
▁funny	-9.07174
▁murder	-9.07527
▁luck	-9.08096
▁running	-9.08587
▁power	-9.08986
▁hot	-9.09341
▁fact	-9.09636
▁Great	-9.1033
▁New	-9.10624
▁serious	-9.10665
▁himself	-9.10683
▁living	-9.11203
▁seem	-9.11577
al	-9.11785
▁meeting	-9.11918
▁dog	-9.12296
▁boss	-9.12497
▁hospital	-9.12544
▁Keep	-9.12891
▁team	-9.13026
▁everybody	-9.13186
▁sort	-9.13192
▁evening	-9.1322
▁From	-9.13428
▁country	-9.13471
▁Captain	-9.1348
▁whatever	-9.14135
▁By	-9.14515
▁light	-9.14535
▁Something	-9.14789
▁glad	-9.14842
▁scared	-9.15404
▁past	-9.15536
▁company	-9.16231
▁Never	-9.16397
▁S	-9.16612
▁needs	-9.16709
▁Man	-9.16859
▁small	-9.16921
▁drive	-9.17462
▁hair	-9.17579
▁sense	-9.17627
D	-9.17854
▁coffee	-9.18888
▁fast	-9.18942
▁3	-9.18954
▁cool	-9.19037
▁sign	-9.19102
▁Her	-9.19128
▁John	-9.19565
▁10	-9.19622
▁happens	-9.19625
▁knows	-9.19755
▁touch	-9.1976
▁Didn	-9.20345
▁special	-9.20359
▁Got	-9.205
▁city	-9.2071
▁somewhere	-9.21409
▁cold	-9.21435
▁lives	-9.21718
▁rather	-9.21985
▁Put	-9.22105
▁six	-9.22373
▁catch	-9.22528
▁longer	-9.23107
▁playing	-9.23125
▁E	-9.2329
▁sound	-9.23436
▁anybody	-9.23641
▁explain	-9.23894
to	-9.24116
▁cannot	-9.24424
▁C	-9.24546
▁shoot	-9.24797
▁Jack	-9.24838
▁Father	-9.24844
▁damn	-9.24951
▁questions	-9.25372
▁write	-9.25909
▁20	-9.26091
▁return	-9.26179
▁weren	-9.26646
▁Fine	-9.26686
u	-9.26732
▁wonder	-9.26834
▁fault	-9.27325
▁Doctor	-9.27827
▁learn	-9.27916
▁worked	-9.28574
▁till	-9.2894
▁Wow	-9.29123
▁changed	-9.29547
▁known	-9.29739
▁top	-9.30235
▁worried	-9.30299
▁Hold	-9.30405
▁cause	-9.30407
▁calling	-9.30452
▁promise	-9.30545
▁lie	-9.30573
▁human	-9.30764
on	-9.30934
▁yesterday	-9.30956
▁early	-9.31037
▁secret	-9.31064
▁First	-9.31327
▁report	-9.31485
▁Um	-9.31546
▁clean	-9.31556
▁win	-9.3179
an	-9.31795
▁control	-9.31828
up	-9.32041
▁Those	-9.32126
▁ma	-9.32192
▁IT	-9.32202
▁Say	-9.32382
▁busy	-9.32454
▁missing	-9.33168
▁others	-9.33183
A	-9.33481
▁weeks	-9.3353
▁Perhaps	-9.33591
▁Ma	-9.33918
▁worth	-9.34117
▁black	-9.34261
▁dance	-9.3435
▁suppose	-9.34359
▁eye	-9.34601
▁Lord	-9.34831
▁less	-9.35673
▁Leave	-9.35788
▁D	-9.35844
▁air	-9.35928
▁honey	-9.36051
▁seeing	-9.36202
▁expect	-9.36223
▁straight	-9.3631
▁perfect	-9.37063
▁lucky	-9.37104
▁ten	-9.37108
▁mad	-9.37249
ers	-9.37448
▁follow	-9.37518
▁ship	-9.3759
▁About	-9.37715
▁choice	-9.37953
▁gets	-9.3846
▁picture	-9.38561
en	-9.38605
▁given	-9.3869
▁poor	-9.38837
▁looked	-9.39144
▁tired	-9.39362
▁date	-9.39393
▁dream	-9.3949
▁figure	-9.39587
▁Someone	-9.39602
▁sex	-9.39962
▁piece	-9.40134
or	-9.40149
▁words	-9.40505
▁People	-9.40834
▁million	-9.4086
▁beat	-9.40931
▁mistake	-9.41008
▁hasn	-9.41191
M	-9.41391
▁wedding	-9.41494
k	-9.41541
▁shut	-9.41839
▁bitch	-9.42048
▁Make	-9.42198
▁Nobody	-9.42477
▁ride	-9.4284
▁worse	-9.43164
▁fall	-9.43228
▁Sam	-9.43277
▁Actually	-9.43426
▁message	-9.43706
▁month	-9.4386
▁giving	-9.44042
▁sell	-9.44551
▁needed	-9.44598
▁sweet	-9.44603
▁careful	-9.44698
▁evidence	-9.44889
▁Shut	-9.44992
▁information	-9.45613
▁road	-9.45728
▁strange	-9.45831
▁turned	-9.4613
▁nobody	-9.4631
▁future	-9.46325
▁Remember	-9.46598
▁quiet	-9.46787
▁class	-9.46906
▁caught	-9.47333
▁re	-9.47547
▁clothes	-9.47605
▁throw	-9.47693
▁pain	-9.47886
▁felt	-9.48006
▁law	-9.48134
▁white	-9.48166
▁music	-9.4852
▁hurry	-9.48698
▁agree	-9.48728
▁letter	-9.48732
▁short	-9.48869
▁THAT	-9.49061
▁Mother	-9.49135
▁happening	-9.49165
▁darling	-9.49302
▁welcome	-9.49622
▁handle	-9.49678
▁Whatever	-9.4973
▁kept	-9.50007
▁mouth	-9.50282
▁wonderful	-9.50427
▁T	-9.50438
▁marry	-9.50539
▁Think	-9.50573
▁Everyone	-9.50583
▁Aren	-9.50743
▁bag	-9.50918
▁station	-9.50918
▁talked	-9.51002
▁accident	-9.51006
▁act	-9.51163
▁finish	-9.51209
▁B	-9.51219
▁drop	-9.51265
▁Mm	-9.5137
▁30	-9.51547
▁moving	-9.51979
▁finished	-9.52002
▁Stay	-9.52011
▁hey	-9.52138
▁tea	-9.52201
▁kidding	-9.52225
▁Since	-9.52233
▁Call	-9.5232
▁decided	-9.52749
▁weird	-9.53385
▁pull	-9.53419
▁Want	-9.53544
▁table	-9.53688
▁ya	-9.54002
▁de	-9.5405
▁wear	-9.54156
▁pass	-9.5419
▁Bye	-9.54569
▁Welcome	-9.54891
▁feet	-9.55
▁strong	-9.55192
▁bar	-9.55229
▁street	-9.55348
▁finally	-9.5561
▁loved	-9.55665
▁Damn	-9.55684
na	-9.55695
▁land	-9.55714
▁trip	-9.55796
▁interested	-9.55856
▁court	-9.56031
▁hotel	-9.56221
▁L	-9.56297
▁paid	-9.56308
▁watching	-9.56449
▁join	-9.56466
▁building	-9.56486
▁situation	-9.56542
▁spend	-9.56621
▁hang	-9.56638
▁Am	-9.56709
▁alright	-9.56787
▁train	-9.56799
▁lunch	-9.57003
▁near	-9.57039
▁5	-9.57307
▁Still	-9.57339
▁George	-9.57374
▁bought	-9.57484
▁Alright	-9.57564
▁um	-9.57648
▁ran	-9.57658
▁visit	-9.57678
▁Ok	-9.57688
▁Uncle	-9.57727
▁offer	-9.57806
▁Anyway	-9.57922
▁boat	-9.57934
▁Should	-9.5798
▁age	-9.58003
▁forgot	-9.58143
▁sometimes	-9.58224
▁system	-9.58262
▁sounds	-9.58336
▁Has	-9.58465
▁red	-9.58565
0	-9.58834
▁attack	-9.5895
▁AND	-9.5904
h	-9.59124
▁Every	-9.59133
▁test	-9.59305
▁Frank	-9.594
▁birthday	-9.59502
▁Jesus	-9.59676
▁Anything	-9.59939
▁Huh	-9.59945
▁afternoon	-9.5996
▁list	-9.60045
▁step	-9.60074
▁Michael	-9.60135
▁broke	-9.60173
▁dangerous	-9.60269
▁charge	-9.60652
▁crime	-9.60709
▁round	-9.60728
▁lying	-9.60831
us	-9.61336
▁fool	-9.61359
▁Looks	-9.61411
▁anywhere	-9.61446
▁marriage	-9.61661
▁Hmm	-9.61742
▁4	-9.61783
▁excuse	-9.61802
▁key	-9.6254
▁gentlemen	-9.62606
▁eh	-9.62635
▁security	-9.6273
▁Shall	-9.62779
▁protect	-9.63082
▁works	-9.63487
▁Three	-9.64106
le	-9.64223
▁fix	-9.64223
▁surprise	-9.64647
▁G	-9.64738
▁paper	-9.64747
▁Ha	-9.64827
▁floor	-9.65104
▁completely	-9.65118
▁difficult	-9.65235
▁certainly	-9.65342
▁present	-9.65371
▁box	-9.65555
▁normal	-9.65641
▁dark	-9.65705
▁horse	-9.65878
▁killer	-9.66363
▁movie	-9.66407
▁terrible	-9.66496
▁lovely	-9.66536
▁Try	-9.66653
▁quick	-9.66801
▁stopped	-9.67
ie	-9.67031
▁missed	-9.67051
▁lead	-9.67053
▁wearing	-9.67174
▁hide	-9.6725
▁meant	-9.67265
▁ass	-9.67434
▁Christmas	-9.67482
▁King	-9.67578
▁simple	-9.67716
▁imagine	-9.67738
▁interesting	-9.67918
▁prison	-9.67919
▁smart	-9.67949
▁Master	-9.67976
▁ring	-9.68096
▁angry	-9.68121
p	-9.68173
▁voice	-9.68465
▁More	-9.68482
▁personal	-9.68523
▁seat	-9.68738
▁Tom	-9.68758
▁OF	-9.68803
▁state	-9.69076
▁P	-9.69158
▁entire	-9.69199
▁card	-9.69251
▁Joe	-9.69492
▁cover	-9.69639
▁uncle	-9.69727
▁born	-9.69995
▁Charlie	-9.7007
▁Sit	-9.70073
▁o	-9.70075
▁bother	-9.70529
▁certain	-9.7079
▁boyfriend	-9.71036
▁area	-9.71123
▁Fuck	-9.71247
▁saved	-9.71288
▁Too	-9.71365
II	-9.71418
▁TV	-9.71448
▁mess	-9.71553
▁killing	-9.71656
▁cop	-9.71824
▁service	-9.71845
▁sitting	-9.71978
▁girlfriend	-9.7203
▁upset	-9.72057
▁definitely	-9.72115
▁during	-9.72269
▁David	-9.7242
▁apartment	-9.72432
▁15	-9.72443
▁un	-9.72459
▁middle	-9.72647
▁record	-9.72668
▁dress	-9.72687
▁fell	-9.72711
▁amazing	-9.72764
▁problems	-9.72775
▁involved	-9.72845
▁doubt	-9.72968
▁bank	-9.73305
▁lt	-9.73367
▁drunk	-9.73514
▁hungry	-9.73697
▁sake	-9.7371
▁"?	-9.73721
▁officer	-9.73735
▁instead	-9.73873
▁often	-9.73879
▁brain	-9.74137
▁kiss	-9.74143
▁perhaps	-9.74224
▁using	-9.74495
ta	-9.74673
▁pleasure	-9.74769
▁lawyer	-9.74857
▁wake	-9.7525
▁single	-9.75385
▁fair	-9.75395
▁song	-9.75477
▁dare	-9.75542
▁fish	-9.75569
z	-9.75596
▁contact	-9.7565
▁share	-9.75672
▁Daddy	-9.75874
▁smell	-9.76125
▁idiot	-9.76153
▁stick	-9.76267
▁position	-9.76282
▁Peter	-9.76301
▁blow	-9.76426
▁shop	-9.7648
C	-9.76482
▁jail	-9.76599
▁scene	-9.76887
▁Help	-9.76928
▁respect	-9.77003
g	-9.77067
▁calm	-9.77466
▁WHAT	-9.77512
▁totally	-9.7756
▁M	-9.77898
▁window	-9.77961
▁Everybody	-9.77968
▁swear	-9.78184
▁hello	-9.78277
▁club	-9.78405
▁appreciate	-9.7857
▁Paul	-9.78629
▁broken	-9.78692
▁buddy	-9.78737
▁Watch	-9.78901
▁WE	-9.79092
▁realize	-9.79095
c	-9.79221
▁Ben	-9.79436
▁York	-9.79583
▁Sometimes	-9.79846
▁Lieutenant	-9.79993
▁force	-9.80008
▁victim	-9.80061
▁teach	-9.80068
▁village	-9.80131
▁K	-9.80521
▁cops	-9.80535
▁sleeping	-9.80615
▁wine	-9.80676
▁Chief	-9.80754
▁store	-9.80869
▁staying	-9.81154
▁partner	-9.81227
da	-9.81252
▁moved	-9.81254
▁tough	-9.81302
▁patient	-9.8145
▁accept	-9.81543
▁Once	-9.81676
▁enjoy	-9.81984
▁film	-9.82016
▁space	-9.82161
▁master	-9.82233
▁De	-9.82245
▁ball	-9.82248
▁address	-9.82397
▁difference	-9.82647
▁ladies	-9.82981
▁Hurry	-9.83028
▁across	-9.8327
▁prove	-9.83309
▁forever	-9.8334
▁peace	-9.8343
▁bastard	-9.83484
▁Mary	-9.83535
▁relationship	-9.83557
▁sea	-9.83699
able	-9.83718
▁private	-9.83741
▁attention	-9.83801
▁count	-9.83902
▁arrest	-9.84155
is	-9.84176
▁Last	-9.84188
▁F	-9.84207
▁sad	-9.84284
▁Brother	-9.84357
▁Big	-9.84407
▁Forget	-9.84657
▁joke	-9.84747
▁quickly	-9.84819
▁IN	-9.85036
▁ground	-9.85118
▁Detective	-9.85124
ra	-9.85166
▁Over	-9.85191
▁ME	-9.85634
▁spent	-9.85703
▁fear	-9.85715
▁plane	-9.85789
▁history	-9.8581
▁forgive	-9.85987
▁gold	-9.86209
▁Before	-9.86271
▁rid	-9.86342
▁owe	-9.86352
▁fighting	-9.86494
▁Mike	-9.86695
▁General	-9.86698
▁none	-9.86708
▁Ms	-9.86712
▁Whoa	-9.86772
▁blame	-9.86858
▁bus	-9.86931
▁forward	-9.86988
▁cash	-9.87108
▁hundred	-9.87221
▁rich	-9.87375
▁standing	-9.87514
▁takes	-9.87669
▁god	-9.87671
▁cell	-9.87676
ha	-9.87677
la	-9.8772
▁U	-9.87947
▁honest	-9.88398
▁favor	-9.88555
▁notice	-9.88604
▁board	-9.88645
▁decision	-9.88745
▁public	-9.88755
▁e	-9.88755
you	-9.88769
▁truck	-9.8877
▁teacher	-9.88867
▁J	-9.88939
▁group	-9.88945
▁promised	-9.89211
▁Doesn	-9.89232
▁match	-9.89328
▁eating	-9.89443
▁escape	-9.89497
▁proud	-9.89956
▁12	-9.90156
ar	-9.90337
▁Exactly	-9.90548
▁Next	-9.90563
▁American	-9.90565
▁government	-9.90581
▁smoke	-9.90628
P	-9.90969
▁driving	-9.91084
▁impossible	-9.91174
▁gift	-9.91632
▁50	-9.91686
▁English	-9.91791
▁beer	-9.92025
▁soul	-9.92246
▁college	-9.92544
▁Back	-9.92602
▁blue	-9.92632
▁king	-9.92649
▁Goodbye	-9.92702
▁mention	-9.92854
▁t	-9.92903
▁liked	-9.9293
▁machine	-9.93414
▁field	-9.93549
RE	-9.93576
ne	-9.93609
▁fly	-9.93642
▁steal	-9.93665
one	-9.93756
▁lived	-9.93834
▁mate	-9.93845
▁ice	-9.93931
▁risk	-9.94051
▁Harry	-9.94151
ko	-9.94323
▁cute	-9.94345
▁Today	-9.94362
▁decide	-9.94409
▁seven	-9.94472
▁Besides	-9.94574
▁Al	-9.94848
▁waste	-9.94938
▁sing	-9.94949
▁wall	-9.95025
▁type	-9.95092
▁starting	-9.95124
R	-9.95141
ness	-9.95153
▁hadn	-9.95273
▁surprised	-9.95395
▁carry	-9.95441
▁wrote	-9.95486
te	-9.95808
▁Colonel	-9.95812
▁arrived	-9.95968
▁thousand	-9.95987
ka	-9.96033
ton	-9.96061
ling	-9.96158
▁foot	-9.96288
▁rules	-9.96368
▁Move	-9.96377
▁stuck	-9.96425
▁dying	-9.96528
▁absolutely	-9.96634
▁earlier	-9.96653
▁James	-9.96748
▁La	-9.97067
▁quit	-9.97072
▁French	-9.97099
▁orders	-9.97115
▁suspect	-9.97191
▁drinking	-9.97253
▁support	-9.97345
▁ok	-9.97423
▁hiding	-9.9748
law	-9.97489
ic	-9.97514
▁picked	-9.97759
▁bloody	-9.97762
▁duty	-9.97791
ING	-9.98007
no	-9.98069
▁walking	-9.98149
▁fit	-9.9817
▁eight	-9.98257
▁ex	-9.98547
▁immediately	-9.98587
▁Paris	-9.98641
▁Time	-9.9865
▁holding	-9.98827
▁Shit	-9.98872
▁weapon	-9.98891
▁Open	-9.98981
▁reach	-9.991
▁search	-9.99149
▁innocent	-9.99262
▁kitchen	-9.99546
▁price	-9.99561
▁putting	-9.99578
me	-9.99831
▁beginning	-10.0007
▁spot	-10.0017
▁HE	-10.0017
B	-10.0018
▁camera	-10.0023
▁breakfast	-10.0025
▁Better	-10.0034
▁Show	-10.0035
▁Bring	-10.0041
▁necessary	-10.0045
▁mission	-10.006
▁army	-10.0075
▁unless	-10.0083
▁herself	-10.0087
▁Henry	-10.0098
▁Somebody	-10.0104
▁Honey	-10.0104
▁choose	-10.0114
▁Professor	-10.013
▁computer	-10.0133
▁shoes	-10.0136
▁Earth	-10.0164
▁listening	-10.0175
▁Another	-10.0191
▁deep	-10.0195
▁sun	-10.0195
▁America	-10.0198
▁glass	-10.0203
▁earth	-10.0213
▁church	-10.0217
▁usually	-10.0221
▁allowed	-10.0234
son	-10.0239
▁arm	-10.025
▁third	-10.0263
▁y	-10.0272
▁interest	-10.0275
▁helped	-10.0275
▁Must	-10.0287
▁upstairs	-10.0289
▁passed	-10.0289
▁locked	-10.0306
▁helping	-10.0307
▁calls	-10.0307
▁nervous	-10.0326
▁asleep	-10.0328
el	-10.0329
▁crap	-10.0335
▁closed	-10.0338
▁Love	-10.0344
ley	-10.0351
▁whether	-10.036
▁suit	-10.0372
▁dirty	-10.0374
▁St	-10.0381
▁gas	-10.0386
▁keeping	-10.0387
▁figured	-10.039
▁cost	-10.0397
▁continue	-10.0402
▁d	-10.0415
▁wondering	-10.0425
▁IS	-10.0428
▁experience	-10.0436
▁star	-10.044
▁Max	-10.0441
▁miles	-10.0442
▁double	-10.0443
▁London	-10.0451
▁Were	-10.0456
▁speaking	-10.0467
▁ourselves	-10.0469
▁treat	-10.0474
▁oh	-10.0476
f	-10.0484
▁within	-10.0487
▁bottle	-10.05
▁books	-10.0505
▁Out	-10.0507
▁Check	-10.0511
▁taste	-10.0519
E	-10.0519
▁study	-10.0532
▁captain	-10.0532
▁admit	-10.0533
▁100	-10.0534
▁witness	-10.0544
▁client	-10.0551
N	-10.0588
▁prefer	-10.059
less	-10.0591
▁leg	-10.0593
▁file	-10.0596
▁further	-10.0599
▁judge	-10.0627
▁evil	-10.0632
ch	-10.0639
ma	-10.0654
▁Little	-10.0661
▁tree	-10.0684
▁Probably	-10.0685
▁extra	-10.0699
▁grow	-10.0699
▁Red	-10.0702
▁Sounds	-10.0703
▁drugs	-10.0709
▁Congratulations	-10.0723
▁Ask	-10.0739
▁ought	-10.0753
▁reading	-10.0758
O	-10.0765
▁pictures	-10.0776
▁President	-10.0777
▁press	-10.078
▁THIS	-10.0785
▁low	-10.0794
the	-10.0806
▁empty	-10.0807
▁self	-10.083
▁papers	-10.0837
▁neck	-10.0839
▁cat	-10.0841
▁Tomorrow	-10.0842
▁cross	-10.0848
▁Re	-10.0852
ke	-10.0861
▁cry	-10.0863
▁art	-10.0869
▁Bill	-10.0878
▁nose	-10.0884
ity	-10.0895
▁honor	-10.0911
do	-10.0921
▁stole	-10.0923
▁track	-10.0954
x	-10.096
▁worst	-10.097
▁everywhere	-10.0975
▁learned	-10.098
se	-10.0982
b	-10.0984
go	-10.0999
▁destroy	-10.1014
▁writing	-10.1026
▁Jim	-10.1035
ia	-10.1041
▁except	-10.1046
ry	-10.1061
▁magic	-10.1062
▁Mark	-10.1069
▁radio	-10.1076
▁plans	-10.1076
▁named	-10.1081
▁fresh	-10.1095
▁laugh	-10.1106
▁silly	-10.1107
▁danger	-10.1109
▁bathroom	-10.1131
▁sold	-10.1149
▁checked	-10.1154
it	-10.1155
▁Christ	-10.1158
▁Boy	-10.116
Cause	-10.1163
▁bomb	-10.117
▁account	-10.1184
▁dude	-10.1189
w	-10.119
▁Sergeant	-10.1191
▁begin	-10.1198
▁kick	-10.1205
▁cook	-10.1211
▁Tony	-10.1211
▁investigation	-10.1235
▁Morning	-10.124
▁shooting	-10.1286
▁weekend	-10.1287
▁DO	-10.1289
▁ha	-10.1295
▁H	-10.1306
▁seriously	-10.131
▁jump	-10.1322
▁FOR	-10.1324
▁favorite	-10.1325
▁photo	-10.1368
ation	-10.1369
▁Happy	-10.1375
▁Alex	-10.1381
▁guilty	-10.1395
▁San	-10.1398
ya	-10.1402
▁Five	-10.1409
▁warm	-10.1414
▁bear	-10.1418
▁dollars	-10.1426
▁memory	-10.1448
▁fired	-10.1453
▁Lady	-10.1453
▁pregnant	-10.146
▁spoke	-10.1464
▁themselves	-10.1466
co	-10.1488
▁drug	-10.1501
▁Danny	-10.1514
ni	-10.1535
▁bunch	-10.154
▁fat	-10.1565
▁planet	-10.1571
▁Inspector	-10.1576
▁driver	-10.1595
▁following	-10.1595
▁apologize	-10.1605
▁crying	-10.161
▁feels	-10.1612
▁advice	-10.1613
▁enemy	-10.1633
▁flight	-10.1638
▁slow	-10.1639
▁camp	-10.1658
▁park	-10.168
▁played	-10.1686
▁knife	-10.1693
▁responsible	-10.1701
▁twice	-10.1708
▁acting	-10.1727
▁skin	-10.1736
▁awful	-10.1753
▁planning	-10.1754
▁video	-10.1764
cause	-10.1764
▁fellow	-10.1765
▁discuss	-10.1769
▁hoping	-10.1786
▁Nick	-10.1798
▁summer	-10.1805
▁Y	-10.1805
▁Lee	-10.1809
▁recognize	-10.1818
▁grand	-10.1822
▁plenty	-10.183
ro	-10.1851
▁chief	-10.1872
▁gotten	-10.1879
▁build	-10.1885
▁Agent	-10.189
▁Majesty	-10.1901
▁Bob	-10.1902
▁Long	-10.1928
▁murdered	-10.1934
▁blind	-10.1938
▁Mmm	-10.1941
▁became	-10.1941
▁wind	-10.1942
▁final	-10.1947
▁Police	-10.1953
▁usual	-10.1959
▁feelings	-10.196
▁guard	-10.196
▁showed	-10.196
▁bigger	-10.1963
▁push	-10.1969
▁None	-10.1988
▁complete	-10.2027
▁allow	-10.2027
▁Major	-10.2028
▁relax	-10.2034
▁willing	-10.2039
▁19	-10.2046
▁lock	-10.2056
▁written	-10.2065
▁grab	-10.2066
▁Turn	-10.2066
▁condition	-10.2073
▁chicken	-10.208
▁Ooh	-10.2081
ies	-10.2085
ting	-10.2089
▁noticed	-10.2092
▁trick	-10.2099
▁hole	-10.2108
▁legs	-10.2108
▁due	-10.2116
ED	-10.2116
▁local	-10.2119
▁Enough	-10.212
ur	-10.213
▁seemed	-10.213
▁Won	-10.2132
▁ridiculous	-10.2148
▁Richard	-10.215
▁green	-10.2165
li	-10.2167
▁BE	-10.2192
▁medical	-10.2193
ment	-10.2205
▁pressure	-10.2207
hmm	-10.2208
▁Bo	-10.221
▁lab	-10.2211
▁milk	-10.2223
▁burn	-10.2223
▁ON	-10.2229
▁consider	-10.2238
▁seconds	-10.2244
ter	-10.2246
▁flowers	-10.2253
▁cup	-10.2262
▁huge	-10.2279
▁N	-10.2282
▁action	-10.2285
▁Jimmy	-10.2287
▁00	-10.2291
K	-10.2293
▁Martin	-10.2303
▁practice	-10.2312
▁suddenly	-10.2314
▁hardly	-10.2319
▁rock	-10.232
▁deserve	-10.2344
▁Black	-10.2355
▁race	-10.2361
ey	-10.2365
▁Yo	-10.2395
▁Johnny	-10.2401
▁manage	-10.2406
▁forgotten	-10.2411
▁sight	-10.2413
▁restaurant	-10.2416
▁hi	-10.2417
▁Without	-10.2418
il	-10.2422
time	-10.244
▁Ray	-10.2442
▁tight	-10.2444
▁closer	-10.2456
▁Absolutely	-10.2459
▁Yep	-10.2464
▁post	-10.2467
▁suggest	-10.247
▁common	-10.2474
▁apart	-10.2479
▁cousin	-10.2492
▁hero	-10.2497
▁Always	-10.2511
▁opinion	-10.2522
▁R	-10.2532
▁obviously	-10.2558
▁river	-10.257
▁arrested	-10.2591
▁conversation	-10.2597
year	-10.2601
▁president	-10.2609
▁Steve	-10.2618
▁trial	-10.2627
▁pulled	-10.2627
▁Unless	-10.2635
▁flat	-10.2644
▁beg	-10.2644
▁upon	-10.265
old	-10.2655
▁HAVE	-10.2657
▁easier	-10.2663
▁Most	-10.2664
▁Find	-10.2667
▁note	-10.2674
▁suicide	-10.2677
▁code	-10.2679
and	-10.2689
de	-10.2696
▁neither	-10.27
▁level	-10.2701
ri	-10.2706
▁folks	-10.2706
out	-10.2714
▁guest	-10.2718
▁Talk	-10.2728
▁tape	-10.2732
▁guns	-10.2738
▁keys	-10.2746
▁YOUR	-10.2746
▁agent	-10.2753
▁taught	-10.2757
▁general	-10.276
by	-10.277
ion	-10.2773
▁Sarah	-10.2775
▁Poor	-10.2781
▁stage	-10.2783
▁Dan	-10.2802
▁losing	-10.283
▁student	-10.2852
▁Billy	-10.2853
▁Pretty	-10.2859
▁Daniel	-10.2863
▁Guess	-10.287
▁Jane	-10.2875
▁Mum	-10.2884
▁dreams	-10.2887
v	-10.289
▁Dear	-10.2892
▁paying	-10.2893
▁arms	-10.2901
▁pal	-10.2901
▁feed	-10.2904
▁hat	-10.2919
▁hearing	-10.292
▁Except	-10.2934
▁crew	-10.294
▁Haven	-10.2962
▁daddy	-10.2965
est	-10.297
▁agreed	-10.2976
▁Ko	-10.2976
▁credit	-10.2977
▁aware	-10.2977
▁dropped	-10.2978
▁devil	-10.2981
▁island	-10.2986
▁City	-10.2987
▁criminal	-10.2996
▁dressed	-10.3018
▁band	-10.3019
▁serve	-10.3019
▁raise	-10.3032
▁stolen	-10.3035
Y	-10.3039
▁smile	-10.3039
▁simply	-10.3044
▁expecting	-10.3046
▁department	-10.3051
▁lord	-10.3055
▁11	-10.3063
san	-10.3067
▁health	-10.3068
▁Same	-10.308
▁operation	-10.308
▁Until	-10.3081
▁cake	-10.3082
▁correct	-10.3085
ba	-10.3092
▁corner	-10.3103
▁hanging	-10.3105
▁Robert	-10.3122
▁itself	-10.3136
ist	-10.3142
▁weapons	-10.3142
▁Ka	-10.3161
▁9	-10.3162
land	-10.3169
▁MY	-10.319
▁market	-10.3201
▁lately	-10.3208
▁heavy	-10.3212
▁training	-10.3215
▁Adam	-10.3228
▁invited	-10.3229
▁animal	-10.3231
▁40	-10.3239
▁Four	-10.3243
▁prepared	-10.3245
▁meat	-10.325
▁shower	-10.3261
▁Know	-10.3267
▁medicine	-10.3271
▁Ten	-10.3271
▁energy	-10.3297
▁career	-10.3305
▁concerned	-10.3316
▁afford	-10.3318
▁famous	-10.3319
rs	-10.3331
▁sweetheart	-10.3339
▁bringing	-10.3349
▁proof	-10.3353
▁Son	-10.3365
▁emergency	-10.3378
ji	-10.3381
▁main	-10.3383
L	-10.3394
▁madam	-10.3396
▁Eddie	-10.34
ho	-10.3403
▁ARE	-10.3404
▁stories	-10.342
▁loves	-10.3421
▁Sunday	-10.3425
▁Guys	-10.3434
▁goodbye	-10.3446
men	-10.3451
▁purpose	-10.3451
bye	-10.3456
▁opportunity	-10.3467
▁spirit	-10.3468
▁view	-10.3476
▁lay	-10.3477
all	-10.3478
▁Hang	-10.3479
▁knock	-10.3479
▁Se	-10.3487
▁disappeared	-10.3487
▁built	-10.3488
▁comfortable	-10.349
mi	-10.3495
▁Madam	-10.3501
▁mum	-10.3507
▁ticket	-10.3513
▁shame	-10.352
▁Tommy	-10.3528
G	-10.3528
▁ill	-10.3529
▁belong	-10.3532
▁W	-10.3539
▁travel	-10.3541
▁desk	-10.3575
▁ghost	-10.3579
▁walked	-10.3591
▁Anna	-10.3591
▁damage	-10.3612
▁Sister	-10.3619
▁Jo	-10.3621
▁harm	-10.3631
▁battle	-10.3653
▁names	-10.3659
▁size	-10.3667
▁KNOW	-10.3676
▁records	-10.3689
▁rule	-10.369
▁manager	-10.3691
▁finding	-10.3695
▁bottom	-10.3723
▁Mi	-10.3732
ca	-10.3738
▁major	-10.3741
▁Kim	-10.3752
▁excited	-10.3755
▁Old	-10.3759
▁Young	-10.3763
▁Mo	-10.3768
▁military	-10.3782
be	-10.3785
▁large	-10.3789
▁whose	-10.3793
▁asshole	-10.3804
▁ALL	-10.3806
▁Officer	-10.3807
▁gay	-10.3809
▁Pa	-10.3809
▁wild	-10.3837
▁bullet	-10.3838
▁whom	-10.3844
▁survive	-10.3846
▁White	-10.3848
F	-10.3857
▁breath	-10.3859
LL	-10.3859
▁rain	-10.3869
▁nature	-10.3873
▁nine	-10.3878
▁Calm	-10.388
▁research	-10.3893
▁Mama	-10.3894
▁Up	-10.3903
▁draw	-10.3904
▁Boss	-10.3906
▁fill	-10.3912
▁introduce	-10.3912
▁indeed	-10.3919
▁fake	-10.392
▁animals	-10.392
▁Had	-10.3923
ga	-10.3929
▁Ho	-10.3931
▁beauty	-10.3934
▁beach	-10.3948
▁detective	-10.3955
▁coat	-10.3964
▁Thomas	-10.3965
▁moon	-10.3966
▁bird	-10.3971
▁interview	-10.3985
▁letting	-10.3994
ner	-10.3995
▁co	-10.4003
▁possibly	-10.4007
▁NO	-10.4014
▁Commander	-10.4025
▁above	-10.403
▁natural	-10.403
▁per	-10.4048
▁cream	-10.4057
▁Li	-10.406
▁super	-10.4063
▁held	-10.4065
▁perfectly	-10.4066
▁Charles	-10.4069
ee	-10.4071
▁pants	-10.4071
▁project	-10.4073
▁several	-10.4076
▁pack	-10.4082
▁jealous	-10.4088
▁wash	-10.4095
▁especially	-10.4096
▁chair	-10.4103
▁lied	-10.4106
▁pretend	-10.4113
▁SO	-10.4113
▁shirt	-10.4118
▁settle	-10.4126
▁DON	-10.4133
▁ordered	-10.4135
▁Things	-10.4137
et	-10.4145
▁WAS	-10.415
▁Er	-10.4151
▁dry	-10.4173
▁dogs	-10.4173
▁contract	-10.4179
▁Dude	-10.418
▁gentleman	-10.4193
▁flying	-10.4201
▁signal	-10.4207
▁stayed	-10.4213
▁expected	-10.4223
▁dumb	-10.4231
5	-10.4234
▁oil	-10.4247
▁pool	-10.4248
▁speed	-10.4258
▁older	-10.4265
▁Anyone	-10.4266
mo	-10.427
▁cards	-10.4273
▁access	-10.4275
▁funeral	-10.4291
ce	-10.4296
▁gang	-10.4302
▁base	-10.4309
▁slept	-10.4315
▁followed	-10.4325
▁dancing	-10.4331
▁selling	-10.4341
▁House	-10.4342
▁Chris	-10.4351
▁Saturday	-10.4359
▁Both	-10.436
▁Da	-10.4364
▁handsome	-10.4368
▁Ever	-10.4369
▁remain	-10.4375
▁strength	-10.4392
▁Su	-10.4397
▁nearly	-10.4398
▁bath	-10.4399
j	-10.4409
▁mood	-10.4413
▁surgery	-10.4421
▁teeth	-10.4429
▁Relax	-10.4436
▁exist	-10.4436
▁knowing	-10.444
▁split	-10.4446
▁lift	-10.4454
▁Forgive	-10.4458
▁heaven	-10.4464
▁Bobby	-10.4466
▁easily	-10.4468
▁V	-10.4484
▁Chinese	-10.4496
ine	-10.4497
▁bridge	-10.4504
▁birth	-10.4513
▁El	-10.4522
ja	-10.4528
▁property	-10.4535
▁NOT	-10.4547
▁familiar	-10.4554
▁rent	-10.4563
off	-10.4567
▁Le	-10.4567
▁program	-10.457
sh	-10.4581
▁bodies	-10.4582
▁target	-10.4598
▁example	-10.4613
line	-10.4635
▁Car	-10.4637
ian	-10.4641
▁copy	-10.4643
▁nonsense	-10.4643
▁hall	-10.4651
lo	-10.4655
▁soldier	-10.4661
▁Aunt	-10.4671
▁leader	-10.4676
▁add	-10.4683
▁Ready	-10.4695
▁CAN	-10.4696
▁spare	-10.4707
▁owner	-10.4718
▁received	-10.4727
▁Friday	-10.4737
▁destroyed	-10.4746
▁clearly	-10.4751
▁German	-10.4751
▁bill	-10.4763
▁noise	-10.4767
▁mentioned	-10.4773
▁character	-10.4789
▁expensive	-10.4799
▁beyond	-10.4803
▁roll	-10.4804
▁con	-10.4807
▁Cut	-10.4812
▁awesome	-10.4812
▁Such	-10.4813
▁loose	-10.4818
▁Trust	-10.4827
▁grown	-10.4834
▁Their	-10.4841
▁horrible	-10.4845
▁gives	-10.4854
▁director	-10.4855
▁invite	-10.4859
▁24	-10.4862
▁letters	-10.4866
▁lights	-10.4887
▁finger	-10.4904
age	-10.491
▁scare	-10.4911
▁van	-10.4928
ish	-10.4928
▁powerful	-10.4929
▁Rose	-10.4931
▁stomach	-10.4932
▁Jake	-10.4955
of	-10.4964
▁monster	-10.4966
▁color	-10.497
▁details	-10.4986
▁roof	-10.4987
▁Eric	-10.499
▁threw	-10.4992
▁nuts	-10.4996
▁enter	-10.5012
▁appointment	-10.5019
▁sword	-10.5023
▁recently	-10.5032
▁assume	-10.5034
▁weather	-10.5047
▁Mac	-10.5054
▁Street	-10.5065
▁paint	-10.5084
▁responsibility	-10.5091
▁weight	-10.5091
▁Holy	-10.5092
ir	-10.5092
▁sending	-10.5094
▁While	-10.5095
▁issue	-10.5105
▁heat	-10.5108
▁Day	-10.5109
▁tie	-10.5117
▁permission	-10.5126
▁games	-10.5155
▁m	-10.5171
▁bullshit	-10.5171
▁bucks	-10.5173
▁Maria	-10.5174
▁Doc	-10.5181
▁West	-10.521
▁pig	-10.5212
▁rough	-10.5217
▁WITH	-10.5222
▁bite	-10.5231
▁release	-10.5233
▁connection	-10.5245
▁DNA	-10.5258
▁garden	-10.5265
▁brothers	-10.5268
▁justice	-10.5269
▁aunt	-10.5272
▁Prince	-10.5275
▁regret	-10.5281
▁Sa	-10.5284
▁Especially	-10.5291
▁Otherwise	-10.5293
▁farm	-10.5299
▁returned	-10.5304
▁Life	-10.5306
▁staff	-10.5307
▁sooner	-10.5312
▁command	-10.5312
▁onto	-10.5314
▁weak	-10.5314
▁Bad	-10.5317
▁Roger	-10.5318
▁JUST	-10.5323
▁fan	-10.5328
H	-10.533
▁somehow	-10.5336
▁nurse	-10.535
▁ended	-10.5355
▁obvious	-10.536
▁faith	-10.5381
ful	-10.5382
▁bro	-10.5385
▁divorce	-10.5388
▁France	-10.5391
▁lots	-10.5391
▁faster	-10.5395
▁ugly	-10.5401
ler	-10.5402
▁opened	-10.5409
▁nowhere	-10.5411
▁Park	-10.5421
di	-10.5425
▁model	-10.5427
▁Grace	-10.5427
▁photos	-10.5433
▁Ta	-10.5434
▁soldiers	-10.5436
▁sky	-10.5454
ER	-10.5461
▁lesson	-10.5464
▁Simon	-10.547
▁Easy	-10.5484
▁students	-10.5487
▁Seriously	-10.5495
▁bedroom	-10.5495
▁turns	-10.5498
▁murderer	-10.5503
▁horses	-10.5517
ki	-10.552
▁signed	-10.5525
▁brave	-10.5528
▁strike	-10.553
▁25	-10.5546
▁wound	-10.5547
▁pocket	-10.5547
▁Run	-10.5548
way	-10.5553
▁keeps	-10.5554
▁War	-10.5578
▁style	-10.5589
▁statement	-10.5594
va	-10.5594
▁Chi	-10.5599
▁bike	-10.5615
▁lies	-10.5617
▁Six	-10.5622
▁language	-10.5628
▁hired	-10.5636
▁turning	-10.5658
▁However	-10.5661
▁forced	-10.5664
▁insane	-10.5669
W	-10.5677
▁queen	-10.5677
▁Aye	-10.5683
▁remind	-10.5692
ng	-10.5694
▁caused	-10.5696
▁Smith	-10.5701
▁Stand	-10.5705
▁guests	-10.5717
▁places	-10.5719
▁nor	-10.572
▁likely	-10.5728
▁among	-10.573
▁suffer	-10.5739
▁planned	-10.5743
▁hurts	-10.5752
▁heading	-10.5758
▁loss	-10.5759
▁South	-10.5763
▁Queen	-10.5771
▁laughing	-10.5773
▁truly	-10.5774
2	-10.5775
▁Ladies	-10.579
▁pieces	-10.5795
▁fixed	-10.5815
▁Wouldn	-10.5824
▁covered	-10.5827
▁fucked	-10.5829
▁ruin	-10.5832
▁member	-10.5836
clock	-10.5845
mon	-10.5872
▁fortune	-10.5875
▁Cool	-10.5875
▁attacked	-10.588
▁treatment	-10.5882
▁downstairs	-10.5885
J	-10.5889
▁stone	-10.5892
▁rush	-10.5902
▁dig	-10.5911
ek	-10.5913
▁vacation	-10.5913
▁storm	-10.5914
▁numbers	-10.5934
▁subject	-10.5934
▁block	-10.5938
▁biggest	-10.594
▁FBI	-10.5941
▁Walter	-10.5952
00	-10.5953
▁trade	-10.5957
▁fancy	-10.5965
▁legal	-10.5965
▁otherwise	-10.5971
▁matters	-10.5971
▁balls	-10.5977
▁understood	-10.5978
▁map	-10.5991
▁challenge	-10.5998
▁Scott	-10.6
VE	-10.6008
▁bread	-10.601
▁Papa	-10.6013
ge	-10.6014
▁shape	-10.6024
▁movies	-10.6025
▁fate	-10.6027
▁fuckin	-10.603
▁sweetie	-10.6035
▁Un	-10.6042
▁Neither	-10.6044
▁avoid	-10.6053
▁sugar	-10.6058
▁results	-10.6058
ary	-10.6067
▁dealing	-10.607
▁concern	-10.6084
▁BUT	-10.6093
▁odd	-10.6096
ran	-10.6101
▁buried	-10.6115
▁Thought	-10.6116
▁pair	-10.6118
▁p	-10.6127
▁breaking	-10.6131
▁William	-10.6142
▁priest	-10.6144
▁Hope	-10.6167
▁proper	-10.6174
▁affair	-10.6178
▁pre	-10.6185
▁female	-10.6187
▁showing	-10.6188
▁failed	-10.619
▁complicated	-10.619
▁chest	-10.6207
▁Tim	-10.621
▁screw	-10.6211
▁towards	-10.6239
▁professional	-10.6268
▁Hell	-10.627
▁cheap	-10.6276
▁Ed	-10.6281
▁warrant	-10.6285
▁sudden	-10.6299
ah	-10.63
▁Pete	-10.6308
pa	-10.6324
V	-10.6333
▁original	-10.6339
▁ears	-10.6341
▁cars	-10.6346
▁ideas	-10.6349
▁insurance	-10.6351
▁painting	-10.6353
▁Ryan	-10.6354
▁buying	-10.6366
▁Men	-10.6372
▁soup	-10.6387
▁vote	-10.6389
▁path	-10.6389
▁tickets	-10.6391
▁HERE	-10.6404
▁ruined	-10.6408
▁assistant	-10.6409
▁14	-10.642
▁regular	-10.6424
▁science	-10.6432
ak	-10.6437
▁social	-10.6441
▁200	-10.6441
▁Quite	-10.645
▁Send	-10.6451
▁Van	-10.6453
▁opening	-10.649
▁According	-10.6495
▁Madame	-10.6506
▁eggs	-10.651
▁pro	-10.6515
▁Tonight	-10.6517
▁believed	-10.6517
▁THERE	-10.6519
▁hidden	-10.6528
▁request	-10.6532
▁Kate	-10.6534
ina	-10.6536
▁badly	-10.6539
▁greatest	-10.654
▁mark	-10.6548
▁Baby	-10.6562
▁pop	-10.6562
▁warning	-10.6568
▁belongs	-10.6569
▁airport	-10.6572
▁location	-10.6575
▁revenge	-10.6577
▁useless	-10.6577
▁Amy	-10.6584
▁awake	-10.6591
▁Apparently	-10.6592
▁curious	-10.6592
▁THEY	-10.6593
▁clever	-10.6594
▁Couldn	-10.6595
▁Matt	-10.6595
ger	-10.66
▁meal	-10.6601
▁Honor	-10.6604
▁prepare	-10.6615
▁shows	-10.6621
▁deliver	-10.6626
▁jacket	-10.6626
▁create	-10.6628
▁Grandma	-10.6631
▁Certainly	-10.6632
▁brings	-10.6633
3	-10.6637
bo	-10.6638
▁safety	-10.6639
▁WELL	-10.664
▁Rome	-10.6657
▁thief	-10.6657
▁yourselves	-10.6659
▁Coming	-10.6664
▁North	-10.6665
▁England	-10.6669
▁Russian	-10.667
▁theory	-10.6674
▁headed	-10.6677
▁trap	-10.6678
▁tongue	-10.6688
▁license	-10.6693
▁Also	-10.6696
▁Mind	-10.6696
▁barely	-10.6696
bi	-10.6698
▁Seems	-10.6703
lin	-10.6704
▁boring	-10.6708
▁checking	-10.6721
▁mail	-10.6722
▁saving	-10.6723
▁professor	-10.6729
▁Sheriff	-10.6731
▁kinda	-10.6732
▁process	-10.6733
▁shock	-10.6737
▁Believe	-10.6739
▁waited	-10.6743
▁Nope	-10.6743
▁Minister	-10.6761
▁amount	-10.6766
▁ate	-10.677
▁dick	-10.6771
▁lover	-10.6772
▁Although	-10.6772
▁singing	-10.6777
▁glasses	-10.678
▁Nah	-10.678
ism	-10.6788
▁poison	-10.6789
▁Going	-10.6802
▁grave	-10.6808
▁speech	-10.6825
▁total	-10.6832
▁Anybody	-10.6844
▁cab	-10.6849
▁incredible	-10.6852
▁victims	-10.6853
ant	-10.6857
▁clock	-10.6867
▁unit	-10.6868
▁Ra	-10.6874
▁Arthur	-10.6876
▁pray	-10.6885
▁Kevin	-10.6889
▁Na	-10.6892
▁loud	-10.6893
▁advantage	-10.6897
▁artist	-10.6898
▁fantastic	-10.6899
▁Brian	-10.6899
head	-10.6907
▁excellent	-10.691
▁leaves	-10.6914
▁borrow	-10.6922
▁delicious	-10.6935
▁personally	-10.6935
▁whoever	-10.6942
▁US	-10.6947
▁Emily	-10.6948
▁Kill	-10.6951
▁goddamn	-10.6955
▁north	-10.6956
▁center	-10.6964
▁tour	-10.6968
▁lonely	-10.6971
▁angel	-10.6973
▁ashamed	-10.6977
▁romantic	-10.6987
▁Ain	-10.6988
huh	-10.699
▁throat	-10.699
house	-10.6995
▁page	-10.6996
ier	-10.7001
▁naked	-10.7008
▁Laura	-10.7017
▁depends	-10.7023
▁ear	-10.7032
▁LIKE	-10.7041
▁football	-10.7043
▁Jerry	-10.7046
▁discovered	-10.7059
▁Alice	-10.7059
▁joking	-10.7065
sen	-10.7066
▁exciting	-10.7066
▁pills	-10.7068
▁focus	-10.7077
▁toilet	-10.708
▁season	-10.7087
▁official	-10.7092
▁offered	-10.7095
▁Clark	-10.7102
▁managed	-10.7113
▁harder	-10.712
▁Eh	-10.7121
▁picking	-10.713
▁firm	-10.7139
▁Ja	-10.7144
▁patients	-10.7151
▁Jason	-10.7153
▁SHE	-10.7155
▁Larry	-10.7156
▁arrive	-10.7158
▁ls	-10.716
▁Star	-10.7163
▁carefully	-10.7166
▁decent	-10.7166
▁success	-10.7171
▁soft	-10.7172
▁Gentlemen	-10.7173
▁site	-10.7177
▁mountain	-10.7183
▁realized	-10.7188
▁Leo	-10.7188
ate	-10.7191
▁pardon	-10.7196
ti	-10.7197
un	-10.72
▁surely	-10.72
▁plate	-10.7204
▁intend	-10.7213
▁er	-10.723
▁spell	-10.7231
▁Mommy	-10.7232
▁RIGHT	-10.7233
▁files	-10.7234
ster	-10.7236
▁younger	-10.7238
po	-10.7239
▁Santa	-10.7246
chi	-10.7258
▁properly	-10.7261
▁meaning	-10.7262
▁charges	-10.7267
▁happiness	-10.7267
▁pot	-10.7267
▁Ya	-10.7269
▁pity	-10.7278
▁Po	-10.728
▁Carl	-10.7283
▁bye	-10.7285
▁outta	-10.7291
▁appear	-10.7291
▁stars	-10.7298
▁particular	-10.7298
▁male	-10.7302
▁celebrate	-10.7306
ted	-10.7312
um	-10.7317
▁cheese	-10.7318
▁spread	-10.7318
▁solve	-10.7327
▁Jean	-10.7332
▁Monday	-10.7347
▁grandfather	-10.7349
▁uniform	-10.7351
▁gate	-10.7353
▁memories	-10.7359
▁falling	-10.7359
▁carrying	-10.7364
▁Almost	-10.7384
▁Grandpa	-10.739
▁la	-10.7396
▁Kelly	-10.7398
--	-10.7401
▁journey	-10.7405
▁GET	-10.7407
▁freedom	-10.7408
▁reached	-10.7418
▁Co	-10.7426
▁trace	-10.743
▁disappear	-10.7431
▁tip	-10.7434
▁favour	-10.7444
▁Whose	-10.7446
▁dating	-10.745
▁Mar	-10.7456
▁drinks	-10.7461
▁genius	-10.7467
▁doin	-10.7469
▁pen	-10.747
▁Fred	-10.7487
▁wise	-10.749
he	-10.7503
▁chocolate	-10.751
▁Z	-10.7511
▁woods	-10.7515
dy	-10.7517
▁c	-10.7519
▁pleased	-10.7526
▁Ri	-10.7526
▁source	-10.7535
▁Lisa	-10.754
▁warn	-10.7546
▁brilliant	-10.7547
▁Rachel	-10.7548
▁bright	-10.7553
▁Green	-10.756
▁jerk	-10.756
▁fingers	-10.7571
▁Japanese	-10.7582
▁13	-10.7585
za	-10.7589
▁Shouldn	-10.7592
▁breathe	-10.7595
▁shopping	-10.7595
▁schedule	-10.7598
▁Darling	-10.7598
▁Unfortunately	-10.7609
▁Answer	-10.7618
cha	-10.7635
▁OH	-10.7635
▁snow	-10.7636
▁spring	-10.7639
▁Dave	-10.7642
ci	-10.7644
▁factory	-10.7656
▁OUT	-10.766
▁drove	-10.7662
▁refuse	-10.7668
▁crack	-10.7677
▁neighborhood	-10.7679
▁Might	-10.7682
▁shift	-10.7687
▁Alan	-10.7698
▁expert	-10.7699
▁cancer	-10.7704
▁plant	-10.7708
▁Lu	-10.7709
▁forest	-10.771
ive	-10.7713
den	-10.7721
fi	-10.7724
▁committed	-10.7736
ol	-10.7737
▁screwed	-10.774
▁lines	-10.7743
▁Andy	-10.7761
▁illegal	-10.7761
▁Eat	-10.7768
▁role	-10.777
▁heads	-10.7787
▁south	-10.7794
▁Aw	-10.78
▁disease	-10.7805
▁members	-10.7808
▁Du	-10.781
▁dump	-10.7811
▁reasons	-10.7812
▁data	-10.7812
▁State	-10.7815
▁cure	-10.7815
▁escaped	-10.7819
▁starts	-10.7823
▁direction	-10.7834
▁High	-10.7839
▁Follow	-10.785
▁whoa	-10.7855
▁Bar	-10.7865
▁Tu	-10.7869
▁Jeff	-10.7871
▁grateful	-10.7871
▁f	-10.7875
▁eaten	-10.788
▁according	-10.789
▁burned	-10.7919
▁solution	-10.7927
▁kicked	-10.793
▁capable	-10.7931
ff	-10.7935
▁alarm	-10.7938
▁Either	-10.7947
▁attorney	-10.7959
▁n	-10.7966
▁answers	-10.7971
▁touched	-10.7974
▁Down	-10.798
▁Need	-10.7985
▁available	-10.7987
▁healthy	-10.8001
▁knowledge	-10.8011
▁bleeding	-10.8013
▁non	-10.8022
▁threat	-10.8026
▁pizza	-10.8027
▁fought	-10.8028
▁Looking	-10.8029
▁Wasn	-10.8032
▁rat	-10.8049
▁confused	-10.8056
▁Carter	-10.8062
▁shake	-10.807
▁swim	-10.8072
1	-10.8072
▁Fucking	-10.8074
▁secrets	-10.8083
▁rate	-10.8085
▁enemies	-10.8092
▁useful	-10.8106
▁explanation	-10.8122
▁created	-10.8125
▁cow	-10.8127
at	-10.8132
▁crash	-10.8136
▁jury	-10.8136
▁sat	-10.8136
▁cigarette	-10.8137
▁cases	-10.8148
▁holiday	-10.8165
▁hook	-10.8178
▁ABOUT	-10.8179
▁g	-10.818
▁reality	-10.8185
▁UP	-10.8193
▁traffic	-10.8193
▁Lo	-10.8208
▁stranger	-10.8211
▁crowd	-10.8216
▁incident	-10.8226
▁toast	-10.8235
▁cares	-10.8238
▁Wanna	-10.8244
▁cooking	-10.8246
▁East	-10.8247
▁Soon	-10.8256
▁collect	-10.8256
▁Louis	-10.8266
▁Drop	-10.8276
▁HOW	-10.8286
▁Quick	-10.8287
▁player	-10.8287
▁unusual	-10.8294
▁Home	-10.8299
▁goodness	-10.8304
▁Victor	-10.8304
▁chose	-10.8305
der	-10.8305
▁value	-10.8309
▁Use	-10.8312
▁route	-10.8314
▁Yu	-10.8316
▁families	-10.8321
▁treasure	-10.8332
▁newspaper	-10.8337
▁ID	-10.8339
▁circumstances	-10.834
wood	-10.8349
▁protection	-10.8354
▁earn	-10.8355
ber	-10.8355
▁Annie	-10.8359
▁hunting	-10.836
ating	-10.8363
▁Start	-10.8371
▁period	-10.8371
▁officers	-10.8373
▁fail	-10.8385
▁Sal	-10.8388
▁Quiet	-10.8399
▁convince	-10.8403
▁cleaning	-10.8405
▁bored	-10.8418
▁positive	-10.8428
ul	-10.8447
▁Jenny	-10.8447
▁Highness	-10.8448
▁progress	-10.8457
▁switch	-10.8458
ov	-10.8467
ise	-10.8467
▁garage	-10.8468
▁piss	-10.8471
▁Been	-10.8485
▁British	-10.8485
▁talent	-10.8487
▁egg	-10.8501
▁chat	-10.8505
▁staring	-10.8511
▁coincidence	-10.8512
▁coach	-10.8516
ku	-10.8516
▁Fire	-10.853
▁society	-10.8533
▁stealing	-10.8536
▁spoken	-10.854
▁streets	-10.8547
▁doctors	-10.8547
▁taxi	-10.8549
▁Marie	-10.8554
▁Cheers	-10.8555
ze	-10.856
▁claim	-10.8572
▁freak	-10.8574
▁exchange	-10.8577
ance	-10.8579
▁Close	-10.858
▁Emma	-10.8582
▁drag	-10.8586
▁watched	-10.8587
▁filled	-10.859
▁goin	-10.8597
▁slip	-10.86
▁Perfect	-10.8602
▁bone	-10.8605
▁spy	-10.8609
▁grew	-10.861
▁load	-10.8623
wa	-10.8629
▁Many	-10.8632
▁suffering	-10.8632
nd	-10.8633
ron	-10.8636
▁changing	-10.8647
as	-10.8648
▁Lucy	-10.865
▁ends	-10.8658
▁midnight	-10.8664
▁aside	-10.8665
▁Phil	-10.867
▁Ni	-10.8672
▁Director	-10.8672
▁Blue	-10.8679
▁equipment	-10.8682
▁Being	-10.8685
▁Princess	-10.8688
▁effect	-10.869
▁telephone	-10.8695
▁Con	-10.8698
▁Ro	-10.8699
▁Careful	-10.8701
▁smoking	-10.8705
▁beating	-10.8712
▁Pick	-10.8725
▁GO	-10.8738
▁dust	-10.874
mer	-10.8743
▁Luke	-10.8747
▁released	-10.8747
▁Again	-10.8753
▁juice	-10.8754
▁Susan	-10.8756
si	-10.8757
▁Ku	-10.8758
▁prisoner	-10.8761
▁en	-10.8763
▁reckon	-10.8764
▁scary	-10.8764
▁receive	-10.8768
▁maid	-10.8768
▁Save	-10.8769
▁mustn	-10.8776
▁liar	-10.8782
▁wood	-10.8782
tic	-10.8786
▁appears	-10.8788
▁urgent	-10.8789
▁mister	-10.8792
U	-10.8794
▁bride	-10.8808
▁false	-10.8808
ac	-10.8814
▁Han	-10.8817
▁remove	-10.8819
▁Ken	-10.8825
▁rude	-10.8828
▁babe	-10.883
ated	-10.8836
▁pissed	-10.8837
▁Per	-10.8837
▁tied	-10.8842
▁Indian	-10.8849
ck	-10.8851
▁miracle	-10.8865
▁grade	-10.8866
▁marks	-10.8867
▁growing	-10.8867
▁exact	-10.8877
▁Vi	-10.8879
▁Claire	-10.8881
▁hire	-10.8881
▁burning	-10.8893
▁Mister	-10.8895
▁community	-10.8898
▁passing	-10.89
▁Drink	-10.8902
▁bags	-10.8906
▁Mine	-10.891
▁border	-10.8912
▁rescue	-10.8914
▁Half	-10.892
▁competition	-10.8922
▁castle	-10.8922
▁princess	-10.8922
▁square	-10.8924
▁directly	-10.8934
▁Speak	-10.8935
▁grandmother	-10.8935
▁Ne	-10.8936
▁material	-10.8944
▁tests	-10.8945
▁Excellent	-10.8948
ana	-10.8956
▁distance	-10.8964
▁loan	-10.8965
▁changes	-10.8967
▁sale	-10.897
ju	-10.8975
▁pounds	-10.8975
▁stock	-10.8981
▁tall	-10.8983
▁raised	-10.8998
▁physical	-10.8999
▁Julia	-10.9003
▁universe	-10.9004
ard	-10.9008
▁treated	-10.9019
▁sexual	-10.9025
▁500	-10.9026
▁vehicle	-10.9027
▁Army	-10.9033
▁convinced	-10.9035
▁defense	-10.9039
▁lf	-10.9041
per	-10.9042
▁Whoever	-10.905
▁trees	-10.9063
ping	-10.9065
▁suck	-10.9068
▁mystery	-10.9077
▁NOW	-10.9079
▁guarantee	-10.9083
▁witch	-10.9085
▁0	-10.9085
▁riding	-10.9091
▁prince	-10.9101
▁mirror	-10.9102
ous	-10.9109
▁friendly	-10.9111
▁temple	-10.9116
▁transfer	-10.9117
ong	-10.9122
▁powers	-10.9122
hi	-10.9127
▁presence	-10.9127
▁Helen	-10.9132
▁AT	-10.9132
io	-10.9134
▁Min	-10.9144
▁higher	-10.9144
ass	-10.9152
▁Lucky	-10.9157
ally	-10.9163
▁Pull	-10.9168
▁flower	-10.9168
▁Karen	-10.9174
▁sometime	-10.9175
▁cast	-10.9176
▁champagne	-10.9176
▁World	-10.9177
▁Indeed	-10.9197
▁hunt	-10.9206
▁terms	-10.9214
▁stronger	-10.9216
▁woke	-10.9217
▁secretary	-10.9219
▁tiny	-10.922
▁served	-10.9224
▁lower	-10.9227
▁image	-10.923
▁customers	-10.9241
▁Eve	-10.9246
▁Sun	-10.9251
▁Washington	-10.9263
▁Sha	-10.9264
▁studying	-10.9264
▁edge	-10.9282
▁Pardon	-10.9283
▁provide	-10.9288
ena	-10.9291
▁Elizabeth	-10.9298
▁Julie	-10.93
▁estate	-10.9301
▁apparently	-10.9306
▁clue	-10.9316
▁Beautiful	-10.9316
▁Money	-10.9317
▁States	-10.9319
lan	-10.932
▁Brown	-10.932
▁Jackson	-10.9329
▁Real	-10.9332
▁Monsieur	-10.9333
pe	-10.9336
▁laid	-10.9336
op	-10.9342
▁rare	-10.9346
▁fishing	-10.9354
▁mama	-10.9361
chan	-10.9363
▁Anne	-10.9363
▁engine	-10.9377
we	-10.9378
▁considered	-10.9382
▁pulling	-10.9383
▁separate	-10.9386
▁result	-10.9391
▁custody	-10.9391
ten	-10.9391
▁assure	-10.9392
▁lack	-10.9399
▁Dean	-10.9402
▁China	-10.9404
▁parts	-10.9414
▁Chuck	-10.9415
▁Rick	-10.9416
▁wasting	-10.9423
▁friendship	-10.9425
▁courage	-10.9427
▁slowly	-10.9431
▁throwing	-10.9441
▁guards	-10.9449
▁pure	-10.9451
4	-10.9457
▁impression	-10.9457
▁Special	-10.9466
field	-10.9466
▁Best	-10.9469
▁lake	-10.9469
▁dis	-10.9476
▁device	-10.9477
gi	-10.9482
▁Blake	-10.9482
▁suspicious	-10.9484
▁text	-10.9485
▁wheel	-10.9485
▁led	-10.9487
▁Night	-10.9488
▁Count	-10.9499
▁doors	-10.95
▁dozen	-10.9515
▁seek	-10.9519
▁Stan	-10.9526
▁connected	-10.9527
for	-10.9534
▁searching	-10.9545
▁reward	-10.9551
▁Christian	-10.9551
▁parking	-10.9551
▁walls	-10.9554
▁bones	-10.9554
▁effort	-10.9555
▁robbery	-10.9557
▁ho	-10.9558
▁winter	-10.9558
▁True	-10.9561
▁Angel	-10.9562
▁desperate	-10.9564
▁MAN	-10.9564
▁witnesses	-10.9568
▁ordinary	-10.9568
▁Sean	-10.9569
▁becoming	-10.9572
▁Judge	-10.9573
ny	-10.9574
▁row	-10.9574
▁Glad	-10.9575
▁babies	-10.9585
▁commit	-10.9586
▁conference	-10.9588
ville	-10.9591
▁Yet	-10.9591
▁Sara	-10.9593
▁clients	-10.96
▁fella	-10.9602
▁tail	-10.9603
ad	-10.9606
▁based	-10.9607
han	-10.961
▁studio	-10.9612
▁below	-10.9617
ang	-10.9618
▁fallen	-10.9626
▁reputation	-10.9626
ham	-10.9628
▁audience	-10.9637
▁runs	-10.9637
▁tear	-10.964
▁Hank	-10.9644
▁Hong	-10.9645
▁task	-10.9645
▁desire	-10.9646
▁repeat	-10.9646
▁Getting	-10.9647
▁issues	-10.9647
▁Pop	-10.9656
▁Water	-10.9656
▁besides	-10.9658
▁detail	-10.9659
▁sharp	-10.966
▁Europe	-10.966
▁belt	-10.9666
que	-10.9667
▁Name	-10.9679
▁silver	-10.9684
▁sec	-10.9685
▁Finally	-10.9693
▁performance	-10.9695
▁desert	-10.9697
▁Kyle	-10.9697
▁button	-10.97
▁package	-10.9702
▁Plus	-10.971
▁sheriff	-10.9723
▁IF	-10.9723
▁object	-10.9723
em	-10.9731
▁debt	-10.9733
▁joy	-10.9739
▁ambulance	-10.9742
▁Taylor	-10.976
▁India	-10.976
les	-10.976
▁pie	-10.976
▁grandma	-10.9762
▁political	-10.9768
▁screen	-10.9771
▁Sweet	-10.9778
▁Obviously	-10.9788
▁HIM	-10.9795
▁score	-10.9808
▁whenever	-10.981
led	-10.9816
▁Ted	-10.9822
▁Chicago	-10.9831
▁stairs	-10.9833
IN	-10.9843
▁direct	-10.9844
▁Di	-10.9847
▁national	-10.9848
▁Shh	-10.9858
▁notes	-10.9862
▁violence	-10.9898
▁engaged	-10.9898
▁Though	-10.9904
▁smells	-10.9904
▁Step	-10.991
▁wishes	-10.9911
▁Robin	-10.9912
▁Joey	-10.9918
ino	-10.9919
▁sub	-10.992
▁alcohol	-10.9921
▁Jin	-10.9923
ow	-10.9932
▁Enjoy	-10.9943
▁birds	-10.995
▁sand	-10.996
▁agreement	-10.9961
ru	-10.9962
▁Italian	-10.9964
▁prints	-10.9965
▁Jones	-10.9968
▁brand	-10.9976
▁United	-10.9992
▁Number	-10.9994
▁sin	-11.0007
day	-11.0021
▁Seven	-11.0022
▁advance	-11.0022
▁ancient	-11.0025
▁sacrifice	-11.0025
▁disgusting	-11.0029
▁arrange	-11.0036
▁rice	-11.0039
▁Guy	-11.0039
▁blew	-11.0041
▁ONE	-11.0047
▁Ba	-11.005
▁Ru	-11.0051
bu	-11.0054
▁extremely	-11.006
▁bless	-11.0061
▁Ar	-11.0062
▁honour	-11.0071
▁breathing	-11.0073
▁stood	-11.0077
▁Cha	-11.0077
▁punch	-11.0082
▁Far	-11.0088
▁creature	-11.0091
▁Dead	-11.0092
▁Later	-11.0102
▁settled	-11.0104
LY	-11.0105
▁sentence	-11.0106
▁bound	-11.0118
▁lad	-11.0118
so	-11.0122
▁Work	-11.0127
rd	-11.0137
▁Pay	-11.014
▁humans	-11.0141
con	-11.0141
▁nasty	-11.0142
▁Morgan	-11.0146
▁wire	-11.0149
▁rape	-11.0157
▁Gary	-11.0163
▁se	-11.0169
▁Ga	-11.0181
▁mayor	-11.0182
▁salt	-11.0186
▁Amanda	-11.0189
▁signs	-11.0195
▁knocked	-11.0195
▁Ali	-11.0204
▁began	-11.0206
gan	-11.0206
▁points	-11.0206
▁shoulder	-11.0209
▁trash	-11.0218
▁anti	-11.0222
▁campaign	-11.0228
▁Hall	-11.0231
▁Ju	-11.0232
▁da	-11.0242
che	-11.0248
▁fully	-11.0248
▁Read	-11.0248
▁iron	-11.0251
▁Albert	-11.0251
▁fever	-11.0257
▁alien	-11.0275
▁trail	-11.0277
▁realise	-11.0277
▁fruit	-11.0282
▁defend	-11.0283
▁outfit	-11.0288
▁ocean	-11.0291
▁recall	-11.0302
▁library	-11.0307
▁warned	-11.0311
vi	-11.0312
▁attitude	-11.0319
▁Said	-11.032
▁remains	-11.032
▁sexy	-11.0327
▁giant	-11.0328
▁Jan	-11.0331
▁arranged	-11.0333
▁insist	-11.0343
▁Play	-11.0348
▁tank	-11.0349
▁lips	-11.035
▁behave	-11.0353
▁teaching	-11.0358
▁mistakes	-11.0361
▁hated	-11.0361
▁reports	-11.0362
▁THINK	-11.0362
▁precious	-11.0367
ford	-11.0367
▁pilot	-11.0376
▁Yesterday	-11.0376
▁bull	-11.0377
▁lieutenant	-11.0379
▁prize	-11.038
▁former	-11.0388
▁YEAH	-11.0388
▁Second	-11.039
▁percent	-11.0399
ize	-11.0401
▁Women	-11.0414
▁Patrick	-11.0423
▁brains	-11.0426
▁carried	-11.0427
▁senior	-11.0427
▁yellow	-11.043
▁Head	-11.0431
▁kidnapped	-11.0434
▁similar	-11.0441
▁cap	-11.0441
je	-11.0445
▁GOT	-11.0448
▁Under	-11.0452
▁Greg	-11.0456
▁delivery	-11.0458
ning	-11.0461
▁silent	-11.0466
▁Wake	-11.0474
▁Kind	-11.0475
▁concert	-11.0485
▁spending	-11.0489
▁rope	-11.0493
▁Stone	-11.0504
▁bothering	-11.0512
▁Gee	-11.0515
▁piano	-11.0516
▁Way	-11.0517
▁fed	-11.0519
▁setting	-11.0525
▁popular	-11.0527
▁Josh	-11.0531
zi	-11.0535
▁range	-11.054
▁remembered	-11.054
ized	-11.0541
ring	-11.0546
▁Hm	-11.0547
▁stopping	-11.0557
▁Cause	-11.0558
▁attend	-11.056
▁television	-11.0565
▁Japan	-11.0565
▁Off	-11.0577
▁Death	-11.0584
▁Ti	-11.0587
▁commander	-11.0588
▁Maggie	-11.0589
▁thousands	-11.0589
▁customer	-11.0589
▁foreign	-11.0591
▁thin	-11.0594
▁Hand	-11.0598
▁joint	-11.0615
▁monkey	-11.0619
▁winning	-11.063
▁entirely	-11.063
▁cameras	-11.0634
▁current	-11.0639
▁chasing	-11.0643
▁silence	-11.0648
▁Hard	-11.0652
▁honestly	-11.0666
▁section	-11.067
▁shots	-11.0672
▁thrown	-11.0673
▁chase	-11.0683
▁Understand	-11.0684
▁behavior	-11.0685
▁secure	-11.0697
▁writer	-11.0697
▁Mexico	-11.0697
▁specific	-11.0699
▁reaction	-11.0705
▁entrance	-11.0712
sha	-11.072
▁metal	-11.072
▁minister	-11.0721
▁argue	-11.0728
▁mask	-11.0734
▁basement	-11.0736
▁Pi	-11.0744
▁Ki	-11.075
▁habit	-11.0751
▁twenty	-11.0755
▁curse	-11.0761
▁terribly	-11.0762
▁palace	-11.0762
▁guts	-11.0762
▁shoe	-11.0763
▁mr	-11.0774
▁including	-11.0774
▁skills	-11.0775
▁disappointed	-11.0784
shi	-11.079
▁Department	-11.0805
▁Security	-11.081
▁beast	-11.0816
▁trapped	-11.0821
▁gorgeous	-11.0832
don	-11.0834
▁En	-11.084
▁Much	-11.084
▁opposite	-11.0841
▁cabin	-11.0842
▁wallet	-11.0842
ging	-11.0847
▁mixed	-11.0849
▁quarter	-11.0864
▁inform	-11.0881
▁Dick	-11.0884
▁option	-11.0886
▁pushed	-11.0889
▁charming	-11.0893
▁demon	-11.0894
▁confess	-11.0896
▁latest	-11.0901
▁cruel	-11.0902
▁Him	-11.0906
▁magazine	-11.0924
▁tears	-11.0924
▁Girl	-11.0926
▁panic	-11.0928
side	-11.093
▁century	-11.0932
▁Johnson	-11.0939
▁cos	-11.0939
▁Thursday	-11.0958
▁mental	-11.0959
vo	-11.0961
▁failure	-11.0963
▁leads	-11.0964
▁chain	-11.0969
▁aboard	-11.0976
▁nephew	-11.0982
▁anger	-11.1004
▁authority	-11.1012
▁Mu	-11.1012
▁highly	-11.1017
▁sweat	-11.1023
well	-11.1025
▁threatened	-11.1033
▁Club	-11.1034
▁abandoned	-11.1035
▁Gu	-11.1036
▁nightmare	-11.1037
▁HER	-11.1041
▁Jesse	-11.1045
▁Ross	-11.1046
▁offering	-11.1056
▁attempt	-11.1065
ker	-11.1065
id	-11.1068
▁Ram	-11.107
▁mercy	-11.1071
▁Lily	-11.1071
kin	-11.1072
▁Kong	-11.1081
▁Roy	-11.1082
▁disturb	-11.1086
▁21	-11.1091
▁COME	-11.1099
▁intelligence	-11.1109
ut	-11.1112
▁article	-11.1113
▁Island	-11.1114
▁sucks	-11.1121
▁print	-11.1123
▁confirm	-11.1125
▁fellas	-11.1126
▁shy	-11.1131
▁collection	-11.1134
▁Mel	-11.1139
▁School	-11.114
▁Te	-11.1146
▁Ke	-11.1148
▁parties	-11.115
▁valuable	-11.1155
▁hung	-11.1155
▁successful	-11.1155
▁deny	-11.1164
▁Super	-11.1167
▁confession	-11.1167
▁neighbor	-11.1174
ex	-11.1176
▁slave	-11.1179
▁Twenty	-11.1193
ou	-11.1199
▁Tuesday	-11.1208
▁Pat	-11.1211
▁policy	-11.1218
▁pet	-11.1219
▁frightened	-11.122
▁Hu	-11.1223
▁closing	-11.124
▁flesh	-11.1243
▁Honestly	-11.1244
9	-11.1244
▁Girls	-11.1248
▁mix	-11.1248
▁trigger	-11.1252
▁armed	-11.1255
▁modern	-11.1256
▁Instead	-11.1257
▁understanding	-11.1257
▁Imagine	-11.1258
▁reported	-11.1259
▁vision	-11.1264
▁joined	-11.1264
▁dies	-11.1272
▁homework	-11.1273
▁trusted	-11.1276
▁pride	-11.1278
▁bust	-11.1281
ball	-11.1288
▁identity	-11.1293
▁stress	-11.1294
▁cutting	-11.1295
▁jumped	-11.1296
▁GOOD	-11.1306
▁mostly	-11.1306
▁assault	-11.1309
▁Howard	-11.131
▁clinic	-11.1311
▁Jamie	-11.1315
▁complain	-11.1322
▁Cat	-11.1323
▁DID	-11.1324
▁technology	-11.1325
▁Surely	-11.1327
▁SEE	-11.1327
▁possibility	-11.1331
▁eventually	-11.1331
▁Si	-11.1334
▁impressed	-11.1345
▁gear	-11.1352
▁pleasant	-11.1359
▁Jacob	-11.1362
jo	-11.1362
▁bow	-11.1363
▁Val	-11.1366
▁Vincent	-11.138
▁Lucas	-11.1381
▁Africa	-11.1386
▁Lou	-11.1386
▁stake	-11.1392
▁Sea	-11.1402
▁Mason	-11.1403
▁Spanish	-11.1408
▁chosen	-11.1416
looking	-11.1424
▁squad	-11.1436
▁Germany	-11.1442
▁Gi	-11.1442
▁accepted	-11.1446
▁ignore	-11.1449
▁California	-11.1451
min	-11.1453
▁trunk	-11.1459
▁bowl	-11.1464
▁Del	-11.1465
▁messed	-11.1468
▁interrupt	-11.1474
▁university	-11.1477
▁Clear	-11.1482
▁wide	-11.1488
▁sensitive	-11.149
▁embarrassing	-11.1495
ney	-11.1497
▁Air	-11.1499
▁rise	-11.1499
▁nerve	-11.1505
▁learning	-11.1507
▁Bro	-11.1515
▁chick	-11.152
▁punishment	-11.1521
▁300	-11.1523
▁mistaken	-11.1525
▁Sally	-11.1528
▁Joseph	-11.1529
▁plus	-11.153
▁Ugh	-11.1531
▁title	-11.1545
▁agency	-11.1547
▁routine	-11.1547
▁Promise	-11.1547
▁faces	-11.155
gen	-11.1553
▁garbage	-11.1554
▁perform	-11.1556
▁pin	-11.1556
▁dirt	-11.1558
▁tricks	-11.1568
▁Kid	-11.1569
▁trained	-11.157
▁solid	-11.157
▁elevator	-11.1586
lu	-11.1588
▁fashion	-11.159
▁kissed	-11.1593
▁hurting	-11.1597
▁generous	-11.1599
▁childhood	-11.1602
▁cave	-11.1605
▁virus	-11.1623
▁cheat	-11.1624
▁bury	-11.1627
▁spoil	-11.1631
▁steps	-11.1636
▁term	-11.1638
▁politics	-11.1641
ble	-11.1644
▁Art	-11.1648
▁Having	-11.1649
▁Molly	-11.1651
tro	-11.1664
▁whore	-11.1666
▁guide	-11.1668
▁surveillance	-11.1669
▁motive	-11.167
▁Barry	-11.1671
▁Andrew	-11.1671
▁mountains	-11.1671
▁Pre	-11.1679
▁sample	-11.1689
▁rooms	-11.1691
▁becomes	-11.1693
▁Ji	-11.1694
▁hug	-11.1699
gu	-11.1701
▁Bi	-11.1701
▁leading	-11.1704
▁Feel	-11.1705
▁Funny	-11.1706
▁swing	-11.1707
▁comfort	-11.1707
▁yard	-11.1714
▁surface	-11.1717
▁swimming	-11.1717
▁exam	-11.1728
nce	-11.1729
▁Parker	-11.1729
▁protecting	-11.1731
ik	-11.1738
▁east	-11.1739
▁noble	-11.1745
▁WANT	-11.1745
▁gain	-11.1746
▁candy	-11.1751
ung	-11.1758
▁disaster	-11.1761
▁Gordon	-11.1762
▁accused	-11.1768
▁deck	-11.1771
▁removed	-11.1772
▁wanting	-11.179
▁Cor	-11.1794
▁Angela	-11.1798
▁wounded	-11.1798
▁torture	-11.1799
▁Eva	-11.18
▁winner	-11.1802
▁jobs	-11.1804
▁le	-11.1804
▁Carol	-11.1805
▁bullets	-11.1806
▁crossed	-11.1813
▁profile	-11.182
▁Pro	-11.1822
▁impressive	-11.1825
▁online	-11.184
▁00.	-11.1841
▁approach	-11.1846
▁design	-11.1852
▁enjoying	-11.1859
▁windows	-11.186
▁agents	-11.1862
▁servant	-11.187
▁worries	-11.1871
▁Greetings	-11.1873
▁bail	-11.1879
▁wherever	-11.188
▁Other	-11.1883
▁grandpa	-11.1883
▁loser	-11.1888
▁sandwich	-11.1888
▁u	-11.189
ini	-11.1891
▁imagination	-11.1892
▁inspector	-11.1895
▁Each	-11.1896
▁hitting	-11.19
▁injured	-11.1904
▁Woo	-11.191
▁End	-11.1914
ship	-11.1914
▁actor	-11.1916
▁fond	-11.1926
▁exercise	-11.1931
▁plain	-11.1931
▁sports	-11.1932
ite	-11.1932
▁Oliver	-11.1935
▁theater	-11.1941
ette	-11.1942
▁Jackie	-11.1948
▁purse	-11.1957
▁pan	-11.196
du	-11.1962
▁Roman	-11.1965
▁ceremony	-11.1967
▁counting	-11.1969
▁favourite	-11.1971
▁background	-11.1971
▁defeat	-11.1978
▁Pan	-11.1979
▁supply	-11.198
down	-11.1981
▁suits	-11.1981
▁cleaned	-11.1982
▁cage	-11.1984
▁answering	-11.1994
▁goal	-11.1999
▁experiment	-11.2007
▁fuel	-11.2008
oh	-11.2016
▁prevent	-11.202
▁couch	-11.2021
▁Fu	-11.2023
▁Year	-11.2025
▁butter	-11.2026
▁climb	-11.2026
▁Shoot	-11.2028
▁snake	-11.2031
▁Strange	-11.2032
▁counter	-11.2034
▁Nor	-11.2046
▁demand	-11.2049
▁confidence	-11.2051
▁passion	-11.2055
▁dawn	-11.2057
▁prisoners	-11.2058
▁event	-11.2061
▁pushing	-11.2061
▁cancel	-11.2066
▁Heh	-11.2075
▁congratulations	-11.2078
▁related	-11.2078
▁beaten	-11.2081
▁WHY	-11.2087
▁chances	-11.2105
▁knees	-11.2108
▁Lewis	-11.2109
▁Wilson	-11.2109
▁Hot	-11.2113
▁Definitely	-11.2117
▁blast	-11.212
▁suffered	-11.2122
▁Found	-11.2129
▁informed	-11.2137
▁cock	-11.2141
▁negative	-11.2142
▁tax	-11.2144
▁exit	-11.2148
▁rocks	-11.215
▁scream	-11.2151
▁explosion	-11.2156
▁sergeant	-11.2158
▁alibi	-11.2158
▁AS	-11.2159
▁Linda	-11.2163
king	-11.2171
▁brown	-11.2173
▁screaming	-11.2173
▁Nathan	-11.2175
▁visiting	-11.2181
▁Terry	-11.2186
▁Mal	-11.2194
▁circle	-11.2194
▁leak	-11.2202
▁drawing	-11.2212
▁Edward	-11.2213
▁GOING	-11.2214
▁someday	-11.222
▁media	-11.222
▁refused	-11.2223
▁facts	-11.2231
back	-11.2232
▁thou	-11.2237
▁duck	-11.2237
▁entered	-11.2239
▁Duke	-11.2249
▁loving	-11.225
let	-11.225
▁foolish	-11.2251
▁Cho	-11.2256
▁gather	-11.226
▁45	-11.2262
▁Rock	-11.2263
▁cheating	-11.2268
▁mass	-11.2269
▁replace	-11.2271
▁alert	-11.2276
▁Hill	-11.2282
▁damned	-11.2284
▁National	-11.2291
▁fence	-11.2292
▁therapy	-11.2301
▁survived	-11.2302
▁quality	-11.2302
▁investigate	-11.2305
▁na	-11.2309
▁education	-11.2311
▁Charlotte	-11.2314
▁April	-11.2322
▁argument	-11.2325
▁embarrassed	-11.2327
▁invitation	-11.2328
ent	-11.2329
▁hill	-11.234
▁Cal	-11.2341
▁Mayor	-11.2342
▁Barbara	-11.2342
▁describe	-11.2345
▁basically	-11.2345
▁pa	-11.2347
▁messages	-11.2349
▁Hotel	-11.2349
▁rip	-11.2361
▁Bay	-11.2364
▁skull	-11.2364
▁millions	-11.2366
▁Betty	-11.2368
▁Carlos	-11.2369
▁charm	-11.2369
▁Jay	-11.2371
▁gym	-11.239
▁closet	-11.2394
▁dumped	-11.2396
▁ships	-11.2401
▁Hear	-11.2404
▁WHO	-11.2404
ile	-11.2405
▁patrol	-11.2409
▁Marcus	-11.2413
▁Eight	-11.2414
▁potential	-11.2415
hm	-11.2417
▁adult	-11.242
ial	-11.2427
▁scratch	-11.2427
▁Room	-11.2427
▁wave	-11.243
▁assignment	-11.2435
▁culture	-11.2437
▁Stupid	-11.2441
▁enjoyed	-11.2441
▁Chan	-11.2452
▁Gotta	-11.2454
just	-11.2454
▁WOULD	-11.2455
▁conscience	-11.2458
▁Catherine	-11.2469
▁Ellen	-11.247
▁violent	-11.2471
▁workers	-11.2473
▁Bloody	-11.2479
▁actual	-11.2482
▁Meet	-11.2482
▁w	-11.2483
ita	-11.2486
▁bastards	-11.2495
ev	-11.2497
▁costs	-11.2497
▁worrying	-11.2498
▁victory	-11.2498
▁struggle	-11.25
▁lend	-11.2504
▁identify	-11.2508
▁defendant	-11.2509
▁Throw	-11.2511
▁miserable	-11.2512
▁fourth	-11.2515
▁pink	-11.2524
▁sneak	-11.2526
▁someplace	-11.2526
▁zone	-11.2527
▁plastic	-11.2535
▁songs	-11.2535
▁Fi	-11.2539
ence	-11.2539
▁dreaming	-11.2542
▁Chloe	-11.2544
▁delay	-11.2544
▁deaf	-11.2546
▁limit	-11.2549
▁golf	-11.2552
▁Donna	-11.2555
▁west	-11.2561
mp	-11.2561
▁emotional	-11.2564
▁frame	-11.2567
▁documents	-11.257
▁Ve	-11.2572
▁answered	-11.2578
▁gods	-11.2586
▁benefit	-11.259
▁Speaking	-11.2593
▁comment	-11.2596
▁delivered	-11.2596
▁ability	-11.2601
▁reporter	-11.2616
▁backup	-11.2617
▁forces	-11.2617
▁Tyler	-11.2618
▁considering	-11.2619
▁pee	-11.262
▁shadow	-11.2621
▁nail	-11.2626
▁Frankie	-11.2627
▁Abby	-11.264
▁Cooper	-11.2648
▁tunnel	-11.2655
▁wipe	-11.2655
▁wondered	-11.2659
▁angle	-11.2662
▁tower	-11.2667
▁pit	-11.2672
▁Margaret	-11.2679
▁passport	-11.2691
▁Doug	-11.2691
▁port	-11.2691
▁Steven	-11.2693
ped	-11.2697
▁loaded	-11.2704
▁bug	-11.2708
▁procedure	-11.2709
▁Grand	-11.2713
▁drama	-11.2716
▁Americans	-11.2717
▁Martha	-11.2718
im	-11.2719
▁reasonable	-11.2723
▁wasted	-11.2724
▁cleared	-11.2724
▁betrayed	-11.2727
▁mobile	-11.2727
▁fetch	-11.273
▁apple	-11.2734
▁bills	-11.274
▁status	-11.274
▁Trying	-11.274
▁practically	-11.2744
▁ghosts	-11.2746
▁wounds	-11.2746
her	-11.2749
▁22	-11.275
▁troops	-11.275
▁holy	-11.2753
▁Gar	-11.2756
▁dish	-11.2762
▁boots	-11.2775
▁Lots	-11.2776
▁WILL	-11.2778
▁Ron	-11.2781
▁attractive	-11.2793
Z	-11.2793
▁Miller	-11.2794
▁contest	-11.2796
▁Blood	-11.28
▁pathetic	-11.281
▁vampire	-11.2812
▁painful	-11.2812
▁Tokyo	-11.2816
tu	-11.2818
▁digging	-11.2825
▁recent	-11.2829
▁wolf	-11.2829
▁shelter	-11.2831
▁virgin	-11.2833
can	-11.2834
▁Ex	-11.2834
▁link	-11.2839
▁legend	-11.284
▁sauce	-11.2843
▁Ow	-11.2844
▁sisters	-11.2847
▁pattern	-11.2853
▁deserves	-11.2858
▁policeman	-11.2859
▁unhappy	-11.286
au	-11.2863
▁tend	-11.2868
▁council	-11.2874
▁signature	-11.2874
▁starving	-11.2878
▁destiny	-11.2881
▁partners	-11.2885
▁drank	-11.2893
ray	-11.2893
▁tracks	-11.2894
▁coward	-11.2896
ano	-11.2897
▁hates	-11.2899
▁rob	-11.29
▁orange	-11.2902
▁Wonderful	-11.2904
▁influence	-11.2906
▁Grab	-11.2908
▁Davis	-11.2912
▁however	-11.2912
▁costume	-11.2914
▁moves	-11.2917
▁Italy	-11.2925
▁host	-11.2936
▁instructions	-11.2937
▁Nina	-11.2939
stone	-11.2943
▁Saint	-11.2947
▁grass	-11.2952
▁Cross	-11.296
▁bars	-11.296
▁Philip	-11.2967
▁network	-11.2968
▁Francis	-11.297
▁Ann	-11.2971
▁Tae	-11.2973
▁23	-11.2974
▁Pe	-11.2981
▁Wednesday	-11.2982
▁Marty	-11.2988
▁investigating	-11.2991
▁dealer	-11.2993
▁Jessica	-11.2994
▁afterwards	-11.2996
▁Pass	-11.2998
▁90	-11.2999
▁supper	-11.3001
▁cigarettes	-11.3002
▁Dis	-11.3009
▁sheep	-11.3012
▁strip	-11.3013
AL	-11.3029
▁Court	-11.3032
▁Hannah	-11.3034
▁degree	-11.3041
▁Jonathan	-11.3045
▁confirmed	-11.3058
▁flag	-11.306
▁proceed	-11.3063
▁Vegas	-11.3065
▁yo	-11.3068
fa	-11.3069
▁Katie	-11.3076
▁timing	-11.3076
▁Germans	-11.3076
▁beef	-11.3079
▁satisfied	-11.3081
▁ln	-11.3083
▁Bruce	-11.3085
▁corpse	-11.3089
▁surgeon	-11.3091
▁headache	-11.3102
ach	-11.3104
car	-11.311
▁escort	-11.3115
▁response	-11.3115
▁Comrade	-11.3115
▁Jordan	-11.3115
ward	-11.3116
▁AN	-11.3117
▁engagement	-11.3118
zo	-11.3121
my	-11.3124
▁heck	-11.3125
▁charity	-11.3127
▁Bravo	-11.3127
▁ah	-11.3128
▁cheer	-11.313
▁laundry	-11.3133
▁necklace	-11.3139
▁Coffee	-11.3142
▁minor	-11.3145
▁charged	-11.3152
▁zero	-11.3157
▁events	-11.316
▁bat	-11.3172
▁coast	-11.3174
▁prick	-11.3177
▁version	-11.318
▁Va	-11.318
tter	-11.3182
▁Till	-11.3184
▁capital	-11.3188
▁photograph	-11.3193
▁script	-11.3193
▁occasion	-11.3196
▁royal	-11.3197
▁neighbors	-11.3207
▁colleague	-11.321
▁offense	-11.3211
ero	-11.3217
▁Coach	-11.3222
▁Tri	-11.3226
▁ending	-11.3232
ky	-11.3243
▁Free	-11.3244
▁museum	-11.3252
▁traitor	-11.3254
▁Left	-11.3267
▁behalf	-11.3273
ries	-11.3284
▁meantime	-11.3285
▁stubborn	-11.3285
▁baseball	-11.3286
▁packed	-11.3288
▁apology	-11.3292
▁hid	-11.3303
▁Cole	-11.3303
▁terrific	-11.3304
▁Batman	-11.3309
fu	-11.331
▁nearby	-11.3313
▁balance	-11.3314
▁widow	-11.332
ig	-11.332
▁lifetime	-11.3327
nt	-11.3328
▁basic	-11.3329
▁temperature	-11.3332
▁pipe	-11.3335
▁Wayne	-11.3335
▁dollar	-11.3337
▁b	-11.3343
▁ease	-11.3345
uk	-11.3347
▁pretending	-11.3349
bar	-11.3351
▁nation	-11.3357
su	-11.3363
▁murders	-11.3365
▁Light	-11.3369
▁Sophie	-11.3373
▁jokes	-11.3376
▁shown	-11.3378
▁Brad	-11.3381
▁Fair	-11.3381
▁colour	-11.3391
▁Senator	-11.3395
▁succeed	-11.3395
▁Yup	-11.3396
▁Shin	-11.3396
▁mile	-11.3408
▁Boys	-11.3412
▁Prime	-11.3416
tra	-11.3418
▁financial	-11.342
▁WHERE	-11.3429
LE	-11.3432
▁permit	-11.3435
▁possession	-11.3439
▁jam	-11.3441
▁boxes	-11.3443
▁wrap	-11.3443
uh	-11.3452
▁sport	-11.3473
▁uncomfortable	-11.3482
▁insult	-11.3486
▁singer	-11.3488
▁classes	-11.3488
▁salad	-11.3495
▁Rebecca	-11.3507
▁Stephen	-11.3509
▁Los	-11.3511
▁nuclear	-11.3514
▁tent	-11.3516
▁helpful	-11.3518
▁flash	-11.3523
▁respond	-11.3533
tan	-11.3535
▁Kids	-11.3545
▁tradition	-11.3545
▁busted	-11.355
▁Bon	-11.3554
▁sink	-11.3557
room	-11.356
▁seal	-11.3562
mail	-11.3563
▁Gus	-11.3568
▁wore	-11.3578
▁Family	-11.3583
▁selfish	-11.3587
▁Already	-11.3593
▁robbed	-11.3593
▁divorced	-11.3594
▁recording	-11.3595
ver	-11.3601
▁awkward	-11.3602
▁resist	-11.3605
▁slipped	-11.3606
▁district	-11.3609
▁chef	-11.361
▁unique	-11.3612
berg	-11.3613
▁dropping	-11.3613
▁junk	-11.3624
▁normally	-11.363
▁ages	-11.3633
▁footage	-11.3642
▁express	-11.3644
qui	-11.3645
▁series	-11.3651
iao	-11.3657
▁anniversary	-11.3663
▁guessing	-11.3663
▁fingerprints	-11.3664
▁Texas	-11.3676
▁Land	-11.3677
our	-11.3677
▁Hands	-11.3679
▁lousy	-11.3686
▁golden	-11.3693
hand	-11.3696
▁raped	-11.3698
▁Oscar	-11.3702
▁Royal	-11.3702
▁colonel	-11.3705
▁fianc	-11.3705
▁proposal	-11.3708
▁everyday	-11.3712
▁annoying	-11.3714
▁guilt	-11.3717
▁appeal	-11.3718
▁Ver	-11.3719
▁touching	-11.3724
ara	-11.3725
▁strangers	-11.3726
▁thick	-11.373
▁noon	-11.3733
▁Wi	-11.3734
izing	-11.3735
▁gentle	-11.3735
▁Team	-11.3736
▁Matthew	-11.3743
▁stable	-11.3759
▁Shi	-11.3775
mar	-11.3778
▁recommend	-11.3779
▁governor	-11.3779
▁merely	-11.378
▁complaint	-11.3783
▁sounded	-11.3794
▁Lois	-11.3794
▁Jen	-11.3795
▁hundreds	-11.3795
▁committee	-11.3795
▁badge	-11.3799
▁Fa	-11.3801
▁crush	-11.3803
oo	-11.3808
▁Teacher	-11.381
▁broad	-11.3819
▁Justin	-11.3826
▁struck	-11.3828
▁hoped	-11.3831
▁Sleep	-11.3833
over	-11.3836
▁worker	-11.384
▁Wrong	-11.3841
▁di	-11.3843
▁Whoo	-11.3844
ius	-11.385
▁crisis	-11.3854
▁Buy	-11.3855
▁Drive	-11.3858
▁po	-11.3862
▁Gold	-11.3863
▁supplies	-11.3864
▁OR	-11.3865
that	-11.3866
▁hmm	-11.3871
▁blown	-11.3872
▁shout	-11.3872
▁medication	-11.3874
▁matches	-11.3876
gue	-11.3882
▁mistress	-11.3887
▁lecture	-11.3889
▁mysterious	-11.389
▁pub	-11.3891
▁Party	-11.3895
▁movement	-11.3895
▁intention	-11.3897
▁review	-11.3901
▁champion	-11.391
▁Ricky	-11.3913
▁propose	-11.3916
▁connect	-11.392
more	-11.3922
▁belly	-11.3923
ding	-11.3923
▁River	-11.3927
▁reminds	-11.3929
ari	-11.3939
▁powder	-11.3943
▁anytime	-11.3948
▁BACK	-11.3949
▁CIA	-11.3949
vin	-11.3954
▁COULD	-11.3956
▁transport	-11.3958
▁Cos	-11.3959
▁Commissioner	-11.396
▁honeymoon	-11.3965
▁accounts	-11.3972
▁Hal	-11.3974
▁activity	-11.3976
▁motion	-11.3978
▁surrender	-11.3986
▁criminals	-11.3987
▁intelligent	-11.3989
▁Ruth	-11.3989
▁awfully	-11.4008
▁unknown	-11.4009
▁Rob	-11.4013
▁motherfucker	-11.4013
▁interfere	-11.4015
▁Interesting	-11.4015
▁testify	-11.4015
▁greater	-11.4022
▁HIS	-11.4024
▁LET	-11.4027
▁Louise	-11.4036
work	-11.4037
▁Book	-11.4037
▁messing	-11.4043
▁returning	-11.4044
▁r	-11.4046
▁wings	-11.4047
▁lessons	-11.4048
▁math	-11.405
▁Gonna	-11.4051
▁Julian	-11.4056
▁furniture	-11.4058
▁services	-11.4063
▁description	-11.4065
▁options	-11.4066
▁Berlin	-11.4068
▁trauma	-11.4068
▁liquor	-11.4068
tion	-11.4069
lon	-11.4069
▁conditions	-11.4074
▁Judy	-11.4075
▁Beth	-11.4083
▁Herr	-11.4083
▁crown	-11.4085
▁recognise	-11.4085
▁profit	-11.4087
▁Ash	-11.4103
▁territory	-11.4105
▁Mummy	-11.4106
▁Elena	-11.4106
▁grant	-11.4106
▁Jung	-11.4107
▁appropriate	-11.411
▁Catch	-11.4111
▁Em	-11.4114
▁nut	-11.4115
▁Knock	-11.4122
▁pill	-11.4123
ub	-11.4124
▁Nancy	-11.4125
rn	-11.4132
▁Moon	-11.4132
▁Told	-11.4133
▁reveal	-11.4133
▁Change	-11.4133
ide	-11.4135
ella	-11.4135
▁designed	-11.4139
▁Mad	-11.4148
▁moral	-11.4148
▁betray	-11.4163
▁Lovely	-11.4169
▁Lake	-11.4171
▁Dennis	-11.4172
ay	-11.4173
▁bra	-11.4174
▁decisions	-11.4178
▁TIME	-11.4178
▁studied	-11.4179
▁tune	-11.418
▁brief	-11.4181
▁Children	-11.4182
▁Nonsense	-11.4189
ren	-11.4193
fe	-11.4194
▁Whether	-11.4196
▁locker	-11.4199
▁Made	-11.4209
▁literally	-11.421
▁somethin	-11.4213
what	-11.4221
▁darkness	-11.4222
▁Diana	-11.4223
▁Karl	-11.4225
▁Nurse	-11.4226
▁Hit	-11.4231
▁doc	-11.4233
ab	-11.4234
▁grace	-11.4235
▁operate	-11.4235
▁Fran	-11.4236
▁drill	-11.4237
▁smiling	-11.4243
▁heal	-11.4249
▁spirits	-11.4251
▁standard	-11.4253
▁transferred	-11.4257
▁Ran	-11.4258
▁Harvey	-11.4267
▁Francisco	-11.4267
▁creatures	-11.4269
like	-11.4271
▁tattoo	-11.4272
▁landed	-11.4283
▁shine	-11.4283
▁bum	-11.4284
▁Makes	-11.4284
▁Road	-11.4298
▁tracking	-11.4299
▁aim	-11.4299
▁Juan	-11.4301
▁falls	-11.4302
▁pile	-11.4304
▁niece	-11.4304
▁SOME	-11.4305
▁Russia	-11.4306
▁ka	-11.4315
▁slap	-11.4315
▁judgment	-11.4317
▁union	-11.4319
▁launch	-11.4326
▁Merry	-11.4327
▁motor	-11.4328
▁repair	-11.4332
▁session	-11.4334
▁liver	-11.4335
▁organization	-11.4335
▁recover	-11.4339
▁thirsty	-11.434
▁landing	-11.4344
▁stroke	-11.4347
boy	-11.4348
har	-11.4351
▁particularly	-11.4361
▁FROM	-11.4363
▁wives	-11.4363
▁Bud	-11.4366
ai	-11.4366
▁kingdom	-11.4366
▁makeup	-11.4367
▁Todd	-11.4374
▁cable	-11.4375
▁bang	-11.4378
▁Dragon	-11.4379
▁ideal	-11.4379
▁federal	-11.4383
ator	-11.4384
▁marrying	-11.4384
hu	-11.4387
▁kissing	-11.4389
▁burden	-11.439
▁relatives	-11.4392
▁salary	-11.4401
▁Top	-11.4405
ok	-11.4407
▁wagon	-11.441
▁traveling	-11.4413
▁steak	-11.4414
▁warehouse	-11.4418
▁concentrate	-11.4419
▁Spain	-11.4419
▁sack	-11.4425
▁construction	-11.4426
▁thy	-11.4431
▁anxious	-11.4432
▁net	-11.4436
▁previous	-11.4436
▁punished	-11.4437
▁unfortunately	-11.4441
▁rotten	-11.4442
▁chap	-11.4443
▁Bell	-11.4443
oc	-11.4444
▁Tan	-11.4445
▁mommy	-11.4448
▁studies	-11.4449
▁species	-11.4449
▁Rita	-11.445
▁Walk	-11.4451
▁Hollywood	-11.4456
▁temper	-11.4457
▁LOOK	-11.4459
▁satellite	-11.4463
▁admire	-11.4463
▁corn	-11.4464
▁payment	-11.4465
▁log	-11.4465
▁joining	-11.4468
▁chip	-11.4471
▁dragged	-11.4473
▁threatening	-11.4475
▁religion	-11.4491
▁patience	-11.4494
▁paperwork	-11.4495
▁Slow	-11.4501
▁Bu	-11.4512
▁lap	-11.4513
▁Bear	-11.4519
▁dishes	-11.452
▁WHEN	-11.4525
▁Boston	-11.4526
▁Wu	-11.4528
▁cells	-11.4531
▁complex	-11.4535
ez	-11.4536
▁Navy	-11.4537
▁Je	-11.4541
▁tone	-11.4543
▁Rosa	-11.4547
▁Jess	-11.4547
▁officially	-11.4549
IL	-11.4556
▁Jennifer	-11.4557
▁Jeremy	-11.4557
▁suspects	-11.4557
▁Michelle	-11.4571
▁idiots	-11.4575
▁solved	-11.4577
val	-11.4578
▁quietly	-11.458
▁Grant	-11.458
▁election	-11.4583
▁Leon	-11.4585
▁Par	-11.4585
▁exhausted	-11.4586
▁degrees	-11.4589
▁Che	-11.4591
▁wing	-11.4596
▁listened	-11.4597
▁h	-11.4603
ft	-11.4604
▁equal	-11.4612
▁earned	-11.4613
▁washed	-11.4615
▁rose	-11.4616
▁terrorist	-11.4621
▁serial	-11.4631
▁circus	-11.4641
▁gambling	-11.4645
▁bothered	-11.4653
▁nothin	-11.4657
rin	-11.4657
▁Crazy	-11.4659
▁Junior	-11.4663
▁Chu	-11.4668
▁jungle	-11.467
▁underground	-11.467
▁Sid	-11.4672
▁abuse	-11.4674
▁youth	-11.4676
▁nerves	-11.4681
▁commercial	-11.4684
ible	-11.4686
ium	-11.4687
▁fridge	-11.4687
▁instance	-11.4691
▁suitcase	-11.4695
▁Bart	-11.4696
▁Harold	-11.4698
▁actress	-11.47
▁Joan	-11.4701
▁Nine	-11.4708
▁headquarters	-11.4709
▁reception	-11.4712
▁homicide	-11.4712
▁Ana	-11.4718
▁loyal	-11.4719
▁Internet	-11.4719
▁Nu	-11.4724
▁Ca	-11.4727
▁billion	-11.4729
▁Eli	-11.4729
▁crimes	-11.4731
▁aid	-11.4736
▁Mickey	-11.4741
▁alley	-11.4742
▁relief	-11.4744
▁Dylan	-11.4759
▁manners	-11.4763
▁35	-11.4765
▁downtown	-11.4766
▁Kenny	-11.477
▁hostage	-11.4772
▁searched	-11.4772
▁actions	-11.4774
▁safely	-11.4775
,000	-11.4777
▁skip	-11.4783
▁increase	-11.4785
▁Vince	-11.4787
▁deposit	-11.479
ming	-11.4794
▁Caroline	-11.4798
▁lamp	-11.48
▁soap	-11.4802
ade	-11.4802
▁Stick	-11.4803
▁vi	-11.4807
▁soda	-11.4809
▁require	-11.4813
▁penny	-11.4815
ue	-11.4816
▁Walker	-11.4817
▁tries	-11.4822
▁discover	-11.4824
▁spit	-11.4826
▁approve	-11.4828
▁civil	-11.483
▁sales	-11.4832
▁Mc	-11.4834
▁underwear	-11.4834
▁captured	-11.4835
▁Za	-11.4836
▁Understood	-11.4837
▁Lin	-11.4838
▁seats	-11.4838
▁Mor	-11.4841
▁ba	-11.4843
▁lads	-11.4846
▁pour	-11.4848
▁Set	-11.4851
▁Derek	-11.4859
▁testing	-11.4859
▁Anthony	-11.4866
▁Reverend	-11.4866
▁Williams	-11.487
cy	-11.4873
▁Goodnight	-11.4874
▁robot	-11.4879
ura	-11.4879
▁rifle	-11.4882
▁imagined	-11.4883
▁claims	-11.4886
▁apply	-11.4887
tz	-11.4888
hoo	-11.4888
▁films	-11.4891
▁v	-11.4891
▁discussion	-11.4891
▁WERE	-11.4892
▁wow	-11.4893
▁punk	-11.4897
▁raid	-11.4897
light	-11.4899
▁Ivan	-11.4902
▁Bank	-11.4902
▁mid	-11.4903
▁Central	-11.491
▁suggesting	-11.4911
▁HEY	-11.4915
▁extraordinary	-11.4917
▁Iike	-11.4931
▁Attention	-11.4935
▁yell	-11.4939
▁diamonds	-11.494
end	-11.4944
▁begging	-11.4946
▁pillow	-11.4946
rick	-11.4952
▁AII	-11.4953
▁Stanley	-11.4958
▁parent	-11.4963
▁channel	-11.4964
▁manner	-11.4967
▁Friends	-11.4969
▁Company	-11.4972
▁whiskey	-11.4972
▁Holmes	-11.4976
▁Wa	-11.4977
ip	-11.4977
▁interests	-11.4985
ada	-11.4988
▁dressing	-11.4988
▁monitor	-11.4989
▁determined	-11.4992
▁treating	-11.4992
▁dessert	-11.4997
▁shooter	-11.4999
▁prime	-11.5002
▁Marco	-11.5002
▁classic	-11.5003
▁Beat	-11.5008
▁Sand	-11.5011
▁Governor	-11.5012
▁Vic	-11.5015
▁Pierre	-11.5017
▁punish	-11.5017
▁promotion	-11.5034
▁cheated	-11.5034
▁engineer	-11.5036
▁visitors	-11.5037
▁mo	-11.504
▁lion	-11.5043
▁stabbed	-11.5045
▁BEEN	-11.5049
▁theatre	-11.5051
▁luggage	-11.5056
▁tap	-11.5058
▁Buck	-11.5061
▁thieves	-11.5067
▁Took	-11.5072
▁Yang	-11.5076
▁threaten	-11.5077
▁guitar	-11.5081
▁creepy	-11.5085
▁surrounded	-11.5087
▁Bible	-11.509
▁Harris	-11.5093
▁barn	-11.5097
▁entry	-11.5098
▁recovered	-11.5099
▁Norman	-11.5101
▁moron	-11.5107
▁Emperor	-11.5115
▁facility	-11.5115
▁international	-11.5115
▁toward	-11.5125
▁tiger	-11.5126
▁March	-11.513
▁Taking	-11.5132
▁Suppose	-11.5132
▁product	-11.5133
▁During	-11.5134
▁YES	-11.5138
▁mud	-11.5145
▁Guard	-11.5148
▁unfortunate	-11.5161
▁Russell	-11.5163
▁Office	-11.5164
▁Gil	-11.5166
▁privacy	-11.5167
▁steel	-11.5168
▁booked	-11.5171
▁pump	-11.5171
▁beside	-11.5173
▁personality	-11.5174
▁Church	-11.5174
▁expression	-11.5175
▁dragon	-11.5176
▁Tina	-11.5176
sky	-11.5177
▁Casey	-11.5177
▁adventure	-11.518
▁Whenever	-11.5181
▁Excellency	-11.5182
▁odds	-11.5183
▁polite	-11.5183
▁scar	-11.5184
▁sail	-11.5184
▁consequences	-11.519
▁spin	-11.5192
hour	-11.5193
▁autopsy	-11.5193
▁novel	-11.5194
▁moments	-11.52
▁effects	-11.5203
You	-11.5205
▁jack	-11.5205
▁boot	-11.5206
▁smooth	-11.5209
▁prayer	-11.521
▁advise	-11.5213
▁diamond	-11.5214
▁pussy	-11.5216
▁nicely	-11.5223
▁Weren	-11.5224
low	-11.5229
▁blowing	-11.5229
▁damaged	-11.5234
▁Break	-11.5248
▁centre	-11.525
▁yelling	-11.5252
▁rabbit	-11.5254
▁Force	-11.5258
▁revolution	-11.526
▁temporary	-11.5264
▁Olivia	-11.5264
▁Miles	-11.5265
▁obey	-11.5266
▁colleagues	-11.5271
kun	-11.5283
▁helicopter	-11.5283
▁produce	-11.5285
▁Raj	-11.5285
▁mill	-11.5286
▁delicate	-11.5291
▁grief	-11.5294
▁June	-11.5301
▁ta	-11.5305
▁serving	-11.5305
▁Bat	-11.5306
▁flew	-11.5309
▁clown	-11.531
▁Dar	-11.531
▁Lane	-11.5311
▁scan	-11.5315
▁fuss	-11.5317
▁testimony	-11.5317
▁Full	-11.5324
▁TAKE	-11.5324
▁unbelievable	-11.5328
pi	-11.5334
▁explained	-11.5334
▁du	-11.5334
▁abroad	-11.5336
▁safer	-11.534
▁nap	-11.5344
▁Auntie	-11.5345
lar	-11.5347
▁deeply	-11.5348
▁fu	-11.535
▁ni	-11.5353
▁blonde	-11.5354
▁Buddy	-11.5355
▁Sch	-11.5359
▁dancer	-11.5364
▁rub	-11.5364
▁beard	-11.5368
▁stink	-11.5369
book	-11.537
▁mighty	-11.537
▁Wonder	-11.5372
▁Miami	-11.5386
▁Working	-11.5387
▁Care	-11.5388
▁firing	-11.5397
▁sum	-11.5404
▁kidnapping	-11.5404
▁systems	-11.5405
▁injury	-11.5406
▁filthy	-11.5406
▁Maya	-11.5409
▁Liz	-11.5409
▁THEM	-11.5412
▁gum	-11.5413
▁Owen	-11.5413
▁fairy	-11.5419
▁Toby	-11.5421
▁visited	-11.5421
▁gloves	-11.5424
tte	-11.543
▁Earl	-11.5431
ther	-11.5433
ens	-11.5435
▁invented	-11.5437
misunderstanding	-11.5438
▁Sta	-11.5439
ES	-11.5442
▁contrary	-11.5443
▁massage	-11.5447
▁bucket	-11.545
face	-11.5453
▁gosh	-11.5454
▁University	-11.5454
▁apologise	-11.5454
▁investment	-11.5454
▁confident	-11.5456
▁authorities	-11.5458
▁units	-11.546
▁Nate	-11.5464
▁capture	-11.5465
▁questioning	-11.5466
ora	-11.5471
▁Heaven	-11.5479
▁Wish	-11.548
▁scale	-11.5482
▁Antonio	-11.5485
ities	-11.5486
▁Malcolm	-11.5489
▁Point	-11.5489
▁Teddy	-11.5493
▁unconscious	-11.5496
▁frozen	-11.5501
▁registered	-11.5502
▁differently	-11.5506
ph	-11.551
▁county	-11.5512
zu	-11.5512
▁citizen	-11.5513
▁ne	-11.5517
▁groom	-11.5523
▁development	-11.5525
▁pulse	-11.5527
▁jet	-11.5527
▁Kang	-11.5531
▁Raymond	-11.5531
▁Making	-11.5539
▁gifts	-11.554
▁TELL	-11.5554
▁Part	-11.5554
▁Sammy	-11.5555
ani	-11.5558
▁booze	-11.5561
▁motel	-11.5562
▁experienced	-11.5564
▁underneath	-11.5566
▁occurred	-11.557
▁Ren	-11.557
▁smaller	-11.5571
▁Kan	-11.5573
nu	-11.5575
▁affect	-11.5576
▁placed	-11.5577
▁Pen	-11.5578
▁Order	-11.5579
▁quarters	-11.5583
▁begins	-11.5588
▁lit	-11.5591
▁covering	-11.5592
▁abandon	-11.56
ious	-11.5607
rate	-11.5612
▁Ralph	-11.5616
▁Victoria	-11.5616
aw	-11.5616
▁LA	-11.562
▁required	-11.5622
▁bottles	-11.5625
cho	-11.5633
▁Small	-11.5636
▁rubbish	-11.564
▁warrior	-11.5641
ski	-11.5643
▁vital	-11.5644
▁tastes	-11.5647
▁Hitler	-11.5648
▁Col	-11.5651
▁random	-11.5653
▁remote	-11.5656
▁knee	-11.5658
▁employees	-11.566
tty	-11.5662
▁stands	-11.5663
▁rehearsal	-11.5667
▁Business	-11.5667
▁average	-11.5667
yo	-11.5671
▁absurd	-11.5671
▁although	-11.5671
▁peaceful	-11.5671
▁Nan	-11.5678
▁Through	-11.5678
▁affairs	-11.5678
▁certificate	-11.5679
▁naturally	-11.5679
▁tissue	-11.5683
use	-11.5686
▁shocked	-11.5692
▁Sue	-11.5693
▁application	-11.5694
▁Yi	-11.57
ps	-11.57
▁psycho	-11.571
▁chill	-11.571
▁Russians	-11.5713
▁flow	-11.5714
▁casino	-11.5718
▁k	-11.5718
▁laws	-11.5719
▁grandson	-11.572
▁bid	-11.5721
▁stones	-11.5721
ical	-11.5722
▁daily	-11.5726
▁battery	-11.5727
AN	-11.5727
▁Dark	-11.573
▁lawyers	-11.573
board	-11.5731
▁Angeles	-11.5731
ery	-11.574
▁tragedy	-11.5742
▁Sign	-11.5742
bra	-11.5743
▁Correct	-11.5746
▁Eun	-11.5748
▁freaking	-11.5751
▁Carrie	-11.576
▁scientist	-11.5761
▁chips	-11.5762
▁Nelson	-11.5765
▁suspected	-11.5769
▁cats	-11.5771
▁ga	-11.5773
▁retired	-11.5774
▁beans	-11.5777
▁Felix	-11.5777
▁Wall	-11.5779
ud	-11.578
▁Bishop	-11.5781
▁burnt	-11.5781
▁beloved	-11.5789
▁fifth	-11.5793
▁Amazing	-11.5793
▁freezing	-11.5794
▁Gosh	-11.5795
▁ward	-11.5795
▁vice	-11.5802
ane	-11.5803
▁Den	-11.5803
ria	-11.5803
▁blank	-11.5803
▁register	-11.5807
▁potatoes	-11.581
▁Fat	-11.5813
▁depressed	-11.5813
▁audition	-11.5814
▁beam	-11.5815
▁sides	-11.5816
▁shortly	-11.5818
ology	-11.5822
▁analysis	-11.5825
▁Ethan	-11.5833
▁cooked	-11.5835
ory	-11.5835
▁mu	-11.5839
▁Har	-11.5841
▁bait	-11.5842
▁causing	-11.5849
▁plates	-11.5854
▁bloke	-11.5855
▁plot	-11.5856
▁Control	-11.5857
▁mis	-11.5857
▁religious	-11.5865
▁Holly	-11.587
▁Heard	-11.587
lie	-11.5871
▁Write	-11.5871
▁protected	-11.5872
▁Logan	-11.5873
▁Done	-11.5874
▁bo	-11.588
▁mi	-11.5882
▁attached	-11.5891
▁Bridge	-11.5892
▁existence	-11.5894
ably	-11.5898
▁needle	-11.5902
▁alike	-11.5903
▁Virginia	-11.5905
▁employee	-11.5905
▁players	-11.5906
▁effective	-11.5906
▁Mari	-11.591
▁festival	-11.5917
▁Clay	-11.592
▁Sp	-11.5923
▁bleed	-11.5927
▁machines	-11.5936
▁rot	-11.594
q	-11.5941
▁AM	-11.5944
▁Aaron	-11.5949
▁pigs	-11.5953
▁Clean	-11.5962
▁protest	-11.5964
▁envelope	-11.5965
▁Gra	-11.5966
▁holes	-11.5972
▁Place	-11.5972
▁unable	-11.5972
▁string	-11.5973
▁Us	-11.5977
▁Ban	-11.5978
▁packing	-11.5978
▁Doing	-11.598
▁appeared	-11.5982
▁fighter	-11.5985
▁hearts	-11.5986
▁relative	-11.5988
▁apologies	-11.5989
▁junior	-11.5989
ned	-11.5991
▁Rest	-11.5996
▁County	-11.6001
▁Sandy	-11.6007
▁catching	-11.6007
▁Sort	-11.6013
▁fraud	-11.6013
▁menu	-11.6015
▁represent	-11.6017
▁admitted	-11.6019
▁facing	-11.6028
▁Third	-11.603
▁Smart	-11.603
OR	-11.6032
▁muscle	-11.6036
▁kit	-11.6039
▁active	-11.6039
gg	-11.604
▁pitch	-11.6042
▁Kiss	-11.6055
▁complaining	-11.6056
▁cooperate	-11.6058
▁Monica	-11.6058
▁wins	-11.6059
▁injuries	-11.6062
▁Woman	-11.6063
▁Ty	-11.6064
▁cared	-11.6065
▁bump	-11.6066
▁worthy	-11.6069
▁2:	-11.607
▁principal	-11.607
▁slut	-11.607
▁Push	-11.6075
▁Greek	-11.6078
▁Goddamn	-11.6079
▁environment	-11.6079
ied	-11.6082
five	-11.6082
▁developed	-11.6086
▁kicking	-11.6087
▁Says	-11.6088
▁fee	-11.609
▁Zo	-11.609
▁rolling	-11.609
▁loyalty	-11.6091
▁papa	-11.6092
▁Bur	-11.6098
▁conduct	-11.6105
▁rats	-11.6105
▁Secretary	-11.6107
▁maintain	-11.6107
▁electricity	-11.6107
▁bargain	-11.6109
▁Ze	-11.611
▁Mexican	-11.6111
▁suggested	-11.6112
▁fits	-11.6114
▁Course	-11.6114
▁appetite	-11.6116
▁passes	-11.6122
▁talkin	-11.6123
▁snap	-11.6127
▁Cap	-11.6128
▁DA	-11.6128
▁cloud	-11.6128
aki	-11.6129
▁Live	-11.613
▁freeze	-11.613
▁Quickly	-11.6133
▁coma	-11.6139
▁jumping	-11.614
▁flies	-11.6144
▁massive	-11.6144
▁Heart	-11.6146
▁separated	-11.615
▁incredibly	-11.6152
▁illness	-11.6152
▁disturbing	-11.6155
▁tire	-11.6155
▁Dinner	-11.6156
▁infection	-11.6156
▁Post	-11.6157
▁fa	-11.616
▁grabbed	-11.6161
▁explode	-11.6161
lock	-11.6163
▁Between	-11.6164
▁Marshall	-11.617
▁patch	-11.6176
▁Devil	-11.6177
▁oxygen	-11.6177
▁chamber	-11.6179
▁Jewish	-11.6181
▁Nam	-11.6182
▁romance	-11.6185
▁episode	-11.6197
▁RE	-11.6201
▁Q	-11.6204
▁August	-11.6205
▁Samantha	-11.6206
▁Gabriel	-11.6208
van	-11.6209
▁Hospital	-11.621
▁chop	-11.6217
ric	-11.6227
▁symptoms	-11.6228
▁photographer	-11.6229
▁Quit	-11.6229
▁sacred	-11.623
▁goat	-11.6236
elle	-11.6237
ties	-11.6243
ica	-11.6244
▁Council	-11.6245
▁blocks	-11.6246
▁arguing	-11.6247
▁gross	-11.6253
▁react	-11.6254
▁coffin	-11.6255
▁exists	-11.6256
▁Tea	-11.6259
▁dope	-11.6261
▁worn	-11.6262
fer	-11.6264
ON	-11.6265
▁talented	-11.6271
▁Ghost	-11.6272
▁unfair	-11.6272
box	-11.6273
▁undercover	-11.6276
▁shared	-11.6276
▁strategy	-11.6284
▁function	-11.6287
▁bitter	-11.6287
▁Bit	-11.6287
▁Explain	-11.6288
▁Face	-11.629
▁sheet	-11.6291
ap	-11.6293
▁brush	-11.6298
▁Clara	-11.6298
▁Screw	-11.6301
▁Bra	-11.6308
▁individual	-11.6312
▁Alexander	-11.6314
▁Kai	-11.6314
▁stiff	-11.6318
▁posted	-11.6319
▁Secret	-11.6322
▁nest	-11.6323
▁souls	-11.6325
▁Fer	-11.6332
▁opera	-11.6333
▁Idiot	-11.6333
▁ro	-11.6333
▁Double	-11.6334
▁Boo	-11.6335
▁su	-11.6338
sta	-11.6338
▁slide	-11.634
▁Mon	-11.6343
handed	-11.6344
▁tooth	-11.6346
▁hits	-11.6346
▁poisoned	-11.6353
▁rear	-11.6357
▁Law	-11.6359
▁Hopefully	-11.636
▁Nicole	-11.6363
▁acted	-11.6364
▁gig	-11.6366
▁Ye	-11.6367
med	-11.6367
▁coin	-11.6369
▁humor	-11.6371
▁bi	-11.6381
▁sue	-11.6383
▁Lock	-11.6384
▁WAY	-11.6385
▁lo	-11.6386
▁assumed	-11.64
▁feeding	-11.6401
▁HAD	-11.6403
ala	-11.6404
▁Private	-11.6414
▁Aah	-11.6415
▁sealed	-11.6423
▁Connor	-11.6424
▁ranch	-11.6427
▁carpet	-11.6429
▁lovers	-11.6432
▁slightly	-11.6433
▁poem	-11.6436
nk	-11.6436
▁emotions	-11.644
▁Var	-11.6441
▁Indians	-11.6442
tch	-11.6443
▁sharing	-11.6444
▁Penny	-11.6445
▁fans	-11.6446
▁Fe	-11.6448
ef	-11.6448
▁Bet	-11.6449
▁preparing	-11.6452
▁Riley	-11.6453
▁Christine	-11.6458
▁forbid	-11.6459
▁visitor	-11.6459
▁Moscow	-11.6461
▁Mars	-11.6465
▁journalist	-11.6467
gar	-11.6469
▁pad	-11.6471
▁atmosphere	-11.6473
▁Spencer	-11.6474
▁intended	-11.6475
▁Khan	-11.6477
▁fools	-11.6477
▁appearance	-11.6479
▁scandal	-11.6486
▁counts	-11.6486
▁comrade	-11.6487
▁exposed	-11.6487
jin	-11.6488
▁theft	-11.6489
▁Summer	-11.6491
▁extreme	-11.6492
▁hammer	-11.6494
▁Sebastian	-11.6495
▁Tara	-11.6496
▁10,000	-11.6497
▁Hercules	-11.6497
▁profession	-11.6497
▁symbol	-11.6498
▁assistance	-11.6499
▁sober	-11.6503
▁puzzle	-11.6503
▁washing	-11.6504
▁accent	-11.6507
▁imp	-11.6508
▁bout	-11.6513
▁fascinating	-11.6516
▁priority	-11.652
ists	-11.6525
▁towel	-11.6528
▁necessarily	-11.6529
▁Gun	-11.6532
▁lame	-11.6532
▁production	-11.6534
▁Caesar	-11.6537
▁album	-11.6541
▁arrangements	-11.6542
▁parked	-11.6545
▁Bull	-11.6545
▁gettin	-11.6546
▁league	-11.6553
▁tin	-11.6555
▁ca	-11.6555
▁arse	-11.6561
▁Jews	-11.6562
▁companies	-11.6567
▁basket	-11.6569
▁narrow	-11.657
▁Power	-11.6572
illa	-11.6577
▁tools	-11.6579
▁Hunter	-11.6583
ised	-11.6584
▁error	-11.6584
▁Ge	-11.6586
▁Ahh	-11.6587
▁Brandon	-11.6589
▁Dog	-11.6592
▁shaking	-11.6593
▁producer	-11.6594
▁Allow	-11.6596
▁cookies	-11.6598
▁lookin	-11.6598
ions	-11.6601
▁Shawn	-11.6605
▁poetry	-11.6606
▁Th	-11.6614
▁pale	-11.6615
▁dreamed	-11.6616
▁Silver	-11.6616
▁generation	-11.6618
▁tub	-11.6626
EN	-11.6629
▁handed	-11.6634
▁Lex	-11.6637
▁Seth	-11.6641
▁stab	-11.6642
sie	-11.6649
ice	-11.6649
▁crystal	-11.665
▁lazy	-11.6653
▁blade	-11.6654
▁Pu	-11.6659
▁flu	-11.666
▁budget	-11.666
▁shield	-11.6663
▁blanket	-11.6664
▁Paula	-11.6665
▁socks	-11.6665
▁forth	-11.6666
▁wreck	-11.6673
▁tested	-11.6674
gy	-11.6679
▁dough	-11.6682
▁Join	-11.6683
▁turkey	-11.6683
▁steady	-11.6688
▁hunter	-11.669
▁whistle	-11.6692
▁communication	-11.6697
▁stepped	-11.6697
▁mall	-11.6699
▁Cu	-11.6701
▁Straight	-11.6703
nan	-11.6705
▁Snow	-11.6707
▁OUR	-11.6708
eg	-11.6708
▁borrowed	-11.6711
cher	-11.6711
▁Justice	-11.6712
TH	-11.6712
▁poet	-11.6712
▁porn	-11.6713
▁REALLY	-11.6714
▁bud	-11.6714
▁combat	-11.6717
▁vodka	-11.6718
▁document	-11.6719
mmer	-11.6723
CH	-11.6733
▁painted	-11.6734
▁regarding	-11.6735
▁handled	-11.6737
▁ye	-11.6737
▁overnight	-11.6744
▁Stu	-11.6745
▁entering	-11.6748
▁quote	-11.6748
▁SOMETHING	-11.6749
▁Ball	-11.6752
▁cattle	-11.6753
▁delighted	-11.6755
▁Diego	-11.6758
▁concept	-11.6761
▁celebration	-11.6762
▁conflict	-11.6762
▁Dorothy	-11.6766
▁madness	-11.6771
▁compliment	-11.6774
▁Diane	-11.6775
▁flip	-11.6779
▁Roll	-11.6783
▁Sh	-11.6785
▁Randy	-11.6785
▁shave	-11.6785
▁plays	-11.6787
▁electric	-11.6791
▁requested	-11.6795
▁Copy	-11.6796
▁fund	-11.6796
▁Dong	-11.6796
▁ski	-11.6797
▁fifty	-11.6798
▁Deal	-11.68
▁vault	-11.6801
▁poker	-11.6802
hole	-11.6804
▁suite	-11.681
▁content	-11.6811
▁toys	-11.6813
▁tale	-11.6813
▁Meaning	-11.6821
▁acid	-11.6821
▁dull	-11.6826
py	-11.6827
▁infected	-11.6829
▁skirt	-11.6832
▁recognized	-11.6833
ight	-11.6833
▁determine	-11.6834
▁pistol	-11.6841
▁Harper	-11.6846
▁stretch	-11.6846
▁SAY	-11.6847
▁forgetting	-11.6849
▁insisted	-11.6851
▁Ab	-11.6856
▁statue	-11.686
▁Korean	-11.6861
pan	-11.6862
▁Keith	-11.6863
▁perfume	-11.6867
night	-11.6874
▁thirty	-11.6876
▁Craig	-11.6877
▁deserved	-11.6879
▁obsessed	-11.6882
▁pound	-11.6889
▁diary	-11.689
▁Jae	-11.689
zz	-11.689
dale	-11.6891
▁impact	-11.6892
▁commission	-11.6892
▁fantasy	-11.6894
ax	-11.6897
die	-11.6899
▁disturbed	-11.6903
▁critical	-11.6906
▁9:	-11.6908
▁Evening	-11.6908
▁Quinn	-11.6913
▁method	-11.6916
▁drawer	-11.6917
▁cried	-11.692
▁samples	-11.6923
▁Zoe	-11.6923
▁bombs	-11.6926
▁Totally	-11.6926
▁Willie	-11.693
▁vessel	-11.6932
▁scientific	-11.6933
▁newspapers	-11.6934
▁division	-11.6938
▁Hans	-11.694
▁celebrating	-11.6942
▁Watson	-11.6943
▁Kent	-11.6943
▁Baron	-11.6946
▁gut	-11.6946
▁mouse	-11.6947
▁Sar	-11.6949
▁structure	-11.695
▁internal	-11.6954
len	-11.6955
▁rings	-11.6961
ative	-11.6963
▁Liam	-11.6965
oi	-11.6965
▁spa	-11.6967
▁creep	-11.6978
▁permanent	-11.698
ona	-11.6982
▁Carla	-11.6983
▁impress	-11.6989
▁begun	-11.699
▁tits	-11.6992
▁Mitch	-11.6993
▁identified	-11.7
▁prosecutor	-11.7
▁teachers	-11.7001
▁Ay	-11.7006
las	-11.7008
▁Gen	-11.7009
▁clan	-11.7009
▁discussed	-11.7012
▁rumors	-11.7015
▁Duncan	-11.7018
▁elsewhere	-11.7019
nna	-11.7022
▁Ashley	-11.7023
▁gossip	-11.7025
▁rocket	-11.7028
▁pages	-11.7029
▁elephant	-11.7033
▁lighter	-11.7034
▁collar	-11.7034
▁scheme	-11.7036
bit	-11.7041
▁requires	-11.7041
▁skill	-11.7043
RI	-11.7045
▁superior	-11.7046
▁finest	-11.7047
▁introduced	-11.7052
▁je	-11.7054
▁halfway	-11.7054
▁citizens	-11.7056
▁shouting	-11.7059
▁sticking	-11.7073
▁weakness	-11.7077
▁Castle	-11.7077
▁Awesome	-11.7081
▁picnic	-11.7081
▁Leonard	-11.7085
▁suggestion	-11.7087
▁Ohh	-11.7089
▁Wood	-11.709
▁cargo	-11.7091
town	-11.7092
▁twins	-11.7095
▁driven	-11.7102
▁Canada	-11.7107
▁forbidden	-11.7108
▁dates	-11.7109
▁comp	-11.711
▁alternative	-11.7113
▁ringing	-11.7113
ick	-11.7115
▁Janet	-11.7116
▁buddies	-11.7117
▁Admiral	-11.7122
▁ripped	-11.7122
▁Bel	-11.7123
▁Korea	-11.7123
▁prom	-11.7124
▁steam	-11.7125
▁Peace	-11.713
▁Lost	-11.7131
▁nails	-11.7133
▁cinema	-11.7135
▁bend	-11.7136
pin	-11.7142
▁upper	-11.7142
▁Travis	-11.7145
▁shark	-11.7145
▁announce	-11.7147
▁Sub	-11.7151
▁management	-11.7152
▁Station	-11.7156
ign	-11.716
▁UH	-11.7161
▁stare	-11.7161
▁lungs	-11.7161
▁invisible	-11.7167
▁Irish	-11.7169
▁recipe	-11.7172
▁Wolf	-11.7173
▁demons	-11.7174
▁Ce	-11.7178
▁Service	-11.7181
▁Gibbs	-11.7183
▁improve	-11.7192
▁Chang	-11.7194
▁Soo	-11.7195
▁Sydney	-11.7199
▁psychic	-11.7201
hee	-11.7203
▁plants	-11.7209
▁inter	-11.7211
▁radiation	-11.7213
▁Dutch	-11.7217
▁communicate	-11.7217
▁Prepare	-11.7217
▁presents	-11.7224
▁shrink	-11.7226
▁parole	-11.7226
foot	-11.7227
▁Music	-11.723
wife	-11.7235
elli	-11.7238
▁recorded	-11.724
▁Neil	-11.7241
▁Mario	-11.7243
▁measure	-11.7245
gle	-11.7246
▁Andrea	-11.7248
▁Gone	-11.7253
▁basis	-11.7254
▁drawn	-11.7258
▁attacks	-11.7259
▁op	-11.726
▁Benny	-11.7261
▁industry	-11.7263
tta	-11.7266
▁hood	-11.7268
▁Warren	-11.7268
▁highest	-11.7269
▁Cam	-11.727
▁Colin	-11.727
▁arrival	-11.7272
▁Evan	-11.7277
▁LITTLE	-11.7286
nie	-11.7287
▁DIDN	-11.7287
▁Act	-11.729
▁formula	-11.729
▁Gloria	-11.7291
▁forms	-11.7298
▁Kay	-11.7301
▁cents	-11.7302
yu	-11.7302
ye	-11.7307
▁Audrey	-11.7309
rie	-11.7309
▁lamb	-11.7312
▁Around	-11.7313
▁heroes	-11.732
RA	-11.7322
▁Thirty	-11.7323
var	-11.7324
▁hint	-11.7329
▁happily	-11.7332
▁speaks	-11.7337
▁Ellie	-11.7342
tal	-11.7345
▁Deputy	-11.7346
▁concerns	-11.7348
▁Florida	-11.7351
▁tennis	-11.7351
▁Sarge	-11.7354
▁highway	-11.7355
▁Catholic	-11.7355
▁zoo	-11.7356
▁Barney	-11.7356
▁practical	-11.7362
▁par	-11.7362
▁Pack	-11.7364
▁wealth	-11.7365
▁disagree	-11.7368
▁glory	-11.7369
▁chemical	-11.7378
▁guardian	-11.7381
lia	-11.7382
▁wheels	-11.7393
▁Fox	-11.7394
bert	-11.7394
▁monsters	-11.7394
▁auction	-11.74
▁root	-11.7401
▁va	-11.7404
▁Anderson	-11.741
▁tag	-11.7411
ec	-11.7415
war	-11.7416
▁Murder	-11.7418
▁dive	-11.7423
IC	-11.7424
▁GONNA	-11.743
▁gal	-11.7433
▁Impossible	-11.7434
▁Bonnie	-11.7435
▁humanity	-11.7439
▁Usually	-11.7439
▁granted	-11.7442
▁achieve	-11.7446
ali	-11.7447
▁auto	-11.7448
▁comin	-11.745
▁Chen	-11.745
▁Song	-11.7453
▁drew	-11.7453
▁Kra	-11.7454
▁compared	-11.7458
▁figures	-11.7458
▁intense	-11.7458
▁Alpha	-11.7458
▁naughty	-11.7458
▁conspiracy	-11.7462
▁item	-11.7465
▁owned	-11.7471
▁Anton	-11.7472
▁OKAY	-11.7478
tti	-11.7478
▁shore	-11.7479
▁pork	-11.7487
▁pockets	-11.7487
▁squeeze	-11.7489
▁breaks	-11.7491
▁bio	-11.7492
ander	-11.7492
▁Wh	-11.7492
▁homeless	-11.7493
▁rumor	-11.7495
▁congratulate	-11.75
▁burst	-11.75
▁fur	-11.7502
▁OVER	-11.7505
▁Char	-11.7506
IE	-11.7509
▁tube	-11.7509
▁Oi	-11.7509
▁despite	-11.7514
▁happier	-11.7514
gate	-11.7515
▁completed	-11.7518
▁plug	-11.7521
▁handy	-11.7523
▁exception	-11.7528
▁arrangement	-11.7529
▁ou	-11.7529
▁al	-11.7529
▁swell	-11.7533
▁throne	-11.7533
▁sweep	-11.7536
▁fooled	-11.7538
▁jar	-11.7538
What	-11.7538
▁Sing	-11.7541
▁Somewhere	-11.7543
▁breast	-11.7544
▁carriage	-11.7547
▁include	-11.7551
▁hack	-11.7552
▁Allen	-11.7554
mann	-11.7556
pper	-11.7558
▁sa	-11.756
cu	-11.7563
▁drown	-11.7563
▁develop	-11.7571
▁brat	-11.758
▁Vera	-11.7582
▁combination	-11.7585
▁Alfred	-11.7587
▁core	-11.759
▁servants	-11.7594
▁Wendy	-11.7594
▁Ger	-11.7596
▁Graham	-11.7599
▁planted	-11.76
▁resources	-11.7603
▁foul	-11.7604
▁passengers	-11.7607
▁deeper	-11.7609
▁assigned	-11.7609
▁copper	-11.7609
ris	-11.761
▁belonged	-11.7612
▁Ly	-11.7613
▁twin	-11.7613
▁Valentine	-11.7614
▁holidays	-11.7615
▁Chase	-11.7617
▁jewelry	-11.7618
▁blessing	-11.7619
▁Kurt	-11.7621
▁bracelet	-11.7623
▁twist	-11.7625
▁THEN	-11.7626
▁grip	-11.7626
▁consent	-11.7633
▁Crane	-11.7638
▁technique	-11.7639
▁wrapped	-11.7641
▁10:	-11.7641
▁editor	-11.7642
▁duties	-11.7642
▁author	-11.7642
▁demands	-11.7644
▁Pope	-11.7645
▁formal	-11.765
▁wicked	-11.7651
▁bay	-11.7656
▁Mia	-11.7657
▁sheets	-11.7657
class	-11.7658
▁Elliot	-11.766
▁Therefore	-11.7664
▁Bri	-11.7665
▁drain	-11.7668
▁Ronnie	-11.7671
▁proved	-11.7675
tri	-11.7676
▁cloth	-11.7677
▁absolute	-11.7677
vis	-11.7679
▁quarrel	-11.768
▁residence	-11.768
▁Singh	-11.768
▁accompany	-11.7683
ros	-11.7684
▁walks	-11.7685
▁rank	-11.7687
▁valley	-11.7695
▁sins	-11.7695
▁phase	-11.7696
▁display	-11.7696
▁retire	-11.7698
ich	-11.7698
ot	-11.7699
▁ham	-11.7701
▁th	-11.7702
▁torn	-11.7705
▁branch	-11.7708
if	-11.7711
▁chaos	-11.7714
away	-11.7716
▁palm	-11.7719
ugh	-11.7723
▁den	-11.7724
▁whip	-11.7728
▁storage	-11.7728
▁Shame	-11.7729
lic	-11.7734
▁Human	-11.7736
win	-11.7742
▁buck	-11.7744
▁Deep	-11.7746
▁pole	-11.7746
▁fooling	-11.7747
▁Shane	-11.7747
your	-11.7749
▁dining	-11.775
▁Veronica	-11.7752
▁Fantastic	-11.7752
▁Trevor	-11.7752
bal	-11.7757
▁Center	-11.7763
▁personnel	-11.7763
▁examine	-11.7765
▁photographs	-11.7766
▁Bert	-11.7766
▁blackmail	-11.7768
▁prayers	-11.7771
▁presume	-11.7772
▁negotiate	-11.7776
▁basketball	-11.7786
▁filed	-11.7791
▁Baker	-11.7791
▁relieved	-11.7797
▁locate	-11.78
▁closely	-11.7803
▁hooked	-11.7805
▁bush	-11.7807
-1	-11.7808
▁Ian	-11.781
▁Lauren	-11.7813
▁penis	-11.7815
▁waves	-11.7816
ization	-11.7817
▁MA	-11.7821
AR	-11.7823
worth	-11.7823
▁levels	-11.7825
▁shoulders	-11.7833
▁Troy	-11.7835
▁spotted	-11.7836
▁stinks	-11.7841
▁unexpected	-11.7842
▁fixing	-11.7847
▁Inside	-11.7847
▁mortal	-11.7849
▁Mona	-11.7849
▁execution	-11.785
▁swallow	-11.7852
▁operating	-11.7859
▁Latin	-11.7862
▁3:	-11.7863
▁graduate	-11.7863
▁raining	-11.7866
▁grounds	-11.7866
▁nowadays	-11.7869
headed	-11.787
▁saint	-11.7872
▁forgiveness	-11.7872
▁cabinet	-11.7874
▁heavens	-11.7876
▁slice	-11.7878
▁destruction	-11.7878
▁wa	-11.7879
fire	-11.788
▁cellar	-11.7882
ering	-11.7882
▁Couple	-11.7883
▁Natalie	-11.7883
▁Tracy	-11.7883
▁drowned	-11.7884
▁countries	-11.7889
▁Sang	-11.789
▁DE	-11.789
▁Came	-11.7891
▁Wha	-11.7896
oon	-11.7898
▁cemetery	-11.7903
▁Silence	-11.7903
▁helmet	-11.7903
know	-11.7903
▁bench	-11.7903
▁typical	-11.7908
▁Chicken	-11.7909
az	-11.791
▁copies	-11.7911
▁dr	-11.7913
▁Hide	-11.7913
▁defence	-11.7913
▁Kirk	-11.7915
▁passage	-11.7916
▁yards	-11.7918
▁Adrian	-11.7919
pu	-11.7923
▁soccer	-11.7927
▁Curtis	-11.7932
▁roommate	-11.7934
sel	-11.7935
▁tech	-11.7936
▁paintings	-11.7939
▁mar	-11.7943
rri	-11.7945
▁handling	-11.7945
▁Megan	-11.7946
▁Phoebe	-11.7952
▁Jeez	-11.7952
▁tribe	-11.7963
▁mon	-11.7966
▁Freddy	-11.7967
▁Sweetheart	-11.7972
▁upside	-11.7973
▁Hiya	-11.7974
▁Noah	-11.7976
▁DOWN	-11.7976
▁behaviour	-11.7976
ola	-11.7979
▁Gene	-11.798
uch	-11.7981
uld	-11.7986
▁verdict	-11.7991
▁central	-11.7991
▁severe	-11.7992
▁MAKE	-11.7996
ea	-11.7996
▁rap	-11.7998
▁laptop	-11.8001
ika	-11.8008
▁1,000	-11.8008
▁Wang	-11.801
▁illusion	-11.8016
▁racing	-11.8016
▁risky	-11.8019
▁labor	-11.8021
▁Christopher	-11.8021
▁keen	-11.8027
▁Jill	-11.8028
tur	-11.8028
▁heroin	-11.8029
▁Scotland	-11.8031
▁mob	-11.8035
▁coke	-11.804
▁Stella	-11.8042
▁Waiting	-11.8043
▁fabulous	-11.8046
▁database	-11.8046
▁Kitty	-11.8046
▁aliens	-11.8053
▁contacted	-11.8059
▁Tower	-11.8062
▁Trouble	-11.8066
▁region	-11.8067
▁stream	-11.8075
▁convenient	-11.8078
ew	-11.808
▁911	-11.8081
▁Tre	-11.8081
▁Murphy	-11.8081
▁Stefan	-11.8082
▁Fun	-11.8084
▁chess	-11.8085
▁bold	-11.8088
era	-11.8093
▁offended	-11.8097
▁commissioner	-11.8101
▁rage	-11.8102
▁Rat	-11.8103
RO	-11.8103
▁located	-11.8106
▁repay	-11.8111
▁Food	-11.8111
▁lemon	-11.8112
▁throughout	-11.8112
▁Cold	-11.8113
▁cowboy	-11.8115
▁vet	-11.8115
xi	-11.812
▁sweater	-11.8121
▁visual	-11.8124
▁Chairman	-11.8126
▁dug	-11.8127
▁Sim	-11.813
▁Superman	-11.8133
▁MEAN	-11.8134
▁Bullshit	-11.8135
ook	-11.8137
sch	-11.8138
▁Claudia	-11.8141
ata	-11.8142
ST	-11.8143
▁fields	-11.8144
▁waiter	-11.8144
▁frankly	-11.8149
▁MR	-11.815
▁Lt	-11.815
▁knocking	-11.8154
ira	-11.8156
▁harsh	-11.8158
▁Gina	-11.8158
▁Gang	-11.8158
▁Finish	-11.816
▁Mick	-11.8162
ken	-11.8164
▁butcher	-11.8168
▁switched	-11.817
▁compare	-11.8171
▁Gr	-11.8172
▁bitches	-11.8173
▁1:	-11.8181
▁psychiatrist	-11.8181
▁Talking	-11.8181
▁Age	-11.8183
▁vest	-11.8185
▁retreat	-11.8186
▁Knight	-11.8186
▁parade	-11.8187
▁phones	-11.8188
▁Space	-11.8188
▁Marc	-11.8189
▁Des	-11.819
▁McC	-11.8191
▁rubber	-11.8191
▁fried	-11.8195
▁400	-11.8199
ston	-11.8202
▁soil	-11.8203
▁hip	-11.8205
▁Lawrence	-11.8206
▁clothing	-11.8208
▁Sandra	-11.8214
▁NEED	-11.8228
▁Tar	-11.8229
▁feast	-11.8231
▁scum	-11.8233
▁clerk	-11.8236
▁password	-11.8236
▁hesitate	-11.8236
▁bond	-11.8237
▁Erm	-11.8238
▁crossing	-11.8238
▁multiple	-11.824
maker	-11.8241
▁scent	-11.8242
▁advanced	-11.8246
▁Seeing	-11.8249
▁marked	-11.8249
cent	-11.825
▁raw	-11.8251
▁Halloween	-11.8251
▁Mountain	-11.8252
▁Kat	-11.8255
▁leather	-11.8256
▁Truth	-11.8258
▁survival	-11.8261
ale	-11.8261
▁Leslie	-11.8262
▁counsel	-11.8264
istic	-11.8265
▁knight	-11.8269
▁meters	-11.8271
▁currently	-11.8272
▁reverse	-11.8272
▁bore	-11.8272
▁Donald	-11.8274
▁breasts	-11.8276
▁Lance	-11.8279
IT	-11.8279
▁Tsu	-11.8279
▁opponent	-11.8282
▁twelve	-11.8282
▁Pedro	-11.8282
▁Word	-11.8282
nes	-11.8283
▁Tiger	-11.8284
water	-11.8286
▁MORE	-11.8288
▁arrives	-11.8292
▁Cover	-11.8295
▁Bernard	-11.8295
mu	-11.8296
▁paranoid	-11.8297
▁announcement	-11.8298
▁march	-11.8299
▁Fo	-11.83
▁limited	-11.8302
▁Crime	-11.8308
▁cr	-11.8315
▁magnificent	-11.8317
▁Naturally	-11.8318
▁added	-11.8319
▁raising	-11.8321
▁riot	-11.8323
▁recovery	-11.8324
▁worship	-11.8338
▁stunt	-11.8343
sion	-11.8344
▁Friend	-11.8344
▁kindness	-11.8344
▁medal	-11.8345
▁blessed	-11.8351
▁volunteer	-11.8351
▁Unit	-11.8353
MA	-11.8354
ula	-11.8354
▁Rich	-11.8355
ama	-11.8356
▁strict	-11.8356
The	-11.8356
▁smarter	-11.8356
▁wrist	-11.8358
▁crashed	-11.8358
▁Fish	-11.8366
▁Drake	-11.8371
rr	-11.8373
▁ritual	-11.8374
▁ladder	-11.8374
▁length	-11.8376
▁choices	-11.8378
sia	-11.8382
bel	-11.8383
og	-11.8387
▁envy	-11.8389
▁acts	-11.8391
▁inner	-11.8391
ified	-11.8397
▁Walt	-11.8398
▁Mitchell	-11.8399
▁tu	-11.8401
▁Jun	-11.8401
▁Nora	-11.8404
▁height	-11.8404
▁Sweetie	-11.8406
▁independent	-11.8407
▁wisdom	-11.841
▁suspicion	-11.8411
▁frank	-11.8411
▁cycle	-11.8411
▁label	-11.8418
▁fox	-11.8419
▁fairly	-11.8421
▁Shu	-11.8421
▁Heather	-11.8424
com	-11.8424
▁farmer	-11.8424
▁excitement	-11.8425
▁spray	-11.8427
▁absence	-11.843
▁bribe	-11.8432
▁slaves	-11.8432
▁screwing	-11.8437
▁wiped	-11.844
▁praying	-11.8441
▁Hector	-11.8441
▁Rosie	-11.8443
bb	-11.8444
▁lobby	-11.8446
▁tapes	-11.8446
▁TOO	-11.845
hara	-11.845
▁BY	-11.845
▁horn	-11.8454
wi	-11.8455
cus	-11.8456
▁Turner	-11.8456
▁rounds	-11.8463
▁NEVER	-11.8467
▁Marcel	-11.8468
▁backwards	-11.847
▁Sex	-11.847
ito	-11.8475
▁candidate	-11.848
▁deputy	-11.8482
▁Marshal	-11.8482
▁Fan	-11.8494
▁ju	-11.8495
▁barrel	-11.8496
▁prior	-11.8496
▁burns	-11.8497
▁Palmer	-11.8498
des	-11.8499
▁fleet	-11.8502
▁prescription	-11.8508
▁confessed	-11.8509
▁precisely	-11.851
▁Winter	-11.8514
▁disappoint	-11.8516
▁terrorists	-11.852
▁Ham	-11.8524
ification	-11.8524
▁cent	-11.8526
▁protocol	-11.8527
▁trailer	-11.8532
▁rang	-11.8539
▁Las	-11.8539
▁neat	-11.8543
▁x	-11.8544
ppy	-11.8544
cing	-11.8547
▁Lincoln	-11.855
▁naive	-11.855
▁diet	-11.855
with	-11.8552
▁weed	-11.8552
▁lunatic	-11.8555
dan	-11.8556
bed	-11.8558
ato	-11.8558
▁practicing	-11.856
▁closest	-11.856
port	-11.8562
▁hopeless	-11.8563
▁Lan	-11.8564
▁Somehow	-11.8566
▁32	-11.8567
▁Tor	-11.857
▁blocked	-11.8574
▁limits	-11.8577
▁rely	-11.8578
burn	-11.8582
▁autograph	-11.8586
▁inch	-11.8588
▁Au	-11.8589
▁discussing	-11.859
▁tragic	-11.8591
▁Amber	-11.8593
▁Bless	-11.8594
ep	-11.8596
▁monsieur	-11.8597
▁Wild	-11.8598
gra	-11.8602
▁Connie	-11.8602
▁Allison	-11.8606
▁Finn	-11.8607
▁cliff	-11.8615
▁debate	-11.8618
▁Debbie	-11.8623
▁wished	-11.863
▁cannon	-11.8632
▁Times	-11.8632
▁tender	-11.8632
▁Jew	-11.8633
▁therapist	-11.8635
▁pays	-11.8636
▁depend	-11.8637
av	-11.864
▁Bal	-11.8646
▁Ned	-11.8647
sk	-11.8647
▁kidnap	-11.8649
▁Bruno	-11.8649
▁foster	-11.865
▁Meg	-11.8651
▁paradise	-11.8655
▁chapter	-11.8655
▁Union	-11.8656
▁immediate	-11.8657
ois	-11.8657
▁shed	-11.8658
fashioned	-11.8659
▁Dance	-11.8659
▁Port	-11.8664
▁Jon	-11.8665
▁oven	-11.8666
om	-11.8669
▁remarkable	-11.8671
▁Vo	-11.8671
▁stuffed	-11.8671
▁Perry	-11.8672
▁voices	-11.8675
▁VERY	-11.8681
▁mechanic	-11.8684
▁organized	-11.8694
▁Touch	-11.8696
▁computers	-11.8696
▁Meanwhile	-11.8697
▁mini	-11.8697
ral	-11.8698
▁horror	-11.8702
▁boarding	-11.8702
▁ra	-11.8705
▁Win	-11.8706
▁magical	-11.8706
▁hop	-11.871
▁Turns	-11.8711
▁phrase	-11.8716
▁smash	-11.8717
▁tons	-11.8718
▁rascal	-11.8718
▁Saw	-11.8722
▁fo	-11.8725
uring	-11.8726
▁HAS	-11.8728
▁genetic	-11.8729
▁affected	-11.8731
▁Morris	-11.8733
qu	-11.8734
uri	-11.8735
ole	-11.8738
▁spiritual	-11.874
▁therefore	-11.8741
▁Sin	-11.8743
▁Camp	-11.8745
▁amateur	-11.8745
▁harvest	-11.8745
TER	-11.8745
▁terrified	-11.8751
▁aggressive	-11.8752
▁slight	-11.8753
▁pimp	-11.8754
▁Dawson	-11.8755
▁items	-11.8759
▁July	-11.8762
▁column	-11.8765
▁instinct	-11.8765
▁Bor	-11.8766
▁rented	-11.8768
▁deadly	-11.8771
▁internet	-11.8772
▁Beach	-11.8774
▁Tough	-11.8776
▁Grey	-11.8777
▁radar	-11.8777
star	-11.8782
▁prostitute	-11.8787
bag	-11.8792
▁candles	-11.8796
▁kindly	-11.8798
▁Vanessa	-11.8798
▁Ci	-11.8798
▁Australia	-11.8805
▁suspended	-11.8806
▁lip	-11.8813
▁Corporal	-11.8814
▁rig	-11.8818
▁madame	-11.882
bs	-11.8822
▁Mei	-11.8826
▁assuming	-11.883
▁humble	-11.8831
▁finishing	-11.8841
▁ransom	-11.8842
▁Thanksgiving	-11.8847
▁Mer	-11.8853
▁panel	-11.8854
▁focused	-11.8854
kar	-11.8855
▁Child	-11.8859
▁centuries	-11.8862
▁Cameron	-11.8863
▁update	-11.8863
cra	-11.8864
▁methods	-11.887
▁daylight	-11.8871
▁hunger	-11.8873
▁African	-11.8876
▁hon	-11.8876
▁silk	-11.8877
▁expenses	-11.8882
ack	-11.8883
▁creative	-11.8889
▁interrogation	-11.8889
▁Fletcher	-11.889
dar	-11.8893
▁importance	-11.8895
▁dock	-11.8895
▁Joy	-11.8896
▁Dale	-11.8896
▁tool	-11.8897
▁Bastard	-11.8897
▁Report	-11.8899
▁Benjamin	-11.89
▁Peggy	-11.89
▁Paige	-11.89
▁phoned	-11.8903
▁Collins	-11.8903
▁bacon	-11.8906
▁Honour	-11.8911
▁Ice	-11.8917
▁award	-11.8917
▁Burn	-11.8919
▁provided	-11.892
▁ankle	-11.892
▁Dana	-11.8922
▁sorrow	-11.8922
▁email	-11.8923
fo	-11.8923
▁kidney	-11.8923
▁pi	-11.8924
▁reply	-11.8924
▁assist	-11.8924
▁fi	-11.8925
▁encounter	-11.8927
▁Granny	-11.8928
ple	-11.8929
▁Feeling	-11.893
▁amongst	-11.8933
▁Anti	-11.8934
▁tense	-11.8936
▁Wo	-11.8937
▁replaced	-11.8939
▁Group	-11.8939
▁chased	-11.894
▁Horse	-11.8942
▁Melissa	-11.8944
▁Yan	-11.8944
▁dose	-11.8945
nny	-11.8945
▁cows	-11.8946
▁Franklin	-11.8946
ome	-11.8946
tel	-11.8946
▁Maurice	-11.8949
▁snack	-11.8953
▁Sonny	-11.8954
▁lightning	-11.8957
▁Class	-11.8959
▁Daisy	-11.896
▁CD	-11.8961
▁commitment	-11.8962
▁distracted	-11.8964
▁specialist	-11.8965
▁Cliff	-11.8965
▁oath	-11.8966
▁draft	-11.8969
▁Search	-11.897
▁musical	-11.8975
▁Lie	-11.8978
▁dentist	-11.8982
bury	-11.8984
▁Rodney	-11.8987
▁Samuel	-11.8993
▁Wade	-11.8996
▁Consider	-11.8997
▁Town	-11.9001
▁reporting	-11.9003
▁Leaving	-11.9004
▁activities	-11.9009
▁scrap	-11.9013
▁Ring	-11.9014
▁roast	-11.9014
▁cheek	-11.9016
▁filling	-11.9022
▁RO	-11.9028
▁bin	-11.9032
▁gathering	-11.9033
▁sends	-11.9036
▁accomplice	-11.9036
▁laying	-11.904
term	-11.905
▁pencil	-11.9053
tes	-11.9053
▁Rather	-11.9054
▁tension	-11.9054
▁constantly	-11.9055
▁Depends	-11.9058
▁disorder	-11.9058
yama	-11.9064
▁bald	-11.9066
▁Ling	-11.9066
▁Mag	-11.9066
▁Erik	-11.9069
▁intel	-11.907
▁guessed	-11.9077
▁Pri	-11.9078
▁addition	-11.9079
▁Teresa	-11.908
▁orbit	-11.9081
mal	-11.9082
▁Jules	-11.9086
▁traces	-11.9087
ag	-11.909
▁neighbour	-11.9093
▁candle	-11.9097
job	-11.9097
▁signing	-11.9097
▁Valley	-11.9098
▁prank	-11.9098
▁heir	-11.91
▁plague	-11.9102
iya	-11.9103
▁Brenda	-11.9104
▁regards	-11.911
▁ashes	-11.9113
▁umbrella	-11.9113
lay	-11.9114
eau	-11.9116
▁Ruby	-11.9116
▁Lena	-11.9117
▁clouds	-11.9118
▁Zi	-11.9118
▁spoon	-11.9119
▁Rod	-11.912
▁technically	-11.9121
▁wandering	-11.9125
▁Bailey	-11.9125
▁Plan	-11.9128
▁population	-11.913
oid	-11.913
sson	-11.9133
▁potato	-11.9134
▁pace	-11.9135
▁Ouch	-11.9135
▁roses	-11.9138
▁Satan	-11.9142
▁Luis	-11.9143
▁blows	-11.9146
key	-11.9146
▁topic	-11.9149
▁ST	-11.915
▁lesbian	-11.9152
▁Kar	-11.9154
▁Miguel	-11.9158
▁airplane	-11.9158
ela	-11.9158
▁Outside	-11.9159
▁dignity	-11.9163
▁compound	-11.9163
▁eager	-11.9163
▁Rex	-11.9164
▁para	-11.9166
two	-11.9166
▁shipment	-11.9166
▁reservation	-11.9167
▁liberty	-11.9169
▁Freddie	-11.9169
▁Nikki	-11.9169
▁thread	-11.917
▁mole	-11.9171
▁adorable	-11.9174
▁telegram	-11.9174
▁Iron	-11.9179
▁pension	-11.918
▁accidentally	-11.9183
▁principle	-11.9184
▁unpleasant	-11.9185
mouth	-11.9186
▁Nicky	-11.9188
▁beneath	-11.9191
▁Dun	-11.9191
▁pose	-11.9191
▁Alone	-11.9195
▁fe	-11.9195
▁corridor	-11.9197
rt	-11.9197
▁replacement	-11.9198
▁attempted	-11.9198
▁shitty	-11.9198
▁drives	-11.9199
▁genuine	-11.9199
hy	-11.9201
▁motorcycle	-11.9202
▁Return	-11.9202
▁laser	-11.9203
▁scheduled	-11.9204
▁intentions	-11.9205
▁risks	-11.9206
▁worthless	-11.9207
▁chi	-11.9207
▁dial	-11.9208
rk	-11.921
▁Ford	-11.9211
▁conclusion	-11.9212
▁Joon	-11.9213
▁Para	-11.9215
▁campus	-11.9219
▁penalty	-11.9219
▁Miranda	-11.9219
▁Suddenly	-11.9219
▁rec	-11.9221
vy	-11.9222
▁CO	-11.9222
▁instant	-11.9222
▁entertainment	-11.9225
▁observation	-11.923
ese	-11.9231
▁Game	-11.9233
▁compete	-11.9237
▁affection	-11.9242
▁somewhat	-11.9244
gie	-11.9246
▁Babe	-11.9247
yan	-11.9249
▁Monte	-11.9252
▁deceased	-11.9258
▁entitled	-11.926
rian	-11.9261
▁sucker	-11.9262
▁ceiling	-11.9269
▁gesture	-11.9275
▁thumb	-11.9276
zer	-11.9282
▁Kit	-11.9286
uff	-11.9291
▁involve	-11.9295
▁laughed	-11.9298
▁twisted	-11.9298
▁faint	-11.9303
▁specifically	-11.9303
▁nicer	-11.9304
▁deed	-11.9305
▁assured	-11.9306
pro	-11.9307
▁greet	-11.9308
▁arriving	-11.9309
▁jo	-11.9309
▁avoiding	-11.9311
▁anonymous	-11.9312
▁mug	-11.9316
▁divine	-11.932
▁Sung	-11.9321
▁Hor	-11.9323
IS	-11.9323
▁unlike	-11.9324
▁Middle	-11.9325
kan	-11.9331
▁debts	-11.9333
▁Afraid	-11.9337
▁Avenue	-11.9337
▁intimate	-11.9337
▁Fill	-11.9337
▁existed	-11.9339
▁cocktail	-11.9339
▁SURE	-11.9343
▁Lay	-11.9347
▁rash	-11.9351
▁senator	-11.9354
ld	-11.9355
▁dresses	-11.9355
▁Hunt	-11.9358
▁gathered	-11.9359
▁threats	-11.936
▁arts	-11.936
▁hallway	-11.9361
▁DOING	-11.9362
oni	-11.9364
▁Shaw	-11.9366
cul	-11.9368
▁Romeo	-11.9368
thing	-11.9372
▁needn	-11.9374
▁inches	-11.9374
▁asses	-11.9376
▁adults	-11.9383
▁chicks	-11.9383
▁Thompson	-11.9388
ida	-11.9389
▁sh	-11.9393
▁pervert	-11.9394
▁cured	-11.9394
▁fatal	-11.9395
▁cursed	-11.9395
▁excuses	-11.9397
▁martial	-11.9405
▁Katherine	-11.9405
▁hostages	-11.9406
▁mature	-11.9407
▁receipt	-11.9409
▁crawl	-11.9413
▁lust	-11.9414
▁angels	-11.9416
▁factor	-11.9416
▁mummy	-11.9417
ug	-11.9418
▁Gro	-11.942
▁painter	-11.9425
▁approval	-11.9428
▁injection	-11.9428
▁disguise	-11.943
nic	-11.9431
▁website	-11.9433
▁Soviet	-11.9433
▁coordinates	-11.9437
▁Behind	-11.9439
▁dime	-11.9439
▁gray	-11.9449
▁resort	-11.945
▁Alicia	-11.9451
▁tips	-11.9452
▁ANY	-11.9453
▁Mount	-11.9456
▁traditional	-11.9457
▁coal	-11.9458
▁constant	-11.9459
▁scientists	-11.9462
▁September	-11.9462
▁Gwen	-11.9462
▁orphan	-11.9463
▁Foster	-11.9468
▁Less	-11.9468
▁messenger	-11.9473
bin	-11.9473
▁spoiled	-11.9474
▁custom	-11.9474
ett	-11.9475
▁Thor	-11.9477
▁broadcast	-11.9478
▁brandy	-11.9479
▁Possibly	-11.9479
▁addict	-11.949
▁vegetables	-11.9491
▁European	-11.9492
▁Cro	-11.9495
▁Lang	-11.9495
▁float	-11.9496
cia	-11.9496
▁resistance	-11.9497
▁shuttle	-11.9497
▁Nazi	-11.9498
▁cur	-11.9499
▁colors	-11.9504
▁vanished	-11.9505
▁sticks	-11.9505
▁ego	-11.9507
▁Fresh	-11.9508
tar	-11.9508
▁cracked	-11.9509
ising	-11.9509
▁bare	-11.9511
▁surprises	-11.9511
▁bonus	-11.9513
▁gamble	-11.9514
▁retirement	-11.9514
▁privilege	-11.9517
▁morgue	-11.9519
▁funds	-11.952
▁approaching	-11.9522
▁Booth	-11.9524
▁Fisher	-11.9527
ello	-11.9528
▁Division	-11.9531
▁relations	-11.9532
▁Dee	-11.9534
▁logical	-11.9535
▁gu	-11.9537
▁Caleb	-11.9537
mie	-11.9541
mmy	-11.9541
▁cheque	-11.9542
▁meetings	-11.9543
▁4:	-11.9544
▁detectives	-11.9545
▁taxes	-11.9545
▁Kin	-11.9546
▁Com	-11.9547
▁francs	-11.9549
▁5:	-11.9552
▁grudge	-11.9554
▁Higgins	-11.9554
▁attract	-11.9555
▁Hyun	-11.9557
▁Mun	-11.9558
▁Milan	-11.9561
▁accurate	-11.9563
▁Homer	-11.9564
eo	-11.9564
▁subway	-11.9572
▁Used	-11.9572
▁stall	-11.9575
▁Carmen	-11.9578
▁Tess	-11.9579
▁associate	-11.9582
▁vulnerable	-11.9583
▁Jersey	-11.9583
▁OFF	-11.9583
▁Went	-11.9584
▁GIVE	-11.9589
▁attacking	-11.9589
▁Cra	-11.9589
▁terror	-11.9593
▁racket	-11.9595
▁returns	-11.96
▁groups	-11.9601
ib	-11.9602
▁Alison	-11.9602
▁portrait	-11.9602
▁harmless	-11.9603
▁boom	-11.9604
▁sailor	-11.9604
▁Irene	-11.9605
▁Wherever	-11.9605
▁Rs	-11.9607
▁booth	-11.9609
▁Wallace	-11.9612
▁sandwiches	-11.9615
▁cha	-11.9615
▁folk	-11.9616
ei	-11.9617
▁enormous	-11.9617
▁primary	-11.9617
▁ensure	-11.9618
kh	-11.9619
▁adopted	-11.9627
▁MO	-11.9627
ches	-11.9629
▁Duck	-11.963
▁scam	-11.963
▁dizzy	-11.9635
▁oldest	-11.9636
▁Command	-11.9637
▁jewels	-11.964
▁Kara	-11.9641
▁helpless	-11.9641
▁nickname	-11.9647
▁j	-11.9651
▁denied	-11.9652
▁lean	-11.9655
▁fled	-11.9659
▁gunshot	-11.9659
▁College	-11.9664
▁skinny	-11.9665
▁Denise	-11.9665
fla	-11.9666
▁comic	-11.9668
▁heels	-11.9669
▁SHOULD	-11.9669
▁Into	-11.967
▁reference	-11.9675
▁ambition	-11.9676
▁lu	-11.9677
▁Bitch	-11.9678
▁Western	-11.9682
ons	-11.9684
▁Fight	-11.9687
▁Otto	-11.9688
▁types	-11.9693
▁cancelled	-11.9694
▁relationships	-11.9695
▁Given	-11.9696
art	-11.9704
▁spark	-11.9704
▁Chin	-11.9707
▁Stuart	-11.9711
▁fucker	-11.9714
▁cafe	-11.9717
▁indicate	-11.972
▁crushed	-11.9721
▁executed	-11.9724
▁Remind	-11.9725
▁doubts	-11.9729
▁travelling	-11.9731
▁farewell	-11.9734
AT	-11.9738
▁Wong	-11.9745
▁Objection	-11.9746
▁complaints	-11.9749
▁Together	-11.9752
▁fabric	-11.9752
▁splendid	-11.9752
▁consistent	-11.9752
▁Golden	-11.9755
▁ditch	-11.9759
▁Freeze	-11.9759
esh	-11.9761
▁monk	-11.9761
▁allergic	-11.9764
▁cough	-11.9764
▁petty	-11.9764
▁Bang	-11.9765
▁Monk	-11.9765
▁Alexis	-11.9767
▁vampires	-11.9772
▁erm	-11.9776
▁Nicholas	-11.9776
▁wi	-11.9777
▁dated	-11.9778
▁Magic	-11.9781
lee	-11.9781
▁Mass	-11.9782
▁Ol	-11.9783
▁im	-11.9783
▁accuse	-11.9785
▁bugs	-11.9786
▁proven	-11.9791
▁bachelor	-11.9793
ups	-11.98
▁Smile	-11.9801
▁operations	-11.9803
mb	-11.9803
▁Unbelievable	-11.9805
ily	-11.9805
▁Gal	-11.9805
▁Lana	-11.9805
▁Agreed	-11.9805
▁Harrison	-11.9807
▁eternal	-11.9808
▁Bureau	-11.9811
▁Lydia	-11.9811
▁UN	-11.9815
▁wax	-11.9818
▁ancestors	-11.9819
ram	-11.982
free	-11.9821
Q	-11.9822
▁misery	-11.9824
▁sleepy	-11.9829
▁Attorney	-11.9829
nar	-11.9835
▁Carson	-11.9837
▁sorts	-11.9841
▁nigger	-11.9841
ami	-11.9843
▁tortured	-11.9845
▁cottage	-11.9853
▁tournament	-11.9853
▁fortunate	-11.9856
called	-11.9862
▁defending	-11.9864
▁Lloyd	-11.9864
▁Constable	-11.9864
▁cleaner	-11.9867
▁creating	-11.987
▁Palace	-11.9871
▁images	-11.9871
▁Ste	-11.9873
▁Blow	-11.9873
▁interrupting	-11.9874
▁frighten	-11.9877
this	-11.988
▁st	-11.988
▁pod	-11.9881
▁inviting	-11.9882
▁roads	-11.9883
▁foundation	-11.9883
▁Pam	-11.9888
▁remaining	-11.9889
▁honored	-11.989
▁te	-11.9893
▁designer	-11.9896
▁sting	-11.9897
woman	-11.9898
We	-11.9899
▁luxury	-11.99
▁Richie	-11.9901
▁freaked	-11.9906
row	-11.9906
▁Shirley	-11.9912
▁civilian	-11.9917
▁contacts	-11.9923
▁Empire	-11.9924
▁Ming	-11.993
▁Campbell	-11.993
del	-11.9934
▁sausage	-11.9935
ction	-11.9935
▁Yoon	-11.9942
▁Clearly	-11.9948
ii	-11.9949
▁starve	-11.9952
▁HELP	-11.9954
▁fellows	-11.9961
▁connections	-11.9963
life	-11.9963
▁emotion	-11.9964
▁curiosity	-11.9966
▁Spider	-11.9966
▁Hardly	-11.9967
▁efforts	-11.9968
▁filming	-11.997
▁Claus	-11.9972
▁Manager	-11.9973
▁Sugar	-11.9973
▁surprising	-11.9976
▁150	-11.9979
▁sang	-11.9979
▁killers	-11.9981
▁Die	-11.9981
▁executive	-11.9984
▁bicycle	-11.9984
▁Vol	-11.9985
▁programme	-11.9985
▁app	-11.9985
▁spill	-11.9986
qua	-11.9986
▁Mur	-11.9988
▁Carry	-11.9988
ix	-11.9989
▁Amen	-11.9989
▁reliable	-11.999
▁significant	-11.9994
▁reserve	-11.9994
▁sucked	-11.9995
▁puppy	-11.9996
▁consciousness	-11.9997
chu	-11.9998
▁wig	-11.9999
▁wee	-12
▁Lola	-12
▁seated	-12.0001
▁Frankly	-12.0001
▁sympathy	-12.0002
▁Douglas	-12.0009
tle	-12.0018
▁expose	-12.0019
▁stew	-12.0021
▁wears	-12.0023
▁nearest	-12.0024
▁substance	-12.0033
▁tomb	-12.0034
▁uns	-12.0035
list	-12.0036
▁cookie	-12.0038
pp	-12.0039
▁exams	-12.004
▁generator	-12.0045
▁acquaintance	-12.0051
she	-12.0051
load	-12.0052
▁Sad	-12.0054
▁purchase	-12.0055
▁examination	-12.0055
▁pepper	-12.0057
cat	-12.0057
▁Fool	-12.0057
▁maniac	-12.0059
ctor	-12.0059
▁Sharon	-12.006
▁smashed	-12.0063
▁thrilled	-12.0067
▁briefcase	-12.0069
▁discipline	-12.0071
▁goose	-12.0072
rio	-12.0074
▁Government	-12.0075
▁Hasn	-12.0077
▁elder	-12.0077
▁passenger	-12.0078
▁arrow	-12.0078
▁perspective	-12.0081
▁floating	-12.0082
▁Pra	-12.0082
▁faithful	-12.0085
▁destination	-12.0087
▁emperor	-12.0087
▁Luckily	-12.0087
▁Line	-12.009
sama	-12.009
▁Gray	-12.0091
▁larger	-12.0091
▁gallery	-12.0093
▁fist	-12.0093
▁Zach	-12.0096
▁Tru	-12.0097
born	-12.01
▁Than	-12.01
▁clip	-12.0101
▁various	-12.0106
dies	-12.0106
▁causes	-12.0107
▁Enterprise	-12.0112
▁Phone	-12.0113
▁DI	-12.0115
▁checks	-12.0116
▁Damon	-12.0116
zy	-12.0117
rry	-12.0119
▁correctly	-12.012
▁liquid	-12.0123
▁Plenty	-12.0124
▁forgiven	-12.0125
▁instrument	-12.0127
▁Jump	-12.0129
▁actors	-12.0131
▁Jenna	-12.0132
▁THING	-12.0133
▁puppet	-12.0136
▁dummy	-12.0136
▁shove	-12.0137
▁hobby	-12.0142
▁shotgun	-12.0143
▁technical	-12.0145
▁sworn	-12.0148
▁Wind	-12.0148
gh	-12.0153
▁Drew	-12.0154
▁Deb	-12.0156
din	-12.0156
▁ties	-12.0157
▁Fix	-12.0159
▁LOVE	-12.0166
▁described	-12.0173
▁Safe	-12.0176
▁occur	-12.0177
▁declare	-12.0177
▁urge	-12.018
▁Georgia	-12.018
▁donor	-12.018
▁Field	-12.0183
▁promises	-12.0183
▁container	-12.0185
▁dramatic	-12.0185
▁spying	-12.0188
▁strings	-12.019
▁Hail	-12.0191
▁myth	-12.0196
pur	-12.0197
▁tasty	-12.0197
▁liking	-12.0198
▁marvelous	-12.0198
▁suitable	-12.0201
▁compromise	-12.0202
▁grid	-12.0202
▁Fifty	-12.0204
▁income	-12.0209
▁Stra	-12.0209
▁journal	-12.0209
tric	-12.021
▁precise	-12.0213
net	-12.0216
▁Daphne	-12.0216
▁household	-12.0219
▁Coast	-12.0222
▁referring	-12.0222
▁Rio	-12.0225
▁Cindy	-12.0228
▁Howdy	-12.0229
▁lease	-12.0229
▁persuade	-12.0233
▁Qua	-12.0233
▁counselor	-12.0235
▁convicted	-12.024
▁domestic	-12.0241
▁Late	-12.0241
▁vain	-12.0241
▁tri	-12.0242
▁buildings	-12.0243
eh	-12.0243
▁Tam	-12.0243
▁triple	-12.0243
▁attracted	-12.0247
▁stamp	-12.0248
SE	-12.0248
▁Jessie	-12.0248
▁meals	-12.0249
▁realised	-12.0249
▁drops	-12.0251
▁dunno	-12.0253
▁hills	-12.0254
▁Vice	-12.0254
▁amusing	-12.0256
▁Choi	-12.0257
▁Agnes	-12.0257
▁Hanna	-12.0258
▁Gimme	-12.0258
▁Apple	-12.026
▁holds	-12.0261
▁ambassador	-12.0265
▁Pablo	-12.0265
▁breach	-12.0266
zzle	-12.0267
▁chin	-12.0268
▁characters	-12.0269
minute	-12.027
▁loop	-12.0271
▁cocaine	-12.0272
▁convincing	-12.0272
▁waitress	-12.0272
▁fifteen	-12.0278
▁cruise	-12.0279
▁99	-12.0281
▁establish	-12.029
▁institution	-12.029
▁Simpson	-12.029
▁gratitude	-12.029
▁Brooke	-12.0291
▁Denny	-12.0291
RY	-12.0293
nge	-12.0298
▁banana	-12.0298
▁collecting	-12.03
▁Tie	-12.03
▁Reed	-12.0301
▁tan	-12.0302
hood	-12.0303
▁Arnold	-12.0303
▁Tra	-12.0303
door	-12.0305
▁defeated	-12.0309
▁Marine	-12.031
▁cord	-12.031
▁bugger	-12.0316
▁Ari	-12.0317
▁comm	-12.0318
▁Fr	-12.032
▁teams	-12.0322
top	-12.0325
▁saddle	-12.0326
▁confidential	-12.0327
▁transplant	-12.0328
▁climbing	-12.033
hal	-12.0331
run	-12.0333
▁trans	-12.0333
▁Including	-12.0334
▁League	-12.0334
▁Lot	-12.0336
ister	-12.0338
▁furious	-12.034
▁qualified	-12.0344
▁Jos	-12.0346
▁donkey	-12.0346
▁controlled	-12.0348
name	-12.0349
▁hunch	-12.0353
▁Kick	-12.0353
▁Continue	-12.0359
▁cooperation	-12.0359
ened	-12.0362
ban	-12.0364
▁Ber	-12.0367
▁Sound	-12.037
▁believing	-12.0371
▁reckless	-12.0371
pen	-12.0375
He	-12.0376
▁Garden	-12.0378
▁Case	-12.0383
made	-12.0384
▁Bru	-12.0386
▁Burke	-12.0388
▁transmission	-12.039
▁ko	-12.0392
▁artists	-12.0393
50	-12.0401
▁hatch	-12.0404
▁Palm	-12.0404
▁destroying	-12.0404
▁Weird	-12.0404
▁col	-12.0405
act	-12.0405
ttle	-12.0409
▁yen	-12.0409
CU	-12.0414
▁Shadow	-12.0415
▁Jonas	-12.0416
▁notebook	-12.0416
SH	-12.0418
▁Living	-12.042
▁embrace	-12.0421
wan	-12.0422
ying	-12.0423
was	-12.0424
▁mag	-12.0426
dic	-12.0427
▁Doyle	-12.0427
▁que	-12.0428
▁SP	-12.0428
▁receiving	-12.0428
▁reunion	-12.0428
▁sensible	-12.0428
iest	-12.0428
▁Ros	-12.0429
▁physically	-12.0436
▁published	-12.0439
▁straw	-12.0441
▁plea	-12.0446
kov	-12.0446
▁scoundrel	-12.0447
▁observe	-12.0447
▁glove	-12.0448
▁origin	-12.045
▁collected	-12.0459
▁October	-12.0459
▁landlord	-12.046
▁si	-12.046
OW	-12.0463
▁explains	-12.0466
cut	-12.0466
▁News	-12.0467
non	-12.0468
▁Michel	-12.0472
▁reflect	-12.0472
▁Short	-12.0472
▁operator	-12.0479
▁missile	-12.0481
▁intern	-12.0482
▁rejected	-12.0483
lio	-12.0484
▁extend	-12.0486
▁explosives	-12.0489
▁judges	-12.049
▁Angie	-12.0491
▁sponsor	-12.0492
ration	-12.0496
▁manual	-12.0497
▁lick	-12.0497
▁Sky	-12.0497
▁tricky	-12.0499
minded	-12.05
▁bearing	-12.0503
▁minimum	-12.0504
▁Mai	-12.0505
▁Ter	-12.0505
▁troubled	-12.0505
▁rum	-12.0506
▁aye	-12.051
▁poisoning	-12.051
ID	-12.0511
▁sketch	-12.0511
▁Cl	-12.0514
▁organ	-12.0522
▁Sto	-12.0524
▁ribs	-12.0524
▁Cash	-12.053
▁strain	-12.0532
▁boats	-12.0532
▁cart	-12.0533
▁eliminate	-12.0535
▁Sasha	-12.0536
▁Kira	-12.0537
▁owed	-12.0538
▁fuse	-12.0543
▁flavor	-12.0547
▁Brooklyn	-12.0548
▁whereabouts	-12.0548
▁Press	-12.0549
▁pirate	-12.0552
ado	-12.0552
▁leap	-12.0555
▁Kal	-12.0558
▁Shan	-12.056
wick	-12.0564
▁awhile	-12.0565
▁publicity	-12.0565
▁wander	-12.0565
▁offence	-12.0567
▁Surprise	-12.0567
▁convict	-12.057
▁micro	-12.057
▁cities	-12.0574
▁strictly	-12.0577
▁planes	-12.0578
▁perimeter	-12.058
▁MAYBE	-12.0581
CE	-12.0582
▁Tai	-12.0584
▁nun	-12.0585
ila	-12.0587
▁Stark	-12.0587
▁Simple	-12.0587
▁cigar	-12.0589
▁Farewell	-12.0593
▁rarely	-12.0595
▁proves	-12.0596
▁worm	-12.0597
▁exclusive	-12.0597
ations	-12.0598
▁Dig	-12.06
▁MI	-12.06
▁included	-12.0601
▁fog	-12.0601
tain	-12.0603
etti	-12.0605
▁blaming	-12.0606
fish	-12.0607
▁mansion	-12.0607
▁marshal	-12.0609
▁businessman	-12.061
▁empire	-12.0612
▁discount	-12.0612
new	-12.0614
late	-12.0616
▁refer	-12.0617
▁claimed	-12.0618
▁Wyatt	-12.0625
▁swore	-12.0625
▁Pierce	-12.0625
▁Dev	-12.0626
ox	-12.0627
▁directions	-12.063
▁wolves	-12.0631
▁forehead	-12.0632
eer	-12.0635
▁educated	-12.0635
▁Hat	-12.0637
▁DC	-12.0638
▁assassin	-12.064
point	-12.0641
▁Kane	-12.0647
air	-12.0648
ians	-12.0654
▁shade	-12.0656
▁Chef	-12.0659
▁Question	-12.0661
▁el	-12.0662
los	-12.0663
school	-12.0663
▁Brilliant	-12.0664
▁Fear	-12.0665
▁tricked	-12.0667
NE	-12.0668
▁confusing	-12.067
▁scholarship	-12.067
ille	-12.0671
▁Cassie	-12.0672
are	-12.0673
pha	-12.0675
▁li	-12.0677
▁engines	-12.0679
▁Radio	-12.068
▁5,000	-12.0681
ear	-12.0682
▁lipstick	-12.0683
▁Isabel	-12.0683
▁Carrington	-12.0687
▁questioned	-12.0687
▁Academy	-12.0689
▁Reg	-12.069
▁rebel	-12.0694
▁rep	-12.0696
▁waking	-12.0696
▁electrical	-12.07
dor	-12.07
▁Winston	-12.0704
▁HA	-12.0705
nder	-12.0705
▁troubles	-12.0706
▁Adams	-12.0709
▁Mostly	-12.0712
▁flame	-12.0714
▁scenario	-12.0715
▁presentation	-12.0716
▁Ambassador	-12.0722
▁disgrace	-12.0725
▁Rain	-12.0726
▁participate	-12.0728
▁grows	-12.073
▁Dawn	-12.0735
UR	-12.0741
▁Pearl	-12.0741
▁Gilbert	-12.0741
▁intact	-12.0742
▁ultimate	-12.0745
ndi	-12.0746
▁pregnancy	-12.0748
▁Flynn	-12.0748
▁solo	-12.0748
▁clues	-12.0749
pot	-12.0752
▁Shakespeare	-12.0754
▁tumor	-12.0754
▁cease	-12.0754
▁Boyd	-12.0755
set	-12.0757
▁settlement	-12.0757
▁web	-12.0758
▁hooker	-12.0759
▁Eagle	-12.0761
▁investigator	-12.0761
▁Cathy	-12.0762
isa	-12.0763
▁lawn	-12.0767
kawa	-12.0769
▁magician	-12.0772
▁armor	-12.0773
▁companion	-12.0774
▁hatred	-12.0774
▁distress	-12.0775
nn	-12.0778
▁accomplished	-12.0779
▁circuit	-12.0779
▁tanks	-12.0785
▁thus	-12.0788
▁sofa	-12.0791
▁resting	-12.0793
EL	-12.0795
▁arrogant	-12.08
▁sector	-12.08
▁Side	-12.0802
▁Becky	-12.0805
▁earthquake	-12.0807
mus	-12.0807
▁Medical	-12.0811
▁Zack	-12.0812
▁Sheila	-12.0814
▁Temple	-12.0818
▁leaders	-12.0819
▁vic	-12.0821
▁fries	-12.0822
▁hopefully	-12.0822
▁Helena	-12.0824
gs	-12.0825
▁possessed	-12.0825
▁logic	-12.0827
▁stir	-12.0827
▁invasion	-12.0833
▁areas	-12.0834
▁ruining	-12.0836
lies	-12.0837
oma	-12.0837
▁element	-12.0841
▁haircut	-12.0842
iz	-12.0846
▁breed	-12.0846
▁embassy	-12.0846
ell	-12.0847
tail	-12.0847
cio	-12.0848
ori	-12.0848
▁Kor	-12.0849
▁comedy	-12.0852
▁Tha	-12.0854
▁expense	-12.0855
ving	-12.0857
▁Porter	-12.0857
ima	-12.086
ichi	-12.0861
eye	-12.0863
▁comrades	-12.0864
form	-12.0864
▁Stewart	-12.0866
▁Gin	-12.0866
▁merchant	-12.0872
▁Thinking	-12.0873
▁secretly	-12.0875
▁Hugo	-12.0876
▁struggling	-12.0879
▁pointing	-12.088
▁balloon	-12.0883
▁consult	-12.0886
▁Carlo	-12.0887
▁muscles	-12.0887
▁essential	-12.0892
ability	-12.0896
▁Ur	-12.0897
▁Ch	-12.0899
▁ver	-12.09
▁kin	-12.0908
▁poop	-12.091
▁nanny	-12.0912
▁Manhattan	-12.0918
▁Tin	-12.0919
ologist	-12.092
aid	-12.092
▁Chun	-12.0921
▁flush	-12.0921
▁Phillip	-12.0922
▁avenge	-12.0924
▁concrete	-12.0925
▁coroner	-12.0925
▁abortion	-12.0925
▁inspired	-12.0926
▁Evans	-12.0928
▁dismissed	-12.0929
▁tables	-12.0929
▁obliged	-12.0932
▁invention	-12.0932
▁Rocky	-12.0935
▁bells	-12.0935
▁Fortunately	-12.0938
▁senses	-12.0939
▁Hee	-12.0941
girl	-12.0943
ION	-12.0945
▁FIND	-12.0945
▁Ser	-12.0948
▁tide	-12.0949
▁melt	-12.095
▁rival	-12.0951
▁sunshine	-12.0952
▁heh	-12.0953
▁revealed	-12.0956
▁fluid	-12.0957
▁owes	-12.0958
▁barbecue	-12.0958
ify	-12.0964
▁smack	-12.0966
▁Darrin	-12.0969
▁info	-12.0974
ben	-12.0979
▁classified	-12.0979
▁gin	-12.0981
▁Switzerland	-12.0985
▁Public	-12.0985
▁popped	-12.0985
▁Blair	-12.0986
▁sixth	-12.0988
▁quicker	-12.0989
▁Mademoiselle	-12.0991
▁Isaac	-12.0992
▁healing	-12.0992
▁ace	-12.0992
▁states	-12.0997
▁Seoul	-12.0998
▁mates	-12.1005
▁Sophia	-12.1005
▁ONLY	-12.1006
▁pointed	-12.101
▁shovel	-12.101
▁grain	-12.1015
▁applied	-12.1018
▁Running	-12.1019
▁Bird	-12.1021
▁Sis	-12.1021
▁chew	-12.1023
▁dedicated	-12.1024
▁approved	-12.1024
▁zombie	-12.1025
▁unnecessary	-12.1025
▁Serena	-12.1025
▁Fancy	-12.1025
▁Wing	-12.1027
▁exhibit	-12.1031
▁plead	-12.1031
▁tolerate	-12.1032
▁Bennett	-12.1032
long	-12.1035
▁clubs	-12.1036
▁delayed	-12.1038
▁balcony	-12.1038
▁corporate	-12.1038
some	-12.1038
▁Shot	-12.1042
▁capacity	-12.1045
▁42	-12.1049
▁champ	-12.1052
▁rod	-12.1054
▁ANYTHING	-12.1058
▁alliance	-12.1058
▁discovery	-12.106
▁sneaking	-12.106
▁dreadful	-12.1062
eyed	-12.1064
▁Glenn	-12.1065
▁villa	-12.1069
▁robe	-12.1069
▁sole	-12.107
▁Pur	-12.1073
▁pat	-12.1077
▁Bin	-12.108
iti	-12.1083
▁spite	-12.1083
AM	-12.1084
▁sentimental	-12.1085
▁Buddha	-12.1085
▁Len	-12.1085
▁reminded	-12.1092
▁Price	-12.1092
▁granddaughter	-12.1099
▁gap	-12.11
▁boxing	-12.1101
▁brick	-12.1103
▁lung	-12.1107
▁Flash	-12.1107
▁scaring	-12.1111
▁models	-12.1114
ute	-12.1115
▁lottery	-12.1119
▁Beck	-12.1123
nne	-12.1126
bro	-12.1126
▁beggar	-12.1126
▁greedy	-12.1128
card	-12.1128
rous	-12.1129
▁dip	-12.1131
ching	-12.1131
▁Negative	-12.1132
▁Oops	-12.1133
▁blond	-12.1133
▁haunted	-12.1136
▁Boris	-12.1137
▁accountant	-12.1141
right	-12.1141
▁Pig	-12.1147
pped	-12.1147
▁Fla	-12.1149
▁spies	-12.1154
▁Barnes	-12.1154
▁Aha	-12.1154
▁mutual	-12.1157
wed	-12.1158
▁Lester	-12.1161
ace	-12.1164
▁Pin	-12.1164
▁MUCH	-12.1166
▁Pleasure	-12.1166
▁distant	-12.1166
▁cunt	-12.1167
▁sorted	-12.1168
▁Despite	-12.1173
▁GPS	-12.1173
▁Sylvia	-12.1173
▁performed	-12.1174
▁fag	-12.1175
▁fare	-12.1175
▁belief	-12.1177
▁alter	-12.1177
▁encourage	-12.1179
▁banks	-12.1181
▁conscious	-12.1182
▁withdraw	-12.1183
▁Mikey	-12.1187
▁owners	-12.1187
▁rode	-12.119
▁respected	-12.119
▁stray	-12.119
ure	-12.1191
gal	-12.1192
▁Sullivan	-12.1193
▁villain	-12.1199
ded	-12.12
▁SAID	-12.12
▁Yoo	-12.12
▁praise	-12.1201
master	-12.1205
US	-12.1208
▁trousers	-12.1209
▁Bond	-12.1211
▁neighbours	-12.1212
▁fry	-12.1216
▁stove	-12.1216
▁samurai	-12.1221
▁WOMAN	-12.1221
▁Square	-12.1221
▁Swiss	-12.1222
▁Sen	-12.1226
▁offend	-12.1229
▁chart	-12.1229
shirt	-12.1229
▁attic	-12.1233
▁magazines	-12.1233
▁accusing	-12.1234
▁fugitive	-12.1234
▁November	-12.1234
▁panties	-12.1234
▁adore	-12.1235
▁NE	-12.1241
▁pawn	-12.1241
AS	-12.1242
▁crowded	-12.1248
▁Stephanie	-12.1248
▁Edgar	-12.1249
▁Finch	-12.125
▁Bella	-12.1253
▁Belle	-12.1255
▁Bas	-12.1257
▁Juliet	-12.1257
▁WORK	-12.1257
▁Crown	-12.1257
▁unlikely	-12.1258
▁Virgin	-12.1262
▁fork	-12.1268
▁canceled	-12.1269
▁conquer	-12.1269
▁sunset	-12.1269
▁statements	-12.1272
▁corrupt	-12.1276
▁sickness	-12.1279
▁Hop	-12.1281
▁platform	-12.1282
NA	-12.1282
▁inspection	-12.1283
▁messy	-12.1284
▁Social	-12.1285
▁del	-12.1288
▁Robbie	-12.1289
TS	-12.1292
▁Iraq	-12.1295
ks	-12.1296
▁circles	-12.1296
▁Section	-12.1297
▁violation	-12.1303
▁spots	-12.1304
▁tracked	-12.1304
▁Woody	-12.1305
itis	-12.1306
▁apples	-12.1309
▁resume	-12.131
get	-12.131
ati	-12.1311
▁deserted	-12.1314
▁trucks	-12.1315
oka	-12.1316
▁McGee	-12.1317
▁objective	-12.1317
▁Inter	-12.1318
▁Erica	-12.132
▁Different	-12.1323
▁prosecution	-12.1323
▁Florence	-12.1323
▁kung	-12.1324
piece	-12.1325
▁prey	-12.1325
▁explaining	-12.1325
▁Mulder	-12.1331
four	-12.1334
oli	-12.1336
uma	-12.1337
▁occupied	-12.1344
▁Esther	-12.1344
▁memo	-12.1344
▁Dream	-12.1345
▁cotton	-12.1351
▁hockey	-12.1351
▁chopper	-12.1352
▁fights	-12.1357
▁immunity	-12.1358
▁Jose	-12.1365
▁philosophy	-12.1365
▁overcome	-12.1369
▁ink	-12.137
▁mortgage	-12.1372
▁wheelchair	-12.1372
▁needing	-12.1372
▁Patty	-12.1372
ova	-12.1376
▁Georgie	-12.1377
▁Cousin	-12.1379
▁Jeffrey	-12.1379
▁contain	-12.1382
▁Ob	-12.1384
ovich	-12.1385
▁craft	-12.1388
▁Sho	-12.1388
▁PEOPLE	-12.1393
▁whatsoever	-12.1399
▁dislike	-12.14
▁pointless	-12.1401
▁Theo	-12.1402
▁sch	-12.1408
▁collector	-12.141
▁Against	-12.141
▁crawling	-12.1414
▁possess	-12.1415
▁era	-12.142
▁Problem	-12.1423
▁Alec	-12.1423
▁elegant	-12.1427
▁relevant	-12.1427
▁rising	-12.1428
▁agenda	-12.1428
til	-12.1433
oe	-12.1433
▁wealthy	-12.1434
▁Cook	-12.1434
▁Vietnam	-12.1434
▁Sk	-12.1434
▁deer	-12.1437
▁nurses	-12.1439
▁chairman	-12.1439
▁Playing	-12.144
▁bully	-12.1441
▁orphanage	-12.1442
▁disappearance	-12.1442
▁Tanya	-12.1442
▁Hawk	-12.1443
▁wizard	-12.1448
▁reaching	-12.1449
▁collapse	-12.1449
nick	-12.1451
▁ja	-12.1453
pers	-12.1453
▁experiments	-12.1453
▁diner	-12.1454
▁Whit	-12.1454
▁Piper	-12.1454
▁vent	-12.1457
tie	-12.146
▁warden	-12.1462
▁vicious	-12.1462
moto	-12.1462
▁Learn	-12.1465
eal	-12.1467
▁Tucker	-12.1472
▁beers	-12.1476
kie	-12.1479
▁jaw	-12.148
▁regard	-12.1482
▁losers	-12.1483
▁flood	-12.1485
zen	-12.1488
▁consideration	-12.1488
ae	-12.1488
▁explore	-12.149
▁slack	-12.149
▁Add	-12.1491
▁puff	-12.1492
▁Allah	-12.1492
▁Zero	-12.1494
ggy	-12.1496
▁chickens	-12.1501
▁Starting	-12.1502
▁camping	-12.1503
▁Rai	-12.1509
▁rug	-12.1509
▁Clyde	-12.1511
▁Countess	-12.1511
IES	-12.1512
▁quid	-12.1516
ddy	-12.1517
▁slug	-12.1519
▁resign	-12.152
▁bears	-12.1526
ake	-12.1526
▁Mack	-12.1527
▁Egypt	-12.1531
▁established	-12.1532
▁registration	-12.1532
▁ol	-12.1533
▁Vicky	-12.1533
▁Fast	-12.1535
▁scarf	-12.1539
▁identification	-12.1539
▁galaxy	-12.1539
af	-12.1542
▁Leg	-12.1543
▁drum	-12.1544
▁frog	-12.1546
▁Hamilton	-12.1546
▁sets	-12.1548
▁recommendation	-12.1555
▁brutal	-12.1557
▁Chad	-12.1559
▁gangster	-12.1561
tha	-12.1561
sley	-12.1563
▁Hol	-12.1566
▁embarrass	-12.1569
bbing	-12.1572
▁Lower	-12.1574
▁demonstration	-12.1575
zar	-12.1581
▁Phoenix	-12.1582
▁scout	-12.1582
▁Raja	-12.1584
▁kiddo	-12.1585
▁Naomi	-12.1588
▁aircraft	-12.1589
▁distract	-12.159
▁adjust	-12.159
▁Wanted	-12.1595
▁pond	-12.1595
▁Hudson	-12.1596
▁PLEASE	-12.1596
suke	-12.1596
▁rhythm	-12.1597
▁quitting	-12.16
▁rack	-12.1601
▁creation	-12.1603
▁distraction	-12.1604
▁et	-12.1605
▁innocence	-12.161
▁uniforms	-12.1612
▁culprit	-12.1617
▁PA	-12.1617
▁Herman	-12.1618
▁seeking	-12.1619
boat	-12.162
▁gates	-12.1621
▁confusion	-12.1624
▁cooler	-12.1625
▁cho	-12.1629
▁modest	-12.163
▁Mil	-12.1631
▁bunk	-12.1632
▁childish	-12.1632
▁Willy	-12.1636
▁benefits	-12.1636
▁Fall	-12.1645
▁courtesy	-12.1645
▁Spock	-12.1646
▁Bun	-12.1646
▁beats	-12.1647
▁click	-12.1649
▁linked	-12.1652
▁Kennedy	-12.1653
▁organs	-12.1653
▁gravity	-12.166
▁Sire	-12.166
▁Based	-12.1664
EST	-12.1664
▁Bee	-12.1666
▁TALK	-12.1666
▁reconsider	-12.1667
▁Nat	-12.1669
▁2,000	-12.1669
▁bent	-12.1669
▁Kam	-12.167
▁Yea	-12.1671
▁recommended	-12.1672
▁nightmares	-12.1672
ule	-12.1673
▁ape	-12.1674
000	-12.1674
▁Polish	-12.1675
▁thorough	-12.1678
▁Wil	-12.1681
▁gown	-12.1681
▁representative	-12.1681
▁Pol	-12.1684
▁sniper	-12.1685
▁Leader	-12.1686
yard	-12.1686
▁bolt	-12.1686
▁misses	-12.1687
▁spreading	-12.1687
▁Neal	-12.1688
▁Board	-12.169
▁Joo	-12.1692
▁Luc	-12.1693
▁sailing	-12.1694
▁Jacques	-12.1695
▁whisky	-12.1697
▁pinch	-12.1697
▁29	-12.1697
▁fame	-12.1697
▁Goa	-12.1699
▁Wash	-12.1702
▁continues	-12.1703
▁pursue	-12.1704
▁restore	-12.1707
▁hut	-12.1711
▁Near	-12.1716
▁riddle	-12.1716
▁Christina	-12.1719
▁junkie	-12.1719
▁identical	-12.1724
▁fireworks	-12.1724
▁Seattle	-12.1724
▁hostile	-12.1724
▁fulfill	-12.1727
▁buyer	-12.1727
▁Mis	-12.1733
▁Main	-12.1736
▁Cur	-12.1738
▁civilization	-12.1739
ically	-12.174
▁sis	-12.1743
▁Ry	-12.1745
▁Mercedes	-12.1746
▁maximum	-12.1746
▁tidy	-12.1746
▁Joyce	-12.1746
▁delightful	-12.1752
▁Twelve	-12.1753
It	-12.1757
TY	-12.1759
▁ofthe	-12.1761
▁sour	-12.1765
▁fold	-12.1766
▁Toni	-12.1771
▁1000	-12.1772
▁intent	-12.1773
▁goddess	-12.1774
▁laboratory	-12.1774
▁gi	-12.1775
▁Rudy	-12.1775
▁Robinson	-12.1776
will	-12.1777
▁graduated	-12.1782
ments	-12.1783
INE	-12.1785
▁Pal	-12.1786
▁abilities	-12.1789
▁Evil	-12.1793
▁rag	-12.1795
▁International	-12.1796
▁grey	-12.1796
▁boil	-12.18
▁Conrad	-12.18
▁witches	-12.1801
▁eternity	-12.1803
▁railroad	-12.1803
▁Nar	-12.1804
ux	-12.1807
ska	-12.1811
▁purple	-12.1818
lor	-12.1819
▁bombing	-12.1819
▁stressed	-12.1819
bie	-12.1819
▁Fitz	-12.1821
▁Computer	-12.1825
▁Bug	-12.1827
▁Suit	-12.1829
▁warriors	-12.183
▁Chill	-12.1831
▁Violet	-12.1832
▁Zu	-12.1837
▁THANK	-12.1839
ever	-12.1848
mber	-12.1851
▁Pole	-12.1851
nik	-12.1854
▁von	-12.1857
▁flee	-12.1859
▁betting	-12.1859
bird	-12.186
▁coins	-12.1861
▁breeze	-12.1861
▁Crystal	-12.1861
▁Beer	-12.1862
▁Geez	-12.1865
▁legally	-12.1869
▁yacht	-12.1869
▁50,000	-12.187
iness	-12.1873
▁Clarence	-12.1876
▁Sy	-12.1877
▁duel	-12.1877
▁Erin	-12.1877
inger	-12.1878
▁sha	-12.1881
▁stain	-12.1885
▁Seo	-12.1886
▁dragging	-12.1891
▁passionate	-12.1891
▁Reese	-12.1892
▁Apart	-12.1896
▁spider	-12.1897
▁Grandfather	-12.1898
▁examined	-12.1899
▁Ward	-12.1899
▁ke	-12.1899
▁Liv	-12.1903
▁straighten	-12.1903
0,000	-12.1904
▁speaker	-12.1908
▁pledge	-12.1912
gger	-12.1917
rated	-12.1918
▁ER	-12.1918
▁biological	-12.192
▁carries	-12.1921
lf	-12.1925
▁calendar	-12.1927
▁Valerie	-12.1927
▁slightest	-12.1927
▁Archie	-12.1927
▁frequency	-12.193
▁Faster	-12.1932
gon	-12.1933
▁euros	-12.1934
▁Fifteen	-12.1934
▁neighbourhood	-12.1934
▁whale	-12.194
▁Ministry	-12.1942
dri	-12.1943
▁Bag	-12.1944
▁blah	-12.1946
▁whack	-12.1948
och	-12.1951
▁poke	-12.1952
AGE	-12.1955
▁Klaus	-12.1957
mbo	-12.1959
▁Speed	-12.1961
▁Cute	-12.1963
▁Brazil	-12.1963
▁eleven	-12.1964
▁buzz	-12.1966
lai	-12.1968
▁respects	-12.1969
eth	-12.1969
▁physician	-12.1971
▁precinct	-12.1971
▁thrill	-12.1974
▁supervisor	-12.1978
mura	-12.1981
ui	-12.1981
gged	-12.1984
▁ballet	-12.1984
▁inspiration	-12.1987
▁john	-12.199
▁anyhow	-12.1991
▁mule	-12.1996
▁Principal	-12.2001
▁deliberately	-12.2002
wash	-12.2004
▁Killing	-12.2004
▁rupees	-12.2008
▁smoked	-12.2009
tru	-12.2013
▁Antoine	-12.2015
▁decides	-12.2019
▁cope	-12.202
▁Chip	-12.202
▁legitimate	-12.2022
▁Orleans	-12.203
lot	-12.2034
onic	-12.2035
▁Silly	-12.2039
▁Brain	-12.2041
▁honesty	-12.2044
▁Baxter	-12.2045
▁flames	-12.2046
▁lump	-12.2046
kel	-12.2047
▁begged	-12.2053
▁pressing	-12.2055
▁Elvis	-12.206
▁endure	-12.2062
▁Gerald	-12.2062
LI	-12.2063
▁stack	-12.2065
▁knives	-12.2067
bble	-12.2069
▁Henri	-12.2072
ggle	-12.2075
▁Vivian	-12.2075
▁100,000	-12.2077
▁stepping	-12.2077
mark	-12.2078
▁watches	-12.208
▁Strong	-12.2082
▁ambush	-12.2084
berry	-12.2084
jan	-12.2085
▁idol	-12.2086
▁via	-12.2088
cal	-12.2089
▁Ai	-12.2089
▁Hood	-12.2092
▁forty	-12.2094
▁Cops	-12.2096
▁salesman	-12.2096
wn	-12.2096
▁Poirot	-12.2097
▁abducted	-12.2099
▁EVEN	-12.2104
▁shrimp	-12.2104
▁Polly	-12.2107
▁rogue	-12.2112
▁mint	-12.2112
▁habits	-12.2116
▁Milo	-12.2116
▁Coke	-12.2117
▁District	-12.2119
▁Terrible	-12.2119
▁teenager	-12.2121
▁gra	-12.2122
▁clearance	-12.2124
chy	-12.2124
▁native	-12.2125
▁blunt	-12.2126
▁Mont	-12.2127
ctu	-12.2127
▁Ivy	-12.2128
▁Scotch	-12.2129
▁reporters	-12.2132
▁Liu	-12.2133
▁Piss	-12.2134
TION	-12.2134
▁petition	-12.2134
▁Lenny	-12.2134
▁Roland	-12.2135
▁THESE	-12.2136
▁Pacific	-12.2136
▁drowning	-12.2137
▁convention	-12.214
▁handwriting	-12.2142
▁server	-12.2143
▁turtle	-12.2146
▁relation	-12.2148
▁shares	-12.2148
▁Spirit	-12.2149
▁Dal	-12.2153
▁Muslim	-12.2155
▁Federal	-12.2157
▁tryin	-12.2158
▁vast	-12.2158
dding	-12.216
▁tourist	-12.2164
▁judging	-12.2164
▁Fiona	-12.2164
▁maker	-12.2164
▁flirt	-12.2165
▁Paper	-12.2167
▁Afternoon	-12.2171
▁Sunny	-12.2172
▁Nana	-12.2173
lea	-12.2174
▁employer	-12.2174
sti	-12.2176
▁Bol	-12.2177
▁celebrity	-12.2179
▁Venice	-12.2179
CO	-12.2179
yn	-12.2181
▁noodles	-12.2181
▁grades	-12.2184
▁Precisely	-12.2186
▁expedition	-12.2186
▁bruises	-12.2189
una	-12.2192
▁Data	-12.2192
▁Joel	-12.2193
▁dimension	-12.2196
▁Baba	-12.22
▁sp	-12.2201
▁proposed	-12.2202
▁rolled	-12.2203
▁tray	-12.2203
▁signals	-12.2206
▁Gas	-12.2206
▁Devon	-12.2206
▁Hawaii	-12.2208
▁disposal	-12.2209
▁Jang	-12.2209
▁MUST	-12.2209
▁lawsuit	-12.2209
▁Page	-12.2216
▁Band	-12.2216
▁Cass	-12.2216
▁promising	-12.2217
▁NIGHT	-12.2217
▁Denver	-12.2217
▁Sick	-12.2217
▁Ace	-12.2218
▁Breathe	-12.2219
▁Scared	-12.2221
▁PR	-12.2222
▁Austin	-12.2224
▁difficulty	-12.2227
▁loo	-12.2228
▁solar	-12.223
str	-12.2231
▁thoughtful	-12.2235
▁weigh	-12.2236
▁dice	-12.2237
▁volume	-12.2239
▁Senior	-12.2239
▁Murray	-12.2239
▁instincts	-12.224
▁gen	-12.2241
▁Holland	-12.2245
▁CAR	-12.2247
▁mat	-12.2251
▁glorious	-12.2254
▁Diamond	-12.2254
▁exhibition	-12.2255
▁informant	-12.2255
▁shining	-12.2256
▁pint	-12.2258
▁stroll	-12.2261
nor	-12.2261
▁Griffin	-12.2261
▁tobacco	-12.2262
▁CON	-12.2263
▁bodyguard	-12.2264
▁Spring	-12.2264
▁measures	-12.2266
▁Manuel	-12.2268
▁deadline	-12.2271
mate	-12.2271
▁danced	-12.2271
▁Goodness	-12.2277
▁Lindsay	-12.2277
▁alcoholic	-12.2278
▁psychological	-12.2282
▁cuts	-12.2282
▁sources	-12.2283
▁Mara	-12.2285
▁relaxed	-12.2289
shot	-12.2289
▁farmers	-12.2295
▁inappropriate	-12.2298
▁graduation	-12.23
▁Garcia	-12.23
PA	-12.2306
No	-12.2309
▁maintenance	-12.2309
kka	-12.2313
▁backyard	-12.2315
▁Dallas	-12.2315
▁proposition	-12.2315
▁compromised	-12.2317
▁brass	-12.2318
▁Burt	-12.2319
▁Away	-12.2322
▁Blanche	-12.2323
▁Spike	-12.2326
hill	-12.2327
▁bowling	-12.2328
▁Release	-12.233
▁pudding	-12.233
▁Marsh	-12.2331
▁Sonia	-12.2335
▁efficient	-12.2336
ening	-12.2336
ington	-12.2336
▁Seen	-12.2339
cie	-12.234
▁Marry	-12.2341
▁nick	-12.2341
▁swamp	-12.2343
IST	-12.2344
▁Raise	-12.2345
view	-12.2345
▁Bou	-12.2347
▁hardest	-12.2348
▁witnessed	-12.2349
▁votes	-12.235
▁contains	-12.2351
etta	-12.2353
▁Twice	-12.2353
▁Elaine	-12.2353
gging	-12.2354
▁bubble	-12.2357
ATION	-12.2358
▁31	-12.2359
ssa	-12.236
▁global	-12.2361
▁Corps	-12.2363
▁Mate	-12.2364
rou	-12.2368
▁Krishna	-12.2368
▁Cup	-12.2368
▁Wal	-12.237
▁Feels	-12.2372
▁elements	-12.2373
▁Steele	-12.2374
▁petrol	-12.2375
▁pu	-12.2378
▁Hart	-12.2386
▁buttons	-12.2387
▁chairs	-12.2388
▁Tate	-12.2389
LO	-12.239
▁accomplish	-12.2392
▁Lionel	-12.2393
▁boobs	-12.2395
▁Mess	-12.2395
▁impulse	-12.2399
ual	-12.2399
▁ch	-12.2401
▁Glen	-12.2403
▁patron	-12.2407
▁classroom	-12.2408
▁bon	-12.2411
ged	-12.2411
▁cherry	-12.2414
▁dried	-12.2414
▁medium	-12.2415
PP	-12.2415
stein	-12.2416
▁aspirin	-12.2416
▁bumped	-12.2417
▁tease	-12.242
▁collapsed	-12.2421
▁Lab	-12.2422
▁cupboard	-12.2423
▁nerd	-12.2424
▁rational	-12.2424
▁Vas	-12.2426
▁Beau	-12.2426
▁DR	-12.2428
▁Lf	-12.2428
▁Intelligence	-12.243
▁Percy	-12.243
▁bothers	-12.2432
▁objects	-12.2433
▁promoted	-12.2435
gel	-12.2436
▁Manny	-12.2437
▁Ny	-12.2437
▁submit	-12.2437
SON	-12.2439
▁THOUGHT	-12.2439
▁Jefferson	-12.2445
▁Hay	-12.245
▁runner	-12.2452
rod	-12.2454
▁elected	-12.2455
▁Marge	-12.2456
▁shelf	-12.2456
ENT	-12.2457
▁Archer	-12.2469
▁performing	-12.2472
▁mankind	-12.2473
dis	-12.2473
▁toxic	-12.2474
TING	-12.2475
▁Squad	-12.2476
▁obsession	-12.2476
▁assholes	-12.248
▁Les	-12.2481
▁setup	-12.2483
▁Houston	-12.2484
▁arresting	-12.2487
▁Forty	-12.2487
▁Qu	-12.2488
▁boo	-12.2489
▁DVD	-12.2491
▁Rico	-12.2492
▁Spare	-12.2493
▁reform	-12.2495
▁bean	-12.2496
▁careless	-12.2497
▁architect	-12.2499
▁possibilities	-12.2499
▁batteries	-12.2499
▁Claude	-12.2505
▁customs	-12.2507
▁Op	-12.2507
▁Sol	-12.2509
une	-12.2512
▁organic	-12.2513
▁curtain	-12.2514
▁sequence	-12.2515
hr	-12.2515
▁probation	-12.2515
▁Nikita	-12.2515
▁Franz	-12.2519
▁strikes	-12.2519
ological	-12.252
▁respectable	-12.2521
▁horny	-12.2521
▁rescued	-12.2522
▁SA	-12.2523
rge	-12.2524
▁survivors	-12.2525
▁hanged	-12.2526
▁assets	-12.2528
And	-12.253
▁Basically	-12.253
▁isolated	-12.2532
▁Gay	-12.2535
▁insulted	-12.2536
▁Jar	-12.2537
▁generations	-12.2538
▁bartender	-12.2538
▁labour	-12.2539
▁ray	-12.2542
▁healed	-12.2543
▁Eyes	-12.2544
▁meds	-12.2544
▁banker	-12.2545
▁software	-12.2546
▁Randall	-12.2546
▁Job	-12.2551
▁Cla	-12.2551
▁TWO	-12.2553
▁Yellow	-12.2553
▁vacuum	-12.2553
▁hay	-12.256
▁lure	-12.2561
▁Madison	-12.2561
▁cakes	-12.2566
▁dame	-12.2567
lyn	-12.2567
▁dagger	-12.2569
▁Reggie	-12.2569
▁Thing	-12.257
▁tab	-12.2572
pie	-12.2574
met	-12.2575
▁predict	-12.2577
▁FIRST	-12.2577
▁Front	-12.2578
▁grasp	-12.2578
▁Marriage	-12.2585
▁Beauty	-12.2585
▁Hastings	-12.2585
▁Round	-12.2589
▁Federation	-12.2593
▁multi	-12.2594
▁Bla	-12.2595
▁AC	-12.2598
▁scenes	-12.2598
play	-12.26
▁Superintendent	-12.26
▁souvenir	-12.26
▁Scout	-12.2601
▁Odd	-12.2604
▁pri	-12.2605
▁Bernie	-12.2605
▁attending	-12.2607
▁virtue	-12.2608
▁sperm	-12.2608
▁mode	-12.2609
▁suggests	-12.261
than	-12.2612
▁Burns	-12.2615
▁jeans	-12.2616
▁curtains	-12.2616
rov	-12.2618
▁sensors	-12.2619
▁initial	-12.262
▁Admit	-12.2624
ike	-12.2624
▁spec	-12.2628
▁Code	-12.263
▁Stuff	-12.263
▁torch	-12.2631
▁literature	-12.2632
▁Nadia	-12.2632
▁wakes	-12.2634
▁PUT	-12.2634
▁continued	-12.2635
vers	-12.2636
▁barge	-12.2639
▁gracious	-12.264
eb	-12.264
ture	-12.2643
▁ruled	-12.2647
▁voted	-12.2647
▁economy	-12.2647
▁asylum	-12.2647
▁publish	-12.2649
▁physics	-12.2651
▁sip	-12.2651
hen	-12.2653
wing	-12.2654
▁waist	-12.2656
ET	-12.2657
▁workshop	-12.2659
▁Spit	-12.2659
▁SIR	-12.2661
▁Harriet	-12.2662
▁Eu	-12.2662
▁guidance	-12.2663
▁BECAUSE	-12.2663
▁clearing	-12.267
▁ignorant	-12.2671
▁strongly	-12.2672
▁History	-12.2672
▁listed	-12.2672
▁Rory	-12.2673
▁Marina	-12.2676
▁blamed	-12.2678
▁leaf	-12.2679
▁submarine	-12.2679
▁musician	-12.2679
▁Lunch	-12.2679
▁fitting	-12.2681
▁rail	-12.2683
▁translate	-12.2683
▁reduce	-12.2683
▁Rama	-12.2684
▁Omar	-12.2685
pon	-12.2687
GE	-12.2687
▁Reid	-12.2689
ob	-12.269
▁sewer	-12.269
▁erase	-12.2693
▁learnt	-12.2697
▁Serve	-12.2701
▁advertising	-12.2703
won	-12.2706
ATE	-12.2707
▁succeeded	-12.2709
▁Reynolds	-12.2711
▁Strike	-12.2711
▁postcard	-12.2711
▁Suck	-12.2711
▁shadows	-12.2714
▁loads	-12.2715
husband	-12.2717
▁Cheer	-12.2718
▁Buzz	-12.2718
▁fountain	-12.2718
▁forcing	-12.2719
▁condolences	-12.272
▁rebels	-12.272
▁Milk	-12.2721
▁bounce	-12.2722
▁Marion	-12.2723
▁Cab	-12.2723
▁fragile	-12.2726
▁harbor	-12.2726
uck	-12.2727
▁Ph	-12.2727
▁mentally	-12.2727
▁Mae	-12.2729
▁engage	-12.273
▁Jai	-12.2731
▁Henderson	-12.2734
▁Pleased	-12.2738
▁equally	-12.274
▁arch	-12.2741
▁cricket	-12.2742
▁STILL	-12.2742
▁millionaire	-12.2743
ock	-12.2746
▁oughta	-12.2747
▁Evelyn	-12.275
▁rehab	-12.2751
nis	-12.2752
▁Train	-12.2753
▁generally	-12.2754
▁Worth	-12.2756
▁Ac	-12.2757
▁lobster	-12.2758
▁razor	-12.2758
▁lifted	-12.2761
▁whisper	-12.2762
▁Low	-12.2762
▁wo	-12.2762
▁resent	-12.2766
▁blink	-12.2768
▁GUYS	-12.2768
▁dorm	-12.2769
▁tar	-12.277
iko	-12.2771
▁haul	-12.2772
▁Afghanistan	-12.2774
▁tourists	-12.2776
▁comb	-12.278
▁Hung	-12.278
▁crow	-12.278
▁Bea	-12.2781
▁Society	-12.2782
▁Sofia	-12.2782
▁importantly	-12.2785
fully	-12.2787
▁cult	-12.279
▁Completely	-12.2791
lier	-12.2793
▁standards	-12.2797
▁charging	-12.2798
▁Test	-12.2801
▁Tang	-12.2802
▁CALL	-12.2804
▁Benson	-12.2804
▁Britain	-12.2806
gna	-12.2811
▁Scotty	-12.2813
▁Taka	-12.2813
▁inquiry	-12.2814
▁spinning	-12.2814
grade	-12.2815
▁PM	-12.2816
▁confront	-12.2818
▁visa	-12.2819
▁organize	-12.2819
▁movements	-12.2821
ition	-12.2821
▁Asian	-12.2821
▁Donovan	-12.2822
▁anchor	-12.2822
dle	-12.2823
▁beep	-12.2824
▁burglar	-12.2825
▁preserve	-12.2826
▁discreet	-12.2827
good	-12.2828
▁subjects	-12.2829
▁Science	-12.283
▁spear	-12.283
▁railway	-12.283
▁freely	-12.2831
▁protective	-12.2833
lam	-12.2833
▁Wan	-12.2835
▁Sell	-12.2837
▁Gavin	-12.2837
▁Qui	-12.2841
▁fighters	-12.2842
▁HO	-12.2845
▁tales	-12.2846
▁OTHER	-12.2847
▁resolve	-12.285
▁products	-12.2854
▁Napoleon	-12.2854
▁dynamite	-12.2854
▁chemistry	-12.2854
▁touches	-12.2854
▁sexually	-12.2857
▁daughters	-12.286
▁caf	-12.2862
▁Defense	-12.2862
▁Health	-12.2865
ene	-12.2866
▁cam	-12.2869
▁seizure	-12.287
▁Ernie	-12.2871
▁rally	-12.2871
▁slaughter	-12.2872
▁invest	-12.2875
▁Killer	-12.2876
▁Dexter	-12.2878
▁Operation	-12.2879
▁Rin	-12.2879
▁Arab	-12.288
▁min	-12.288
▁largest	-12.2882
▁Dai	-12.2885
▁tick	-12.2885
▁Potter	-12.2888
▁Kathy	-12.2888
▁Holt	-12.2889
▁sacrificed	-12.2894
▁academy	-12.2894
▁devoted	-12.2895
▁stalking	-12.2897
▁doomed	-12.2897
zing	-12.29
▁Kris	-12.29
▁pirates	-12.29
▁Swedish	-12.2902
▁altogether	-12.2902
▁Stevie	-12.2902
▁Channel	-12.2902
▁cloak	-12.2903
▁pancakes	-12.2905
sten	-12.2905
▁MAR	-12.2907
▁burial	-12.291
▁NEW	-12.2911
▁Fanny	-12.2911
▁spaceship	-12.2912
▁Someday	-12.2915
anna	-12.2916
▁hike	-12.2918
▁welfare	-12.2918
▁Marta	-12.2921
▁jazz	-12.2922
▁lane	-12.2927
bor	-12.2929
▁hu	-12.2929
▁Tanner	-12.2935
-4	-12.2938
▁cue	-12.2942
▁curve	-12.2943
▁gently	-12.2944
▁Slowly	-12.2949
▁December	-12.2951
ched	-12.2952
▁Mimi	-12.2953
▁explosive	-12.2953
▁nursing	-12.2959
uga	-12.2959
▁feather	-12.2962
▁materials	-12.2963
lis	-12.2964
▁Shannon	-12.2967
▁noisy	-12.2967
▁issued	-12.2972
wise	-12.2973
▁darn	-12.2975
▁elbow	-12.2975
5.	-12.2977
▁detect	-12.2977
▁Boom	-12.2978
▁sweating	-12.2981
▁Foreign	-12.2983
▁Moving	-12.2984
▁reject	-12.2987
▁Candy	-12.2989
▁electronic	-12.2991
▁hilarious	-12.2991
▁peak	-12.2992
▁Cri	-12.2993
▁portal	-12.2995
▁risking	-12.2996
▁Rad	-12.2996
▁prices	-12.2997
▁bri	-12.2999
▁despise	-12.3
▁majesty	-12.3
▁Hammer	-12.3003
▁stores	-12.3005
ridge	-12.3007
▁facial	-12.3008
▁Fri	-12.3008
▁gained	-12.3009
▁growth	-12.3012
aro	-12.3012
▁Cy	-12.3013
▁Nigel	-12.3016
▁depression	-12.3016
▁INTO	-12.3016
▁targets	-12.3017
▁desires	-12.3019
▁prep	-12.3021
▁shack	-12.3023
dine	-12.3024
▁heavily	-12.3024
▁licence	-12.3024
▁Venus	-12.3025
lli	-12.3027
▁Lar	-12.3027
ose	-12.3028
▁Villa	-12.3029
▁forensic	-12.303
▁Congress	-12.3031
▁peculiar	-12.3032
hn	-12.3032
cap	-12.3033
▁Ski	-12.3037
▁Demon	-12.3039
young	-12.304
▁sire	-12.304
▁GREAT	-12.304
▁Merlin	-12.3042
▁maiden	-12.3046
▁prospect	-12.3049
▁Breakfast	-12.3049
▁BETTER	-12.3049
▁Repeat	-12.3049
▁Dirty	-12.305
▁kisses	-12.305
▁ob	-12.3052
cin	-12.3053
▁outcome	-12.3055
▁grill	-12.3055
▁innit	-12.3056
▁Ahem	-12.3057
▁Monroe	-12.3057
▁Pet	-12.306
▁packet	-12.3061
keeper	-12.3061
▁refuses	-12.3064
▁Gre	-12.3065
▁grease	-12.3065
▁Lizzie	-12.3065
▁carbon	-12.3065
▁theories	-12.3065
mont	-12.3066
▁stripper	-12.3067
▁satisfaction	-12.3067
tech	-12.307
▁warp	-12.3071
▁nuisance	-12.3073
▁ce	-12.3076
CA	-12.3076
▁stash	-12.3077
▁codes	-12.3078
▁Bus	-12.3079
▁BEFORE	-12.3081
▁choosing	-12.3081
▁treason	-12.3081
▁terminal	-12.3082
ddle	-12.3084
▁Chance	-12.3084
▁poster	-12.3084
▁savings	-12.3086
▁breakdown	-12.3086
▁Avery	-12.3088
▁Mistress	-12.309
▁regiment	-12.309
▁overtime	-12.3091
hop	-12.3091
lina	-12.3096
▁marine	-12.3097
▁compartment	-12.3098
▁Birthday	-12.3098
▁Mumbai	-12.3098
▁detention	-12.3098
▁bosses	-12.3099
ude	-12.3105
▁probe	-12.3105
▁thoroughly	-12.3109
▁estimate	-12.3111
▁Beverly	-12.3114
▁Yuri	-12.3115
▁declared	-12.3116
▁annoy	-12.3119
▁towels	-12.312
▁Mul	-12.3121
rah	-12.3122
▁disco	-12.3123
RS	-12.3125
gun	-12.3125
▁principles	-12.3125
▁caring	-12.3127
▁pursuit	-12.3131
ANT	-12.3134
▁Zen	-12.3135
▁villagers	-12.3135
▁potion	-12.3136
▁Yun	-12.3136
▁antidote	-12.3139
▁Project	-12.3139
▁Flo	-12.3142
ril	-12.3143
▁experts	-12.3143
▁Lau	-12.3145
ua	-12.3147
responsibilities	-12.3147
▁Shanghai	-12.3147
▁Turkey	-12.3148
woo	-12.315
▁anxiety	-12.3156
▁Amelia	-12.3156
ERS	-12.3161
licit	-12.3161
▁Vin	-12.3162
▁blend	-12.3163
▁Eleanor	-12.3164
▁supermarket	-12.3164
▁wires	-12.3165
▁shirts	-12.3165
▁semi	-12.3165
▁Arrest	-12.3167
▁2000	-12.3167
▁Yong	-12.3169
▁Using	-12.3171
▁Skip	-12.3172
▁CEO	-12.3172
▁January	-12.3172
▁Vienna	-12.3172
▁puke	-12.3174
rac	-12.3175
▁lodge	-12.3178
▁Angelo	-12.3179
▁dealers	-12.318
▁shi	-12.3181
bone	-12.3183
▁Pity	-12.3184
▁traveled	-12.3187
▁Marilyn	-12.3189
▁cheaper	-12.319
▁improvement	-12.319
▁pe	-12.3191
▁wooden	-12.3192
sar	-12.3196
▁behaving	-12.3197
▁thunder	-12.3197
▁trophy	-12.3197
▁Hugh	-12.3198
▁ci	-12.32
▁Easter	-12.3201
4.	-12.3203
▁entertain	-12.3203
ulation	-12.3203
▁Committee	-12.3205
▁Incredible	-12.3205
osa	-12.3206
▁Cody	-12.3207
dge	-12.3208
▁Comp	-12.3212
▁Lori	-12.3213
▁counted	-12.3214
▁hiring	-12.3215
▁automatic	-12.3217
▁stations	-12.322
▁semester	-12.3222
▁Normally	-12.3224
▁steer	-12.3226
▁Israel	-12.3229
▁Homicide	-12.323
▁KEEP	-12.323
▁surgical	-12.323
▁finance	-12.3231
▁mount	-12.3232
▁Eye	-12.3236
itude	-12.3239
rak	-12.3241
▁operative	-12.3245
▁Door	-12.3246
▁sincere	-12.3248
▁choke	-12.3252
▁Shake	-12.3253
world	-12.3254
▁Cleveland	-12.3255
▁HOME	-12.3256
▁brothel	-12.3256
▁barrier	-12.3256
▁lid	-12.326
▁Ei	-12.3262
▁Champagne	-12.3264
bot	-12.3271
▁bandits	-12.3273
▁Raven	-12.3273
bing	-12.3274
▁regulations	-12.3279
▁fiction	-12.3279
▁Madrid	-12.3281
▁ji	-12.3286
rus	-12.3287
▁Harvard	-12.3289
▁Anywhere	-12.329
▁conviction	-12.3292
▁Gate	-12.3292
horn	-12.3295
▁whores	-12.3295
▁mattress	-12.3296
nia	-12.3297
SS	-12.3297
▁verse	-12.3298
▁subtle	-12.3299
dom	-12.3299
▁Ravi	-12.3301
▁jealousy	-12.3301
boo	-12.3303
▁concentration	-12.3306
▁scanner	-12.3306
▁Village	-12.3307
eng	-12.3308
▁travels	-12.3313
▁banging	-12.3313
▁sophisticated	-12.3314
▁snakes	-12.3314
▁Early	-12.3316
▁miracles	-12.3318
▁strongest	-12.332
▁Hum	-12.3322
▁altar	-12.3323
▁Malone	-12.3324
▁salon	-12.3325
▁Elder	-12.3325
▁Building	-12.3325
▁divide	-12.3328
▁dam	-12.3329
▁Married	-12.3331
▁tart	-12.3331
▁dine	-12.3332
▁adopt	-12.3335
dal	-12.3336
MENT	-12.3338
▁Hook	-12.3338
▁BA	-12.334
▁Gerry	-12.334
▁ordering	-12.3341
▁Cop	-12.3342
▁backpack	-12.3343
▁Republic	-12.3346
▁regrets	-12.3346
▁Yard	-12.3352
▁Unlike	-12.3354
▁absent	-12.3356
▁merry	-12.3357
osis	-12.3357
cer	-12.336
▁DAY	-12.3363
▁survey	-12.3364
▁Shepherd	-12.3365
▁reserved	-12.3367
rma	-12.3369
▁cu	-12.3369
▁hose	-12.337
▁fees	-12.337
phone	-12.3371
hearted	-12.3371
▁Southern	-12.3373
▁fracture	-12.3374
▁Anita	-12.3377
wen	-12.3378
eur	-12.3378
▁Yoshi	-12.3378
▁Figure	-12.3381
▁prettier	-12.3382
▁improved	-12.3385
▁Fly	-12.3386
umi	-12.3393
ao	-12.3398
▁framed	-12.3398
▁Mill	-12.3398
▁NOTHING	-12.3398
▁inevitable	-12.3398
▁annual	-12.3399
▁overseas	-12.3399
dra	-12.3401
▁Tro	-12.3402
tern	-12.3402
ller	-12.3404
zzi	-12.3404
kins	-12.3405
▁ignored	-12.3405
▁despair	-12.3407
▁hunters	-12.3407
▁Bauer	-12.3409
▁tramp	-12.3411
▁Atlantic	-12.3415
▁intellectual	-12.3415
▁Marianne	-12.3416
▁monkeys	-12.3417
▁roots	-12.3422
MO	-12.3422
▁unstable	-12.3424
▁toes	-12.3428
▁communications	-12.3429
▁Wally	-12.3429
▁handful	-12.3429
vel	-12.343
▁immortal	-12.3432
▁prop	-12.3432
▁Brennan	-12.3433
▁approximately	-12.3433
▁Faith	-12.3433
▁Hair	-12.3435
▁Facebook	-12.3441
▁Delhi	-12.3442
cur	-12.3442
▁civilians	-12.3443
cco	-12.3444
▁THAN	-12.3449
▁Chelsea	-12.3449
▁positions	-12.3452
▁adapt	-12.3452
▁inn	-12.3456
▁Chester	-12.3459
▁glue	-12.346
▁bounty	-12.3467
▁versus	-12.3467
▁trading	-12.3467
▁faced	-12.347
▁Barb	-12.3471
▁Oz	-12.3473
gin	-12.3474
▁Smells	-12.3474
sum	-12.3475
▁Dammit	-12.3475
▁unlucky	-12.3475
▁Sleeping	-12.3475
vert	-12.3479
mond	-12.3479
▁Sword	-12.3484
▁es	-12.3485
▁underestimate	-12.3489
ele	-12.3489
▁scoop	-12.3492
▁politicians	-12.3492
▁Isabelle	-12.3493
▁Sweden	-12.3493
bby	-12.3494
▁Pray	-12.3498
▁Mandy	-12.3498
▁Kel	-12.35
▁Lift	-12.3502
▁specialty	-12.3502
▁additional	-12.3503
▁Py	-12.3504
avi	-12.3507
▁sam	-12.3507
▁faggot	-12.3509
▁confirmation	-12.3511
cker	-12.3514
case	-12.3516
tier	-12.3516
vie	-12.3521
▁queer	-12.3522
▁locks	-12.3524
▁fears	-12.3524
▁violin	-12.3526
▁thankful	-12.3527
▁controlling	-12.3528
▁Dor	-12.3531
▁peek	-12.3533
▁scrub	-12.3535
▁butler	-12.3536
▁tunnels	-12.3537
▁failing	-12.3539
▁Ker	-12.3541
▁economic	-12.3543
▁Mannix	-12.3544
▁Oxford	-12.3544
▁jeep	-12.3544
▁ferry	-12.3544
NC	-12.3544
▁bomber	-12.3545
thi	-12.3547
▁depth	-12.3547
▁Hero	-12.3547
▁substitute	-12.3552
▁Kansas	-12.3552
▁THOSE	-12.3552
▁Honest	-12.3554
▁polish	-12.3557
▁casualties	-12.3561
▁partnership	-12.3563
▁roller	-12.3564
▁comments	-12.3567
▁fra	-12.3568
yang	-12.3568
▁outer	-12.3569
▁voyage	-12.357
▁bake	-12.357
bber	-12.357
▁printed	-12.3572
▁vomit	-12.3572
bri	-12.3572
fall	-12.3573
▁Trent	-12.3575
▁smelled	-12.3575
▁Worse	-12.3579
▁DOOR	-12.3579
rum	-12.358
▁trains	-12.3581
▁Thou	-12.3582
▁Von	-12.3583
▁hospitality	-12.3589
▁formed	-12.359
▁Key	-12.3591
who	-12.3592
▁Eastern	-12.3593
▁wardrobe	-12.3595
▁Lead	-12.3596
▁beautifully	-12.3597
▁feature	-12.3597
▁Ryu	-12.3598
▁notion	-12.3598
▁appreciated	-12.36
▁Doris	-12.3601
bus	-12.3603
▁visible	-12.3604
▁Frost	-12.3607
bol	-12.3607
▁Tal	-12.3609
▁Prison	-12.3613
▁LAST	-12.3622
▁compliments	-12.3622
▁Brothers	-12.3624
▁Planet	-12.3626
wit	-12.3627
▁Liar	-12.3628
pm	-12.3629
▁Melanie	-12.363
▁Snake	-12.363
▁sufficient	-12.3631
dia	-12.3631
▁Poland	-12.3632
aba	-12.3633
▁z	-12.3636
▁TA	-12.3638
▁coconut	-12.3639
▁granny	-12.3639
roy	-12.3639
▁seeds	-12.3639
▁venture	-12.3641
▁satisfy	-12.3641
▁Peg	-12.3643
▁Brett	-12.3644
▁controls	-12.3644
▁Tall	-12.3647
nine	-12.3648
▁tasted	-12.3649
bell	-12.3652
▁gag	-12.3653
▁ban	-12.3658
▁cal	-12.3659
▁endless	-12.366
▁hail	-12.3665
▁axe	-12.3666
▁Ellis	-12.3667
▁Nowhere	-12.3667
▁blocking	-12.3669
brook	-12.3669
mos	-12.367
hing	-12.367
shima	-12.3673
▁Thai	-12.3673
▁boxer	-12.3674
▁flirting	-12.3681
▁artificial	-12.3682
▁psychologist	-12.3682
vor	-12.3682
▁preferred	-12.3683
▁notify	-12.3687
▁retrieve	-12.3688
▁Peterson	-12.3689
ith	-12.3692
▁conclusions	-12.3692
▁skate	-12.3693
▁announced	-12.3694
▁defect	-12.3694
nda	-12.3696
▁massacre	-12.37
▁rushing	-12.3704
▁flattered	-12.3704
▁cousins	-12.3706
▁ambitious	-12.3708
▁Several	-12.3709
▁Lemon	-12.3709
▁brake	-12.3709
ath	-12.3714
▁Mina	-12.3715
▁asset	-12.3716
▁jurisdiction	-12.3717
▁Seung	-12.3718
▁Killed	-12.3721
▁resident	-12.3721
▁offensive	-12.3723
read	-12.3723
UN	-12.3725
olo	-12.3725
▁exposure	-12.3726
▁strangled	-12.3726
AC	-12.3727
-2	-12.3727
▁demanding	-12.373
▁Charming	-12.373
date	-12.3731
▁execute	-12.3732
▁bark	-12.3733
9.	-12.3734
▁Dur	-12.3734
not	-12.3737
▁dolls	-12.3739
ava	-12.3742
▁Moore	-12.3743
▁misfortune	-12.3743
▁Patricia	-12.3744
▁departure	-12.3744
▁leadership	-12.3744
▁freezer	-12.3745
▁tires	-12.375
▁rental	-12.3751
▁limo	-12.3751
▁contribution	-12.3752
▁swap	-12.3752
▁swallowed	-12.3754
▁shiny	-12.3754
try	-12.3756
▁HUH	-12.3756
▁traced	-12.3758
▁til	-12.3758
▁Asia	-12.3765
▁Cynthia	-12.377
▁diagnosis	-12.377
bla	-12.3771
▁Scar	-12.3774
▁interviewed	-12.3775
▁che	-12.3776
▁rushed	-12.3777
▁Mira	-12.3777
▁interviews	-12.3778
2.	-12.3778
lash	-12.3779
▁association	-12.3779
▁squirrel	-12.3779
▁slit	-12.3781
LA	-12.3785
▁wired	-12.3786
▁AFTER	-12.3787
▁wages	-12.3788
▁valve	-12.379
▁rolls	-12.3793
▁meteor	-12.3796
▁digital	-12.3797
KE	-12.3797
▁remained	-12.38
▁scares	-12.3802
▁spine	-12.3804
▁jammed	-12.3805
▁crab	-12.3807
▁colony	-12.3808
▁sleeve	-12.3812
eck	-12.3812
xin	-12.3814
▁KITT	-12.3814
▁Joshua	-12.3814
▁Roberto	-12.3815
▁Smell	-12.3816
▁Gregory	-12.3816
▁tailor	-12.3817
▁PRO	-12.3819
ante	-12.382
▁pigeon	-12.3821
▁Keller	-12.3821
▁swords	-12.3823
▁fierce	-12.3823
▁occupation	-12.3823
▁nigga	-12.3823
▁inheritance	-12.3823
▁Remove	-12.3824
▁employ	-12.3831
▁Communist	-12.3832
▁scumbag	-12.3832
▁urine	-12.3832
▁Non	-12.3834
▁justify	-12.3836
▁choir	-12.3841
▁interrupted	-12.3842
erson	-12.3842
▁Means	-12.3843
▁Gotham	-12.3845
▁reduced	-12.3845
▁kilometers	-12.3845
▁Bones	-12.3846
▁mock	-12.3849
▁assaulted	-12.3851
▁com	-12.3853
▁dealt	-12.3854
▁Roberts	-12.3855
▁Jade	-12.3855
▁Jer	-12.3856
▁skeleton	-12.3858
▁Masa	-12.3862
▁premises	-12.3863
▁humiliated	-12.3863
hh	-12.3864
▁casual	-12.3864
▁antique	-12.3867
rc	-12.3869
▁cheerful	-12.3871
▁dearest	-12.3871
▁Born	-12.3873
▁pressed	-12.3873
ode	-12.3875
▁resignation	-12.3877
▁tra	-12.3878
aka	-12.3879
▁Que	-12.388
▁teenage	-12.3881
burg	-12.3881
▁Dam	-12.3882
▁appointed	-12.3884
▁marvellous	-12.3885
▁clam	-12.389
▁Brick	-12.3891
UM	-12.3893
▁bulb	-12.3894
dog	-12.3894
▁boost	-12.3894
▁nightclub	-12.3895
▁canvas	-12.3895
▁disrespect	-12.3899
▁youngest	-12.39
▁meter	-12.3901
▁Others	-12.3902
▁politician	-12.3903
▁racist	-12.3903
▁instructor	-12.3903
▁Carlton	-12.3906
▁carrier	-12.3906
▁AGAIN	-12.3912
▁Freedom	-12.3912
▁Lovejoy	-12.3912
▁Hy	-12.3913
▁shipping	-12.3915
▁tickle	-12.3917
▁Personally	-12.3923
▁dreamt	-12.3924
▁values	-12.3925
▁BIG	-12.3929
▁SORRY	-12.393
▁integrity	-12.393
▁gardener	-12.393
▁Kun	-12.3931
ered	-12.3935
▁Wat	-12.3936
fil	-12.3937
▁transaction	-12.3938
▁bass	-12.3939
▁Nico	-12.3939
▁Garrett	-12.394
▁20,000	-12.3942
▁feared	-12.3946
cle	-12.3947
▁cartoon	-12.3948
▁knot	-12.3948
▁tutor	-12.395
▁FI	-12.3951
▁undo	-12.3952
▁trainer	-12.3955
▁Emergency	-12.3956
▁specimen	-12.3956
▁misunderstand	-12.3958
▁Cuba	-12.3959
uf	-12.3964
▁chuck	-12.3967
▁countryside	-12.3969
▁mold	-12.397
▁Ava	-12.3971
front	-12.3974
▁WAIT	-12.3974
▁clone	-12.3975
▁Grayson	-12.3975
▁disappointment	-12.3975
▁sucking	-12.3976
ache	-12.3976
▁selected	-12.398
bon	-12.398
▁Bai	-12.398
▁seventh	-12.3981
ssi	-12.3981
▁Storm	-12.3984
pho	-12.3986
fin	-12.3986
about	-12.3987
▁Knowing	-12.399
▁Flight	-12.3994
▁sniff	-12.3995
▁Services	-12.4
▁Asshole	-12.4001
▁burger	-12.4002
▁lighting	-12.4009
▁ammunition	-12.401
▁Within	-12.4014
▁Flying	-12.4017
▁shan	-12.4018
▁imagining	-12.4019
▁Magnum	-12.4019
▁Brody	-12.402
▁Ella	-12.4021
nal	-12.4021
▁gri	-12.4024
making	-12.4024
iv	-12.4025
▁Teach	-12.4026
▁pals	-12.4026
▁nailed	-12.4028
▁LONG	-12.4028
▁Janice	-12.4029
▁Attack	-12.403
▁hyper	-12.403
▁peanut	-12.4031
▁convert	-12.4032
▁increased	-12.4033
▁Jam	-12.4034
▁February	-12.4037
▁Geoffrey	-12.4037
▁employment	-12.4038
▁fin	-12.4042
pri	-12.4043
▁Stevens	-12.4044
▁ge	-12.4045
▁Canadian	-12.4046
▁select	-12.405
hea	-12.4052
▁Gor	-12.4053
▁administration	-12.4055
▁recruit	-12.4056
▁san	-12.4057
▁Abigail	-12.4065
▁advisor	-12.4065
▁pretended	-12.4069
rg	-12.407
▁Monty	-12.4071
▁mustache	-12.4071
▁Russ	-12.4073
▁MacGyver	-12.4074
chen	-12.4074
▁Sadie	-12.4075
▁Haley	-12.4076
nc	-12.4078
ico	-12.4079
▁pickup	-12.408
dling	-12.4081
▁Simone	-12.4083
▁Focus	-12.4083
wo	-12.4084
▁Lind	-12.4089
▁democracy	-12.4092
▁assassination	-12.4093
▁baked	-12.4093
▁achieved	-12.4094
Ma	-12.4095
▁glow	-12.4095
▁presented	-12.4097
illo	-12.41
▁spilled	-12.41
▁veins	-12.41
▁fainted	-12.4101
▁inventory	-12.4103
▁Among	-12.4104
▁portion	-12.4104
▁Capt	-12.4105
▁ruins	-12.4106
▁Lion	-12.4106
▁qui	-12.4108
▁newly	-12.4109
▁est	-12.411
▁Pie	-12.411
raj	-12.411
▁attraction	-12.4111
tine	-12.4112
▁lands	-12.4113
▁Sel	-12.4114
▁opposed	-12.4116
▁catches	-12.4117
▁33	-12.4119
▁Eventually	-12.4119
▁eagle	-12.4119
▁snatch	-12.4123
▁honorable	-12.4124
cri	-12.4127
▁refrigerator	-12.4128
▁crook	-12.4128
▁magnet	-12.413
▁chains	-12.4132
▁Butter	-12.4134
▁pur	-12.4135
▁admission	-12.4138
▁tipped	-12.4138
▁34	-12.4139
▁Mir	-12.414
▁Agency	-12.4141
erman	-12.4142
▁robots	-12.4143
▁relieve	-12.4144
▁temp	-12.4144
▁Stein	-12.4144
▁Einstein	-12.4146
▁phony	-12.4146
▁tomato	-12.4147
▁pumpkin	-12.4147
▁Lip	-12.4148
▁OLD	-12.4148
but	-12.4148
▁lethal	-12.4149
lov	-12.415
▁realistic	-12.4152
▁inconvenience	-12.4153
▁opportunities	-12.4156
▁filter	-12.4156
▁Battle	-12.4156
oz	-12.4156
nam	-12.4157
▁Travel	-12.4157
▁batch	-12.416
▁Susie	-12.4165
▁madman	-12.4166
ME	-12.4166
▁scissors	-12.4167
▁bee	-12.4168
▁confuse	-12.4172
▁Doe	-12.4174
▁transmitter	-12.4174
▁edition	-12.4174
▁Switch	-12.4174
▁enforcement	-12.4176
▁spared	-12.4178
▁diver	-12.4179
jack	-12.4183
▁Ancient	-12.4184
aya	-12.4184
▁approached	-12.4184
▁Dae	-12.4184
▁Smoke	-12.4185
▁Hoo	-12.4187
▁quest	-12.4189
▁Hush	-12.4191
▁covers	-12.4192
▁introduction	-12.4192
▁PD	-12.4194
lit	-12.4195
MP	-12.4195
▁valid	-12.4195
ffer	-12.4198
▁Andr	-12.42
▁astronaut	-12.4201
▁janitor	-12.4201
▁Yay	-12.4201
▁interference	-12.4202
▁Pink	-12.4202
▁Ada	-12.4202
▁policemen	-12.4205
▁savage	-12.4209
▁acknowledge	-12.4209
▁convent	-12.421
▁Turkish	-12.4211
▁Luther	-12.4211
▁neuro	-12.4212
▁publisher	-12.4213
hil	-12.4216
▁summoned	-12.4216
jun	-12.4216
▁camel	-12.4217
▁Trick	-12.4218
▁vegetable	-12.4218
▁misunderstood	-12.422
▁Camille	-12.422
▁Iris	-12.4222
▁Aya	-12.4223
▁Card	-12.4225
▁originally	-12.4227
▁butterfly	-12.4229
▁Jasper	-12.4229
▁handcuffs	-12.423
▁Fritz	-12.423
▁Priest	-12.423
phy	-12.4231
▁Niles	-12.4232
ffe	-12.4238
nch	-12.4238
▁morphine	-12.4238
▁Hammond	-12.4238
▁RA	-12.4238
▁robbing	-12.4238
nde	-12.4239
eight	-12.4239
▁Giving	-12.4239
▁responding	-12.4239
▁Marvin	-12.4239
▁Tree	-12.4241
▁punched	-12.4243
▁porch	-12.4243
▁associates	-12.4244
▁Present	-12.4247
15	-12.4251
▁partial	-12.4251
▁lime	-12.4251
▁ki	-12.4251
TED	-12.4253
hold	-12.4254
cc	-12.4256
▁Prosecutor	-12.4257
▁Respect	-12.4257
▁Darren	-12.4257
▁Med	-12.4258
▁represents	-12.4261
▁patterns	-12.4262
▁haunt	-12.4263
▁caution	-12.4266
▁psychopath	-12.4269
▁EVER	-12.4271
▁Abi	-12.4273
▁DOES	-12.4275
yne	-12.428
cast	-12.428
▁abused	-12.4281
his	-12.4282
▁monitoring	-12.4283
▁blog	-12.4283
▁clumsy	-12.4284
▁Technically	-12.4285
▁strap	-12.429
▁contractor	-12.4291
▁Natasha	-12.4294
▁indicates	-12.4294
▁radical	-12.4295
▁delivering	-12.4295
▁Ching	-12.4295
▁instruments	-12.4297
▁earning	-12.4299
▁stinking	-12.43
▁Sven	-12.4301
▁shorter	-12.4301
pet	-12.4303
▁poems	-12.4303
▁climate	-12.4303
▁Brought	-12.4303
▁errand	-12.4304
▁Gabrielle	-12.4305
nos	-12.4306
ison	-12.4308
▁Rush	-12.4308
▁feathers	-12.4309
▁writes	-12.431
▁shaft	-12.4312
▁articles	-12.4313
▁inherit	-12.4316
▁bizarre	-12.4322
▁Sherlock	-12.4322
▁Contact	-12.4322
▁memorial	-12.4322
▁Nolan	-12.4325
▁clay	-12.4326
▁advised	-12.4327
▁PLACE	-12.4331
hra	-12.4337
▁Row	-12.4344
▁expelled	-12.435
▁lounge	-12.435
▁Sent	-12.435
▁Calvin	-12.4352
▁offers	-12.4354
▁shops	-12.4354
▁Phillips	-12.4354
vid	-12.4356
▁Driver	-12.4358
▁Bradley	-12.436
▁Bran	-12.4362
▁engineering	-12.4366
▁Br	-12.4367
ancy	-12.4367
▁worms	-12.4367
▁Upstairs	-12.4368
▁Judith	-12.4369
▁fer	-12.4369
▁disc	-12.437
▁supporting	-12.437
▁Sat	-12.4371
▁heartbeat	-12.4378
▁gem	-12.4382
▁Prove	-12.4385
▁sharks	-12.4385
▁Wear	-12.4386
▁humour	-12.4387
▁CA	-12.439
▁housekeeper	-12.4391
stead	-12.4393
▁mechanism	-12.4396
▁bunny	-12.4396
▁Arm	-12.4397
▁reflection	-12.4397
rine	-12.4402
▁grounded	-12.4405
▁essay	-12.4406
▁handing	-12.4406
▁condom	-12.4409
▁obtain	-12.4409
▁awaits	-12.4411
▁Gerard	-12.4413
▁Lucia	-12.4414
▁Chandler	-12.4415
▁Fallon	-12.4416
▁hats	-12.4419
▁Pil	-12.4422
▁Kenneth	-12.4424
▁crucial	-12.4424
▁adoption	-12.4425
▁utter	-12.4427
▁objection	-12.4429
aries	-12.443
stick	-12.4433
▁Dwight	-12.4434
▁ribbon	-12.4434
▁Bombay	-12.4434
▁Male	-12.4434
▁Iot	-12.4434
▁spice	-12.4435
▁Finished	-12.4435
▁neutral	-12.4436
rig	-12.4436
▁hum	-12.4442
▁chapel	-12.4443
▁Ship	-12.4444
▁troll	-12.4444
oy	-12.4445
▁remembering	-12.4445
▁needles	-12.4445
▁AWAY	-12.4446
▁Forever	-12.4447
▁Shelly	-12.4448
link	-12.4449
▁Gideon	-12.4453
▁garlic	-12.4454
▁courtroom	-12.4455
▁Mission	-12.4456
▁drunken	-12.4458
▁entertaining	-12.446
▁ninja	-12.4462
▁Fourth	-12.4464
nti	-12.4466
▁vehicles	-12.4467
▁Spa	-12.4467
▁wrestling	-12.4471
▁housing	-12.4472
▁psychology	-12.4472
▁bets	-12.4472
heads	-12.4474
▁hound	-12.4476
▁Past	-12.4477
MAN	-12.4477
▁bonds	-12.4478
vil	-12.4487
▁Mam	-12.4487
unk	-12.4488
▁pipes	-12.4488
▁Institute	-12.449
▁10-	-12.4495
▁obligation	-12.4495
▁brakes	-12.4495
▁geek	-12.4498
rating	-12.45
▁moustache	-12.45
▁Wei	-12.45
▁kitten	-12.45
▁3,000	-12.4503
ination	-12.4505
▁condo	-12.4506
▁corpses	-12.4507
▁await	-12.451
▁Egyptian	-12.451
SA	-12.4512
▁majority	-12.4513
▁Dani	-12.4513
OO	-12.4514
▁Self	-12.4518
▁Daughter	-12.4519
▁Sabrina	-12.4519
▁salmon	-12.4519
▁ru	-12.4519
▁secured	-12.4522
▁Busy	-12.4524
bridge	-12.4525
▁dash	-12.4527
▁bun	-12.4527
▁murderers	-12.4527
▁indication	-12.4528
arm	-12.4529
▁Julio	-12.4529
▁Destroy	-12.453
▁visions	-12.4534
een	-12.4535
mile	-12.4536
▁discharge	-12.4537
▁Single	-12.4538
▁Pure	-12.4539
▁parish	-12.4539
▁spike	-12.4539
▁broker	-12.4539
▁Jeanne	-12.4543
hard	-12.4545
ked	-12.4547
▁loses	-12.4548
▁hacked	-12.4549
▁Artie	-12.455
lk	-12.4551
▁wretched	-12.4551
▁priests	-12.4552
▁bloom	-12.4552
▁rider	-12.4553
▁Salt	-12.4556
ique	-12.456
bound	-12.4562
▁Oak	-12.4563
▁tremendous	-12.4564
▁troubling	-12.4566
▁implant	-12.457
▁pla	-12.4573
▁Giovanni	-12.4576
▁depressing	-12.4577
▁Fei	-12.4578
▁trusting	-12.4581
table	-12.4582
▁gar	-12.4583
▁Bingo	-12.4584
▁foreigners	-12.4584
▁Watching	-12.4585
▁Wife	-12.4586
▁acquainted	-12.4586
shu	-12.4586
▁Hai	-12.4586
▁wool	-12.4587
▁occasionally	-12.4588
▁Ark	-12.4591
▁freaks	-12.4592
▁Imperial	-12.4595
▁Jenkins	-12.4595
ote	-12.4596
▁visits	-12.4606
▁cor	-12.4608
▁handkerchief	-12.4614
▁flare	-12.4614
▁Missing	-12.4618
rai	-12.4619
▁rib	-12.462
▁loosen	-12.462
▁Kyung	-12.4624
▁weekends	-12.4624
▁cries	-12.4625
▁bathing	-12.4626
▁lifestyle	-12.4628
▁STOP	-12.4629
▁DJ	-12.4629
▁stat	-12.463
▁SE	-12.463
▁Gill	-12.4632
▁courier	-12.4633
▁predator	-12.4633
▁profits	-12.4634
▁summon	-12.4636
yi	-12.4636
▁lasted	-12.4639
▁seduce	-12.4642
▁radius	-12.4643
▁waltz	-12.4643
▁auntie	-12.4643
▁Anytime	-12.4644
▁Ireland	-12.4645
▁veil	-12.4646
▁Sidney	-12.4653
▁nickel	-12.4653
▁tearing	-12.4656
▁forensics	-12.4657
▁volunteers	-12.4663
▁outrageous	-12.4664
lene	-12.4664
▁Walsh	-12.4665
▁shifts	-12.4669
▁pouring	-12.467
▁Bunny	-12.4672
▁Monster	-12.4672
▁frightening	-12.4673
▁installed	-12.4676
▁lent	-12.4677
▁Hyung	-12.4678
▁expectations	-12.4678
Man	-12.468
▁Mid	-12.4681
▁Episode	-12.4681
▁Greece	-12.4681
▁missiles	-12.4682
▁Settle	-12.4683
Ie	-12.4683
▁relay	-12.4683
▁Hon	-12.4683
rat	-12.4683
▁Liang	-12.4684
▁hog	-12.4684
▁Arizona	-12.4691
▁smuggling	-12.4691
▁vegetarian	-12.4691
ucci	-12.4695
▁sells	-12.4696
tsu	-12.4696
▁farther	-12.4696
range	-12.4696
▁Brun	-12.4698
▁Draw	-12.47
▁PHONE	-12.4701
▁snitch	-12.4701
▁Regina	-12.4701
▁Matthews	-12.4701
▁Preston	-12.4702
▁Brady	-12.4705
▁residents	-12.4705
phi	-12.4707
▁scholar	-12.471
▁CCTV	-12.471
▁contracts	-12.471
mic	-12.4712
▁vibe	-12.4714
gawa	-12.4714
▁Luca	-12.4716
ndo	-12.4716
▁Bow	-12.4716
iang	-12.4717
▁fiance	-12.4718
▁sabotage	-12.4719
▁Starfleet	-12.472
▁Sensei	-12.472
▁DS	-12.4723
▁LI	-12.4723
▁dispatch	-12.4724
▁crop	-12.4724
▁Sai	-12.4729
▁Pour	-12.473
▁discharged	-12.4731
▁teen	-12.4735
uz	-12.4738
▁mainly	-12.4738
▁corruption	-12.474
▁developing	-12.4743
▁Franco	-12.4744
▁disk	-12.4745
▁accepting	-12.4746
▁jelly	-12.4749
▁corporation	-12.4749
▁loft	-12.4749
▁contained	-12.475
▁disturbance	-12.475
HA	-12.475
NY	-12.4753
ras	-12.4756
▁tractor	-12.4759
▁graveyard	-12.4759
▁terrifying	-12.4759
▁ser	-12.4766
▁Sooner	-12.4768
▁Splendid	-12.4768
▁vengeance	-12.4768
▁Edith	-12.4769
▁shocking	-12.4769
▁Along	-12.477
▁Mak	-12.4772
▁Sca	-12.4772
▁Lei	-12.4775
mas	-12.4776
▁compassion	-12.4778
▁nude	-12.4779
▁Forest	-12.4781
▁import	-12.4782
▁THANKS	-12.4782
▁exploded	-12.4786
▁Ble	-12.4788
▁desperately	-12.479
lton	-12.4791
▁programmed	-12.4792
▁HI	-12.4795
▁costumes	-12.4798
▁Hate	-12.4801
wind	-12.4802
▁LIFE	-12.4807
▁compensation	-12.4807
▁Bomb	-12.481
▁Pain	-12.481
▁merit	-12.4817
▁triumph	-12.4817
▁stitches	-12.4818
▁Hayes	-12.4819
ony	-12.4823
▁drift	-12.4824
▁masks	-12.4825
▁merchandise	-12.4827
▁academic	-12.4827
▁popcorn	-12.4827
▁rookie	-12.4828
▁vo	-12.4829
▁pasta	-12.483
▁Danielle	-12.4833
▁regularly	-12.4834
▁strangle	-12.4836
▁Meredith	-12.4837
▁Murdoch	-12.4837
▁climbed	-12.4837
nim	-12.4837
▁Javier	-12.4838
▁fails	-12.484
▁loading	-12.4841
▁Burton	-12.4842
▁Kung	-12.4842
▁slot	-12.4842
▁guaranteed	-12.4845
AD	-12.4846
▁Trans	-12.4847
▁addresses	-12.4847
▁Yuki	-12.4847
▁Gy	-12.4848
atory	-12.4848
▁Rogers	-12.4851
▁pier	-12.4852
▁invent	-12.4854
▁swine	-12.4856
▁lace	-12.4858
▁murdering	-12.4859
▁decade	-12.4861
defense	-12.4863
▁acceptable	-12.4864
▁expand	-12.4866
▁kitty	-12.4866
▁Cast	-12.4866
▁Nazis	-12.4867
▁Charley	-12.4867
▁Bree	-12.487
▁bedtime	-12.487
rgen	-12.4871
check	-12.4872
tron	-12.4873
LES	-12.4874
▁orchestra	-12.4876
▁assumption	-12.4876
▁baggage	-12.4876
▁Turk	-12.4879
body	-12.4879
▁verify	-12.4881
igan	-12.4881
▁weirdo	-12.4881
▁werewolf	-12.4881
▁250	-12.4882
▁scars	-12.4884
▁fastest	-12.4886
▁Victim	-12.4886
▁KIND	-12.4886
▁extension	-12.4886
▁tele	-12.4888
▁heroic	-12.4888
▁lightly	-12.4892
▁invested	-12.4893
ame	-12.4893
▁Bush	-12.4893
▁Abe	-12.4893
▁definition	-12.4896
▁lizard	-12.4896
▁pony	-12.4896
▁scored	-12.4897
▁Por	-12.4898
▁cons	-12.4905
▁Rusty	-12.4907
▁Chung	-12.4909
▁Fen	-12.4911
▁Dominic	-12.4912
log	-12.4915
▁Philadelphia	-12.4915
▁Maddie	-12.4916
▁drugged	-12.4916
▁Dante	-12.4917
▁risked	-12.4917
▁diving	-12.4918
▁meaningless	-12.4919
▁Bates	-12.492
▁pissing	-12.492
▁fax	-12.4922
▁Saul	-12.4922
▁rendezvous	-12.4925
1.	-12.4925
level	-12.4926
▁bluff	-12.4929
.30	-12.493
▁emotionally	-12.4935
▁Charge	-12.4935
▁cautious	-12.4935
▁Cyrus	-12.4935
▁Sc	-12.4939
▁airline	-12.494
▁inherited	-12.4941
▁Years	-12.4941
▁dammit	-12.4945
▁dared	-12.4945
▁keeper	-12.4945
▁selection	-12.4946
▁Enter	-12.4947
▁amazed	-12.4948
▁mild	-12.4949
▁MP	-12.4954
▁Beg	-12.4954
▁cripple	-12.4955
▁glance	-12.4955
▁Turtle	-12.4955
▁Hills	-12.4955
▁mushrooms	-12.4957
▁hardware	-12.4957
bur	-12.4958
▁elite	-12.4965
▁plumber	-12.4966
▁Costa	-12.4971
▁Dumb	-12.4975
▁impatient	-12.4975
▁involvement	-12.4975
▁Aunty	-12.4978
▁sadness	-12.4981
▁earrings	-12.4982
▁spaghetti	-12.4985
▁defensive	-12.4985
▁volunteered	-12.4985
▁ze	-12.4987
▁Ciao	-12.4988
▁tuck	-12.4994
▁deceive	-12.4995
▁resemble	-12.4995
ete	-12.4996
▁outstanding	-12.4996
▁Baltimore	-12.5005
▁primitive	-12.5005
▁yield	-12.5005
zaki	-12.501
▁GUY	-12.5012
▁reaches	-12.5012
shed	-12.5012
▁Ronald	-12.5013
▁essence	-12.5014
▁sunny	-12.5017
▁vow	-12.5018
▁Gave	-12.5019
▁robbers	-12.5024
▁Suzanne	-12.5025
▁Delicious	-12.5025
▁Nature	-12.5025
▁snacks	-12.5028
soo	-12.5028
▁bitten	-12.5029
▁bur	-12.5029
▁Jorge	-12.5029
▁creeps	-12.5029
▁Body	-12.503
▁kilos	-12.5031
▁Fifth	-12.5034
▁vulgar	-12.5034
▁demonstrate	-12.5034
▁hamburger	-12.5034
▁legacy	-12.5035
▁Pilot	-12.5035
▁Staff	-12.5036
▁Normal	-12.5038
▁deeds	-12.5038
▁Brooks	-12.504
▁authorized	-12.5042
▁matching	-12.5044
▁dispute	-12.5044
▁chatting	-12.5047
▁Mah	-12.5047
eu	-12.505
▁extract	-12.5053
▁Terrific	-12.5054
▁Abraham	-12.5054
▁Bridget	-12.5057
▁instantly	-12.5059
▁thirst	-12.506
▁Race	-12.5063
▁ammo	-12.5063
aging	-12.5064
▁AROUND	-12.5064
▁recorder	-12.5065
evich	-12.5065
▁magnetic	-12.5067
▁bob	-12.5071
▁vase	-12.5074
▁Klingon	-12.5074
▁postpone	-12.5075
▁Monkey	-12.5075
▁banquet	-12.5075
▁Personal	-12.5081
hei	-12.5082
▁allows	-12.5083
▁slapped	-12.5085
▁championship	-12.5085
▁moonlight	-12.5085
▁cuff	-12.5086
▁ironic	-12.5088
▁Auto	-12.5088
▁betrayal	-12.5088
IA	-12.509
▁Hae	-12.5091
▁pm	-12.5094
▁suggestions	-12.5094
▁blossom	-12.5094
ough	-12.5095
hl	-12.5096
lift	-12.5097
▁wheat	-12.5098
mma	-12.5099
▁loot	-12.51
bou	-12.5101
pple	-12.5103
▁disabled	-12.5104
▁briefing	-12.5104
▁EM	-12.5105
▁bundle	-12.5105
▁detector	-12.5106
▁talents	-12.5106
▁Ding	-12.5107
▁prayed	-12.5109
▁unlock	-12.5111
▁definite	-12.5112
▁Fur	-12.5112
▁activated	-12.5113
▁Cheng	-12.5114
▁scotch	-12.5114
▁irresponsible	-12.5115
▁banned	-12.5115
eat	-12.5117
▁Kur	-12.5118
▁underwater	-12.5118
▁numb	-12.512
pal	-12.512
hor	-12.5121
▁max	-12.5121
▁Horn	-12.5123
▁zip	-12.5124
▁McCoy	-12.5125
▁historical	-12.5127
lip	-12.5128
▁donation	-12.5129
▁exotic	-12.5135
▁louder	-12.5136
▁Fernando	-12.5136
ime	-12.5138
▁nursery	-12.5138
▁marker	-12.5138
▁insight	-12.5139
DY	-12.5141
▁Billie	-12.5142
▁cups	-12.5144
▁destined	-12.5145
▁vaccine	-12.5145
▁navy	-12.5145
▁Colby	-12.5145
▁united	-12.5146
▁Box	-12.5147
lik	-12.5147
▁beds	-12.5149
aga	-12.5149
▁Elsa	-12.515
▁Hiro	-12.5153
▁Goddess	-12.5155
stand	-12.5156
▁Jude	-12.5156
▁dental	-12.5158
▁dismiss	-12.5159
▁Lynn	-12.5159
▁dudes	-12.5159
ement	-12.516
▁scores	-12.516
TA	-12.5162
▁annoyed	-12.5162
gil	-12.5162
▁IV	-12.5163
▁humiliating	-12.5165
▁metaphor	-12.5165
EE	-12.5165
▁crappy	-12.5166
▁Cher	-12.5167
hol	-12.5174
▁Calling	-12.5175
▁initiative	-12.5175
▁Voice	-12.5175
▁sensation	-12.5177
par	-12.5179
▁Nearly	-12.5179
▁concerning	-12.5179
▁mechanical	-12.5179
ean	-12.518
▁Bed	-12.518
▁Lil	-12.518
▁Gross	-12.5181
▁restless	-12.5184
▁bankrupt	-12.5185
▁Jeannie	-12.5186
▁battlefield	-12.5187
▁Scully	-12.5195
▁overboard	-12.5197
▁bunker	-12.5198
▁hometown	-12.5199
▁55	-12.5201
pack	-12.5202
▁contents	-12.5205
▁cellphone	-12.5206
▁Temp	-12.521
aku	-12.521
hel	-12.5212
▁Horatio	-12.5216
▁MacLeod	-12.5216
▁rhyme	-12.5216
▁gorilla	-12.5216
▁pine	-12.5216
▁Considering	-12.5218
▁Sheldon	-12.5219
▁teasing	-12.5219
gas	-12.5221
▁SC	-12.5223
▁practise	-12.5226
▁heap	-12.5227
▁relate	-12.5228
▁intercept	-12.5228
▁onions	-12.5234
▁authentic	-12.5235
▁Affairs	-12.5236
▁Works	-12.5237
▁produced	-12.5239
▁Cape	-12.524
ash	-12.5241
▁decades	-12.5242
rb	-12.5243
▁irrelevant	-12.5246
▁Banks	-12.5246
▁Dixon	-12.5247
Brien	-12.5247
▁immune	-12.5247
osh	-12.5248
▁indulge	-12.525
cca	-12.5251
rich	-12.5253
▁THEIR	-12.5257
▁Sur	-12.5257
▁Jeong	-12.5257
▁Vega	-12.5258
▁Gran	-12.5261
▁conceal	-12.5261
▁Clarke	-12.5263
▁ignoring	-12.5267
▁Blo	-12.5268
▁Thus	-12.5269
▁recognition	-12.5269
▁Abu	-12.527
Co	-12.5272
Neill	-12.5272
inch	-12.5272
▁convey	-12.5277
▁Beatrice	-12.5277
▁Hale	-12.5279
▁Vicki	-12.5279
fl	-12.5282
cord	-12.5283
▁serves	-12.5287
▁Pel	-12.5287
▁dialogue	-12.5287
▁Briggs	-12.5287
NT	-12.5288
▁Buffy	-12.529
▁drivers	-12.529
▁Laurie	-12.5292
mel	-12.5292
▁Gong	-12.5293
▁allowing	-12.5293
▁AD	-12.5294
▁foreigner	-12.5296
▁surrounding	-12.5297
▁sock	-12.5298
▁eliminated	-12.5299
▁Barbie	-12.5299
mine	-12.5302
OL	-12.5304
▁ruthless	-12.5308
▁unemployed	-12.5308
▁curry	-12.5309
▁wit	-12.5311
▁claiming	-12.5312
▁sal	-12.5313
▁Express	-12.5315
▁mike	-12.5317
▁bishop	-12.5318
▁flick	-12.5318
▁TOLD	-12.5318
▁insulting	-12.5319
▁cozy	-12.532
▁favors	-12.532
▁Joanna	-12.532
▁sew	-12.5324
▁stud	-12.5325
▁Spread	-12.5328
▁Kaz	-12.5329
▁Reagan	-12.5329
▁120	-12.5332
▁resolved	-12.5333
▁difficulties	-12.5335
▁pra	-12.5335
▁Civil	-12.5337
▁sloppy	-12.5339
▁Prof	-12.534
▁Cell	-12.5341
▁attach	-12.5342
▁Jr	-12.5345
▁brace	-12.5347
▁torment	-12.5348
▁escaping	-12.5349
▁mutant	-12.5349
▁Eugene	-12.5349
watch	-12.5351
▁hysterical	-12.5353
▁Kinda	-12.5354
▁variety	-12.5359
▁Cardinal	-12.5359
▁Thunder	-12.5359
▁rein	-12.5361
▁Ernest	-12.5363
▁har	-12.5365
▁guinea	-12.5369
▁Ingrid	-12.5369
▁consultant	-12.537
▁Cle	-12.5372
▁minus	-12.5375
rv	-12.5376
▁kicks	-12.5377
▁Grim	-12.5379
▁treats	-12.5379
▁Assistant	-12.538
▁Thailand	-12.538
▁Philippe	-12.538
▁critic	-12.5381
▁Ton	-12.5382
▁Mercy	-12.5383
phe	-12.5384
▁Ying	-12.5385
▁vanish	-12.5389
▁Bright	-12.539
▁Clayton	-12.5391
▁tossed	-12.5395
▁Lars	-12.5396
▁paths	-12.5397
▁diplomatic	-12.5398
▁TH	-12.5399
▁Week	-12.5399
▁Wesley	-12.54
▁happiest	-12.54
▁NAME	-12.5401
stop	-12.5405
▁Hari	-12.5406
Ha	-12.5407
▁Clan	-12.541
▁Jonah	-12.5411
▁drawings	-12.5412
sty	-12.5412
▁caller	-12.5412
▁Frederick	-12.5413
▁Laurel	-12.5413
ites	-12.5418
▁videos	-12.5421
▁includes	-12.5421
▁flashlight	-12.5422
▁officials	-12.5422
▁bash	-12.5423
ckle	-12.5426
▁cultural	-12.5428
anne	-12.5431
▁Alberto	-12.5431
▁Gemma	-12.5432
▁flour	-12.5432
▁sync	-12.5432
▁grocery	-12.5433
▁rabbits	-12.5435
▁Trish	-12.5436
OU	-12.5437
▁PO	-12.5438
▁taller	-12.5439
▁industrial	-12.5441
▁LO	-12.5441
▁Beast	-12.5448
▁Detroit	-12.5452
▁Vlad	-12.5455
▁195	-12.5456
▁Cul	-12.546
▁Cons	-12.5461
▁snuck	-12.5463
▁parrot	-12.5463
▁turf	-12.5463
▁refusing	-12.5463
▁Priya	-12.5465
▁Lung	-12.5468
▁floors	-12.5469
▁texted	-12.5469
three	-12.5471
▁bind	-12.5473
▁Student	-12.5473
▁lookout	-12.5473
▁lemonade	-12.5473
▁Karan	-12.5474
▁Slo	-12.5476
place	-12.5477
take	-12.5478
▁bandage	-12.5479
▁cunning	-12.5484
▁poverty	-12.5484
▁lions	-12.5484
▁infant	-12.5484
elling	-12.5485
▁committing	-12.5486
▁Robot	-12.5487
▁psych	-12.5488
▁detected	-12.5491
▁discretion	-12.5494
▁Paradise	-12.5494
▁constable	-12.5494
▁channels	-12.5494
▁Sultan	-12.5495
▁frustrated	-12.5495
▁define	-12.5495
▁Nut	-12.5504
▁chauffeur	-12.5505
▁stunning	-12.5505
▁Yama	-12.5506
eri	-12.5507
▁yelled	-12.551
▁dozens	-12.5515
▁apprentice	-12.5515
▁figuring	-12.5515
▁diversion	-12.5515
▁projects	-12.5516
NO	-12.5517
ABLE	-12.5518
poli	-12.5522
▁ants	-12.5523
put	-12.5523
▁Magnus	-12.5526
▁Pepper	-12.5526
▁mice	-12.5529
kha	-12.5533
▁cheers	-12.5533
▁sought	-12.5534
▁LOT	-12.5536
▁qualities	-12.5536
▁Piece	-12.5536
▁properties	-12.5537
▁babysitter	-12.5537
▁yoga	-12.5537
▁Lorenzo	-12.5538
▁tomatoes	-12.5538
▁Keeping	-12.5538
▁Kil	-12.554
▁Tur	-12.5542
▁Drugs	-12.5543
▁peep	-12.5546
▁losses	-12.5546
▁orgasm	-12.5547
▁accusations	-12.5547
▁Cory	-12.5548
-5	-12.5549
▁injustice	-12.5549
cross	-12.555
▁Due	-12.5552
lum	-12.5555
▁sentenced	-12.5556
▁fri	-12.5557
▁Broadway	-12.5557
▁Hogan	-12.5559
▁Action	-12.5559
ggie	-12.5563
ect	-12.5567
▁Moses	-12.5568
▁bugging	-12.5568
rier	-12.5569
▁Hughes	-12.5569
▁condemned	-12.5572
pul	-12.5574
▁Math	-12.5575
ako	-12.558
▁token	-12.5584
▁Anders	-12.5587
▁Military	-12.5589
▁NICE	-12.5589
▁Mart	-12.559
▁lined	-12.5594
▁Spend	-12.5597
▁12-	-12.5599
▁admiral	-12.5599
▁SHOW	-12.56
▁Bir	-12.56
▁Juliette	-12.5601
six	-12.5601
▁elderly	-12.5604
▁regain	-12.5604
lian	-12.5608
▁psychiatric	-12.561
▁Pamela	-12.561
▁Season	-12.5612
▁Bah	-12.5612
▁mrs	-12.5619
▁napkin	-12.5623
▁extent	-12.5625
via	-12.5625
▁crooked	-12.5627
▁demo	-12.563
▁Crawford	-12.5631
▁martyr	-12.5631
mails	-12.5636
▁pun	-12.564
▁Chocolate	-12.5642
▁Gibson	-12.5642
▁Typical	-12.5642
▁cafeteria	-12.5642
▁Vijay	-12.5642
▁echo	-12.5642
▁allowance	-12.5644
▁Centre	-12.5645
lim	-12.5645
▁Tour	-12.5646
BS	-12.5647
▁Block	-12.5647
▁cracking	-12.5649
▁payments	-12.5649
ifying	-12.565
cup	-12.5652
▁malfunction	-12.5652
▁mentor	-12.5655
mper	-12.5655
▁Oui	-12.5659
▁sayin	-12.5659
▁prophet	-12.5663
▁skipped	-12.5663
▁filing	-12.5664
▁bureau	-12.5664
kill	-12.5668
▁delight	-12.5672
▁ALWAYS	-12.5673
▁carnival	-12.5673
▁Cheryl	-12.5674
▁Powell	-12.5674
▁curl	-12.5675
▁shred	-12.5677
▁untie	-12.5678
▁Wine	-12.5678
▁detailed	-12.568
▁flown	-12.5681
▁GOD	-12.5682
▁Cigarette	-12.5684
ink	-12.5684
▁DOESN	-12.5685
▁requests	-12.5688
known	-12.5689
▁mourning	-12.569
▁Standing	-12.5691
▁Ak	-12.5692
▁blackout	-12.5693
nel	-12.5694
▁System	-12.5695
▁gasoline	-12.5695
▁solicitor	-12.5695
▁spicy	-12.5696
▁Ramon	-12.5696
▁Ginger	-12.5696
▁races	-12.5696
▁tuna	-12.57
▁Mini	-12.5704
▁interior	-12.5705
▁43	-12.5706
▁Local	-12.5706
▁Theresa	-12.5706
gram	-12.5708
band	-12.5709
▁Clive	-12.571
▁medic	-12.5711
▁erased	-12.5711
ici	-12.5713
▁abnormal	-12.5716
▁felony	-12.5719
▁Fuji	-12.5724
▁Brock	-12.5729
▁hm	-12.5735
▁Brent	-12.5736
▁Cost	-12.5737
▁fr	-12.5737
▁BELIEVE	-12.5738
▁facilities	-12.5738
▁ISN	-12.574
▁Oo	-12.574
▁divided	-12.5741
▁Heidi	-12.5744
▁sc	-12.5746
eta	-12.5747
▁belongings	-12.5748
▁Mills	-12.5748
▁Bottom	-12.5748
▁Nell	-12.5749
▁artery	-12.5749
nut	-12.575
▁rapist	-12.5751
▁Kee	-12.5754
▁sewing	-12.5755
▁Jared	-12.5757
Jo	-12.5759
▁manifest	-12.5766
▁coup	-12.5767
RT	-12.5767
▁repeating	-12.577
NI	-12.5772
▁Glo	-12.5774
aged	-12.5776
▁blessings	-12.5777
AY	-12.5778
▁sakes	-12.5779
▁shepherd	-12.5781
▁ri	-12.5781
▁drums	-12.5785
▁Film	-12.5789
bil	-12.5789
sized	-12.579
▁splash	-12.5791
aria	-12.5791
▁disappears	-12.5793
▁pilots	-12.5797
▁repaired	-12.5798
▁survivor	-12.5798
▁perp	-12.58
▁whispering	-12.58
▁preliminary	-12.5802
▁funding	-12.5803
▁intruder	-12.5807
▁sensor	-12.5809
▁Hassan	-12.5813
▁western	-12.5813
▁Courtney	-12.5813
▁behaved	-12.5815
▁biscuits	-12.5815
▁Fuckin	-12.5816
▁repairs	-12.5816
▁allies	-12.5817
▁Nag	-12.5817
▁gladly	-12.582
▁vagina	-12.5821
▁Steed	-12.5823
▁hairy	-12.5823
▁Patience	-12.5824
▁Poison	-12.5824
nger	-12.5824
▁shortcut	-12.5825
▁texts	-12.5826
▁Wanda	-12.5826
▁differences	-12.5826
▁id	-12.5828
thy	-12.5828
cci	-12.5831
▁Farm	-12.5832
▁PC	-12.5834
▁Frasier	-12.5834
▁protein	-12.5834
▁terrace	-12.5835
▁Julius	-12.5835
▁whipped	-12.5835
▁documentary	-12.5835
▁activate	-12.5836
▁achievement	-12.5837
▁devices	-12.5837
under	-12.5839
▁Titan	-12.584
sure	-12.5842
▁overheard	-12.5843
▁pr	-12.5843
▁sites	-12.5844
▁Museum	-12.5845
▁interfering	-12.5845
▁matched	-12.5847
▁slower	-12.585
▁chemicals	-12.5855
▁Mean	-12.5855
uc	-12.5856
▁expertise	-12.5858
▁Mol	-12.5858
▁ropes	-12.5859
▁swan	-12.586
▁Chow	-12.5866
▁MISS	-12.5868
▁shook	-12.5869
▁Ner	-12.5869
▁gifted	-12.5871
▁Aww	-12.5873
▁mm	-12.5874
▁Lamb	-12.5875
▁gambler	-12.5877
▁Maureen	-12.5878
▁Senate	-12.5878
▁mute	-12.5879
▁Luck	-12.588
▁urgently	-12.5882
▁stalker	-12.5883
▁trips	-12.5886
▁FEEL	-12.5888
▁wink	-12.5889
▁toothbrush	-12.5889
▁Truly	-12.5893
▁Spin	-12.5897
▁sunrise	-12.59
▁Camera	-12.5903
▁WON	-12.5903
▁rusty	-12.5904
▁Der	-12.5905
▁Treat	-12.5909
14	-12.591
▁supplier	-12.591
▁Beckett	-12.5911
▁ducks	-12.5911
▁noises	-12.5913
▁Sonic	-12.5917
▁Gotcha	-12.5917
▁settling	-12.5922
▁Kirby	-12.5922
▁Orange	-12.5923
▁teaches	-12.5924
▁bandit	-12.5924
▁peach	-12.5927
PER	-12.5933
▁Cora	-12.5933
nni	-12.5937
▁Pretend	-12.5937
▁shallow	-12.5938
▁planets	-12.594
▁Bowl	-12.5941
▁Oil	-12.5942
▁Supreme	-12.5943
▁torturing	-12.5943
▁Steady	-12.5943
▁deceived	-12.5943
▁aisle	-12.5944
▁Dec	-12.5945
▁views	-12.5945
▁reactor	-12.5945
▁Cookie	-12.5949
▁Strip	-12.5949
▁Nevertheless	-12.5954
▁monastery	-12.5954
▁groceries	-12.5954
▁Accept	-12.5955
dong	-12.5956
sted	-12.5959
▁Gabe	-12.5959
▁Bha	-12.596
▁bypass	-12.596
▁SHA	-12.596
rise	-12.5961
▁slim	-12.5961
▁peacefully	-12.5962
45	-12.5963
▁tactics	-12.5964
ain	-12.5965
▁download	-12.5965
▁Cheese	-12.5967
▁Ranger	-12.5968
▁robber	-12.5968
▁amigo	-12.5972
▁Carr	-12.5972
▁backing	-12.5972
▁warming	-12.5972
nate	-12.5972
rap	-12.5974
▁hassle	-12.5974
▁wage	-12.5976
▁convenience	-12.5976
▁province	-12.5976
▁Pizza	-12.5976
▁Meyer	-12.5978
▁Bil	-12.5981
▁idle	-12.5984
▁quarantine	-12.5987
▁spectacular	-12.5987
oko	-12.5988
▁employed	-12.5989
▁Jock	-12.5989
proof	-12.5996
▁Fry	-12.5997
▁ash	-12.5997
▁Luthor	-12.5998
▁pharmacy	-12.5998
▁harassment	-12.5998
▁masterpiece	-12.5999
▁flea	-12.5999
▁complained	-12.6
▁situations	-12.6001
▁pops	-12.6002
emon	-12.6003
▁Lara	-12.6003
▁Chick	-12.6003
▁VIP	-12.6007
▁volcano	-12.6008
▁opinions	-12.6009
▁UFO	-12.6009
▁broom	-12.601
ient	-12.6011
far	-12.6012
arian	-12.6014
▁Sei	-12.6015
▁Parents	-12.602
▁Tarzan	-12.602
▁spells	-12.602
wer	-12.6021
▁Thi	-12.6021
▁HELLO	-12.6023
▁depending	-12.6023
▁purely	-12.6023
▁Inn	-12.6023
▁greatly	-12.6028
uro	-12.6028
▁Johan	-12.6029
▁classy	-12.603
▁managing	-12.6031
▁heel	-12.6031
▁Schmidt	-12.6031
▁cub	-12.6032
▁Kingdom	-12.6032
▁Rule	-12.6032
▁Harley	-12.6032
▁Figured	-12.6036
DE	-12.6037
alo	-12.6039
AKE	-12.6041
▁backed	-12.6042
▁Peyton	-12.6042
▁shaving	-12.6042
▁abduction	-12.6043
▁transportation	-12.6043
▁Zhang	-12.6045
▁Hel	-12.6045
▁artistic	-12.6047
▁sticky	-12.6049
▁understandable	-12.6052
▁kings	-12.6053
▁shutting	-12.6053
▁concussion	-12.6053
▁slam	-12.6055
▁Louie	-12.6056
▁Protect	-12.6056
▁THINGS	-12.6058
▁martini	-12.606
▁ruler	-12.6062
zza	-12.6064
▁Machine	-12.6065
▁Chet	-12.6067
▁Shiva	-12.6067
▁instructed	-12.6068
▁thinkin	-12.6069
▁sane	-12.6069
▁bees	-12.607
▁permanently	-12.6071
TO	-12.6073
▁adding	-12.6073
▁temporarily	-12.6075
▁weep	-12.6083
▁limb	-12.6084
▁Matty	-12.6086
▁manuscript	-12.6086
▁whining	-12.6086
▁Paladin	-12.6087
▁inspire	-12.6089
shire	-12.609
▁Flowers	-12.6091
▁missus	-12.6091
▁tyre	-12.6091
faced	-12.6092
usa	-12.6094
▁brew	-12.6095
▁gaze	-12.6096
▁chewing	-12.6097
▁parasite	-12.6097
▁Everywhere	-12.6098
▁Forward	-12.6098
acle	-12.6099
▁Olga	-12.6099
▁peasant	-12.6101
CK	-12.6108
▁Lacey	-12.6109
▁sentiment	-12.6109
▁Vel	-12.6109
▁footprints	-12.6111
▁disappearing	-12.6118
▁Tomas	-12.6118
▁Whole	-12.6118
▁involving	-12.612
▁MIGHT	-12.612
▁LE	-12.6121
▁Kha	-12.6124
▁attended	-12.6124
TE	-12.6125
▁freed	-12.6126
▁Bab	-12.6129
▁parlor	-12.6131
▁casing	-12.6131
cla	-12.6132
▁mineral	-12.6133
▁lining	-12.6134
▁Daily	-12.6135
▁precaution	-12.6135
▁applause	-12.6142
▁Delta	-12.6142
▁Edmund	-12.6142
▁ginger	-12.6143
lder	-12.6143
▁seminar	-12.6149
▁Amar	-12.6151
▁Lisbon	-12.6153
▁streak	-12.6153
▁cla	-12.6155
▁Donnie	-12.6155
▁Table	-12.6158
▁Waiter	-12.616
▁cartel	-12.6162
ili	-12.6164
▁Positive	-12.6164
▁AIDS	-12.6164
▁sermon	-12.6165
▁Rough	-12.6165
▁investigated	-12.6166
▁Lordship	-12.6168
▁Ping	-12.6168
▁shells	-12.6169
▁Few	-12.6172
▁Madeline	-12.6176
▁provoke	-12.6178
▁wrecked	-12.6179
▁lsn	-12.618
▁damp	-12.6182
▁Eminence	-12.6187
▁donate	-12.6187
▁STAY	-12.6187
▁Naples	-12.6187
▁void	-12.6188
▁jewellery	-12.6188
yl	-12.6188
dder	-12.6188
▁flock	-12.6189
▁Pauline	-12.6192
found	-12.6193
eva	-12.6193
▁greed	-12.6194
▁drone	-12.6194
PE	-12.6196
▁equation	-12.6198
▁maneuver	-12.6198
▁Fighting	-12.6199
▁Marian	-12.6202
▁techniques	-12.6204
▁Dra	-12.6204
▁ti	-12.6208
▁Appreciate	-12.6209
▁cereal	-12.6209
▁YEARS	-12.6211
▁payroll	-12.6211
▁posters	-12.6211
▁tackle	-12.6212
▁seize	-12.6213
▁reel	-12.6216
▁nu	-12.6219
pher	-12.6219
▁marijuana	-12.622
▁unarmed	-12.6221
IM	-12.6221
▁exaggerate	-12.6223
ital	-12.6223
▁Zone	-12.6226
▁peel	-12.6227
▁Euro	-12.6227
▁sweaty	-12.6229
IVE	-12.623
▁Rabbit	-12.623
▁barracks	-12.6232
▁fiancee	-12.6232
▁Suicide	-12.6232
▁Warden	-12.6235
▁crank	-12.6235
▁surf	-12.6236
▁Dolly	-12.6237
▁shaved	-12.6238
▁reminder	-12.6238
dio	-12.6243
▁Berg	-12.6243
▁cement	-12.6244
▁Meeting	-12.6247
▁fade	-12.6247
▁Gates	-12.6249
▁Bloom	-12.625
▁Extra	-12.625
▁raft	-12.625
▁tha	-12.625
▁bluffing	-12.625
▁laughs	-12.6251
▁km	-12.6251
▁Pit	-12.6251
▁Dex	-12.6252
▁exploit	-12.6252
▁flatter	-12.6254
▁fundamental	-12.6254
▁assessment	-12.6255
▁grad	-12.6255
▁followers	-12.6256
hat	-12.6256
▁etc	-12.6258
▁grenade	-12.6262
▁avoided	-12.6262
ANG	-12.6264
shaw	-12.6264
hhh	-12.6264
▁sar	-12.6265
▁sedative	-12.6265
▁microphone	-12.6265
▁Broken	-12.6267
▁transform	-12.627
▁rebuild	-12.627
▁guarding	-12.6272
force	-12.6274
▁Amsterdam	-12.6277
▁assembly	-12.6277
▁cabbage	-12.6277
▁bathtub	-12.6277
▁Rahul	-12.6277
▁Tong	-12.6277
▁Cord	-12.6278
▁Barrett	-12.628
▁disrupt	-12.6282
▁pas	-12.6284
app	-12.6285
▁Tristan	-12.6288
▁fbi	-12.629
▁inject	-12.629
▁Shark	-12.629
▁shattered	-12.6291
▁Falcon	-12.6291
▁Lilly	-12.6292
▁stem	-12.6293
taro	-12.6294
chin	-12.6296
▁Lam	-12.6296
▁fingerprint	-12.6297
▁Jerusalem	-12.6299
▁unbearable	-12.6299
▁capsule	-12.6299
▁tro	-12.6302
▁crashing	-12.6306
▁involves	-12.6309
▁Emil	-12.631
▁beasts	-12.631
mba	-12.631
▁proving	-12.6311
shin	-12.6313
▁girlfriends	-12.6315
▁Gail	-12.6316
▁Twin	-12.6317
▁Else	-12.6317
Hara	-12.6318
▁Sab	-12.632
▁condoms	-12.632
▁scr	-12.632
miss	-12.6321
▁Penelope	-12.6322
▁panicked	-12.6322
▁snapped	-12.6322
▁cheeks	-12.6322
▁attendant	-12.6323
▁compass	-12.6323
▁traps	-12.6323
▁gutter	-12.6325
▁filth	-12.6329
▁Slim	-12.633
▁Mala	-12.633
▁Cuban	-12.6333
▁Husband	-12.6333
▁supernatural	-12.6333
▁Woods	-12.6336
▁Az	-12.6336
ught	-12.6339
▁ache	-12.634
got	-12.634
here	-12.6342
bre	-12.6342
▁boiling	-12.6344
▁tougher	-12.6344
▁EVERYTHING	-12.6345
▁magistrate	-12.6345
▁HQ	-12.6346
▁Cherry	-12.6346
there	-12.6346
▁runaway	-12.635
▁candidates	-12.635
▁Ally	-12.6355
▁Apollo	-12.6356
▁Ocean	-12.6356
▁fisherman	-12.6357
▁Crap	-12.6357
rup	-12.6358
▁Clare	-12.6358
▁rust	-12.636
▁independence	-12.6364
eli	-12.6365
▁ticking	-12.6365
▁Nothin	-12.637
▁yank	-12.637
▁sincerely	-12.6372
rist	-12.6375
▁hunted	-12.6376
▁Kei	-12.6377
▁curfew	-12.6379
▁buffalo	-12.6379
▁limp	-12.6387
▁suspicions	-12.6388
▁Cer	-12.6388
hir	-12.6389
did	-12.6389
▁Jerome	-12.6391
▁Whew	-12.6391
▁unsub	-12.6391
ware	-12.6392
▁Edwards	-12.6393
That	-12.6395
rain	-12.64
▁horizon	-12.64
▁thesis	-12.6402
icle	-12.6404
▁poll	-12.6406
▁Arch	-12.6407
▁logs	-12.6408
▁Laugh	-12.6409
▁driveway	-12.641
▁wager	-12.6413
▁Nas	-12.6414
ssy	-12.6415
▁Sharp	-12.6415
10	-12.6416
▁speeding	-12.6416
▁Hurt	-12.6417
▁ox	-12.6418
mir	-12.6419
▁Pakistan	-12.6419
▁greetings	-12.642
sun	-12.6422
▁ashore	-12.6424
▁Timmy	-12.6426
▁barber	-12.6432
TON	-12.6434
▁passports	-12.6435
▁dolphin	-12.6436
▁grandchildren	-12.6436
▁Corn	-12.6438
dollar	-12.6438
▁Ag	-12.644
▁chatter	-12.6442
▁Hallo	-12.6442
▁Matsu	-12.6443
▁reinforcements	-12.6443
▁Sitting	-12.6445
▁elders	-12.6449
▁Ignore	-12.6449
rif	-12.6449
▁Adi	-12.6449
▁Ohio	-12.645
▁laughter	-12.6453
▁upsetting	-12.6456
▁Total	-12.6457
▁eighth	-12.6458
30	-12.6458
▁grandparents	-12.6459
▁Lawyer	-12.6459
▁Comm	-12.646
▁Yankee	-12.646
▁texting	-12.6461
▁Romans	-12.6463
▁vague	-12.6468
▁hostess	-12.6472
▁Pine	-12.6472
▁hangover	-12.6473
bee	-12.6474
▁purchased	-12.6474
▁audio	-12.6474
▁calculations	-12.6475
▁ram	-12.6477
▁Trade	-12.6478
▁metres	-12.6478
▁fright	-12.6479
▁thugs	-12.6479
▁unto	-12.6481
▁arguments	-12.6482
▁cavalry	-12.6482
craft	-12.6483
▁Cleo	-12.6484
part	-12.6484
▁pearl	-12.6485
▁simpler	-12.6486
But	-12.6486
▁Bald	-12.6488
lessly	-12.6489
▁layer	-12.6491
▁Australian	-12.6491
▁jewel	-12.6491
turn	-12.6493
▁Unh	-12.6493
▁salute	-12.6494
▁olive	-12.6495
BO	-12.6496
▁NYPD	-12.6505
▁Criminal	-12.6505
▁Cohen	-12.6506
▁permitted	-12.6507
lou	-12.6507
▁Kev	-12.6511
▁preacher	-12.6511
▁denying	-12.6513
▁wha	-12.6516
uda	-12.6516
path	-12.6519
▁teenagers	-12.6521
▁coverage	-12.6522
▁poured	-12.6523
▁Merci	-12.6524
▁Michele	-12.6524
▁Swan	-12.6525
person	-12.6526
▁gel	-12.6528
▁challenging	-12.6529
▁Northern	-12.6529
rator	-12.6529
▁ruling	-12.6529
▁playground	-12.6531
▁Dang	-12.6531
▁000	-12.6532
OS	-12.6537
▁ripe	-12.6538
▁gene	-12.654
▁CI	-12.6543
▁muck	-12.6543
zawa	-12.6545
cott	-12.6546
▁Tear	-12.6548
▁Gather	-12.6553
▁establishment	-12.6553
▁bushes	-12.6555
▁Country	-12.6555
sses	-12.6556
▁restaurants	-12.6557
blooded	-12.6559
▁Stock	-12.6561
▁restored	-12.6561
▁comedian	-12.6562
▁vouch	-12.6562
▁processing	-12.6565
▁utterly	-12.6567
acy	-12.6568
▁NA	-12.6569
zel	-12.657
▁horns	-12.6571
▁Simply	-12.6575
▁evaluation	-12.6575
▁Eden	-12.6575
▁Gui	-12.6577
▁Pastor	-12.6577
▁Fin	-12.6579
▁MIND	-12.6583
PS	-12.6583
▁treaty	-12.6585
▁Walking	-12.6586
▁Damien	-12.6587
▁voting	-12.6587
▁Lea	-12.659
▁conducting	-12.6594
▁spur	-12.6596
▁hideous	-12.6597
▁Ven	-12.6598
▁Accident	-12.6598
▁enthusiasm	-12.6598
▁Ollie	-12.6599
▁Gul	-12.6599
▁Load	-12.66
▁Grove	-12.6604
▁Base	-12.6607
▁Ezra	-12.661
▁civilized	-12.6611
▁Cruz	-12.6611
▁Jet	-12.6611
▁Kuro	-12.6613
▁rehearse	-12.6614
▁sessions	-12.6614
▁Vance	-12.6615
ump	-12.6615
iah	-12.6616
GER	-12.6619
ANCE	-12.6619
▁Empty	-12.6622
▁loneliness	-12.6622
nov	-12.6623
▁perfection	-12.6623
▁reign	-12.6624
▁shipped	-12.6625
strom	-12.6626
gri	-12.6626
▁slippers	-12.6628
▁alongside	-12.6628
▁smoothly	-12.663
▁Julien	-12.6632
▁Vaughn	-12.6633
▁microwave	-12.6634
▁Tired	-12.6636
▁AH	-12.6641
▁soaked	-12.6642
▁comparison	-12.6645
▁Shelby	-12.6645
▁chunk	-12.6645
▁Falls	-12.6645
▁Gustav	-12.6647
▁lacking	-12.6647
▁duct	-12.6647
▁cramp	-12.6652
▁ridge	-12.6652
▁Sil	-12.6654
▁supposedly	-12.6654
▁homosexual	-12.6657
▁chimney	-12.6657
▁Wagner	-12.6657
▁Prem	-12.6661
▁Roz	-12.6663
-3	-12.6664
▁BO	-12.6665
▁Nash	-12.6665
▁Pla	-12.6666
roll	-12.6668
▁elaborate	-12.6669
eno	-12.6669
▁Choose	-12.6669
▁slipping	-12.667
▁Anyhow	-12.667
▁jackass	-12.6671
▁pause	-12.6674
▁quiz	-12.6679
itz	-12.668
▁Mallory	-12.6681
▁Millie	-12.6682
▁feds	-12.6683
▁Morse	-12.6686
▁dye	-12.6688
▁halt	-12.669
▁rumours	-12.6691
▁insanity	-12.6692
▁parallel	-12.6692
▁sponge	-12.6692
▁popping	-12.6694
▁admirer	-12.6695
und	-12.6695
12	-12.6697
▁legit	-12.6697
▁Hana	-12.6697
▁objections	-12.67
▁Kro	-12.6701
ITY	-12.6702
▁Pee	-12.671
PH	-12.6712
▁procedures	-12.6713
▁Mildred	-12.6716
▁plasma	-12.6716
▁exceptional	-12.6716
▁casting	-12.6718
▁Marquis	-12.6719
▁lens	-12.6719
▁51	-12.6719
▁tow	-12.672
▁sacrifices	-12.6721
▁Rice	-12.6721
▁CT	-12.6725
▁Guards	-12.6726
▁Singapore	-12.6728
▁subpoena	-12.6728
▁fortress	-12.6729
▁bruise	-12.6731
▁retarded	-12.6733
jee	-12.6734
how	-12.6737
▁clowns	-12.6737
▁Darn	-12.6739
▁consolation	-12.674
▁residue	-12.674
▁Miriam	-12.674
▁Moo	-12.674
▁Isabella	-12.6742
▁implying	-12.6743
▁BAR	-12.6743
▁continent	-12.6744
cream	-12.6747
agi	-12.6747
▁communist	-12.6747
▁stool	-12.6752
▁southern	-12.6752
▁Called	-12.6752
▁Lila	-12.6752
ifies	-12.6752
▁Carolina	-12.6752
▁rains	-12.6754
▁Iove	-12.6755
▁conclude	-12.6755
▁analyze	-12.6755
▁hath	-12.6758
▁Visit	-12.6759
▁Marguerite	-12.6763
▁contempt	-12.6763
vol	-12.6763
▁ste	-12.6764
▁Taxi	-12.6765
▁litter	-12.6766
▁Virgil	-12.6768
▁intervene	-12.6775
▁Research	-12.6775
▁barking	-12.6775
gami	-12.6775
▁unite	-12.6776
▁poisonous	-12.6776
▁overwhelming	-12.6777
▁Renee	-12.6779
stage	-12.678
mun	-12.6783
▁complications	-12.6787
▁ter	-12.6787
▁Putting	-12.6789
▁starters	-12.679
▁busting	-12.679
▁Luna	-12.679
▁evacuate	-12.6791
▁Mika	-12.6795
▁hush	-12.6798
▁REMEMBER	-12.6799
▁cheerleader	-12.6799
▁experiencing	-12.6799
▁hypocrite	-12.6799
▁brute	-12.68
▁charts	-12.6804
mission	-12.6804
▁Maxim	-12.6807
▁yer	-12.6807
▁Est	-12.6807
▁Spec	-12.6808
▁Nav	-12.681
omi	-12.6812
asa	-12.6813
▁Drunk	-12.6814
▁mourn	-12.6816
▁Mou	-12.6817
▁impose	-12.6819
igo	-12.682
▁invade	-12.6821
▁monks	-12.6821
▁cube	-12.6822
▁affects	-12.6824
▁Zor	-12.6826
▁deepest	-12.6828
skin	-12.6828
▁ding	-12.6828
▁attacker	-12.683
▁notified	-12.6831
bling	-12.6833
▁docks	-12.6834
▁experiences	-12.6834
▁zombies	-12.6835
▁tread	-12.6836
▁Ew	-12.6838
▁Tessa	-12.684
▁absorb	-12.6841
emp	-12.6842
▁Pip	-12.6844
▁marketing	-12.6845
▁mining	-12.6846
▁Hawkins	-12.6847
▁chopped	-12.6847
▁masters	-12.6848
▁colours	-12.685
▁pupil	-12.685
ular	-12.6852
UP	-12.6852
▁Guardian	-12.6853
▁overdose	-12.6854
▁Rev	-12.6854
▁fulfilled	-12.6856
▁rainbow	-12.6859
▁scold	-12.6859
▁Gladys	-12.6859
▁Scooby	-12.686
cop	-12.6862
▁goals	-12.6863
▁Chop	-12.6864
▁Clo	-12.6865
▁Flora	-12.6865
fly	-12.6865
enberg	-12.6866
▁Rum	-12.6866
▁Ev	-12.6868
▁Tried	-12.6868
▁GR	-12.6869
▁promote	-12.6869
▁pros	-12.687
ense	-12.687
▁Guilty	-12.6872
▁00,	-12.6873
So	-12.6873
▁writers	-12.6873
▁highlight	-12.6875
▁Arc	-12.6875
▁baron	-12.6877
▁Greene	-12.6878
▁Fang	-12.6879
▁Dora	-12.6881
▁Fra	-12.6882
▁Freak	-12.6883
▁temptation	-12.6883
▁Maxwell	-12.6885
sai	-12.6886
▁conversations	-12.6886
▁battles	-12.6886
uka	-12.6887
▁considerable	-12.6889
▁scratched	-12.6894
uge	-12.6895
▁landscape	-12.6895
▁revolutionary	-12.6895
UT	-12.6896
rock	-12.6896
▁Beware	-12.6896
▁Feng	-12.69
▁beliefs	-12.69
IG	-12.6902
zzy	-12.6902
GG	-12.6904
▁span	-12.6905
ific	-12.6905
▁Bul	-12.6905
eon	-12.6908
▁doorstep	-12.6908
▁undress	-12.6914
▁strangely	-12.6914
▁representing	-12.6914
▁tattoos	-12.6916
▁Jarod	-12.6919
▁Abel	-12.6919
▁epic	-12.6919
▁shameless	-12.6922
▁foam	-12.6922
▁pronounce	-12.6923
▁locking	-12.6925
▁grim	-12.6928
rch	-12.6929
▁Nation	-12.6931
▁dictate	-12.6931
▁remorse	-12.6931
▁syndrome	-12.6931
▁plum	-12.6935
▁rifles	-12.6938
▁Association	-12.6943
▁striking	-12.6943
▁extensive	-12.6943
▁shaken	-12.6947
▁mor	-12.6947
▁heating	-12.6947
▁amuse	-12.6947
▁acquired	-12.6948
▁MADE	-12.6948
▁whi	-12.6952
▁Istanbul	-12.6955
▁pyramid	-12.6955
▁cuffs	-12.6955
▁Cassandra	-12.6955
▁Internal	-12.6955
▁automatically	-12.6955
▁Caught	-12.6955
▁leverage	-12.6956
▁Jedi	-12.6956
▁Springs	-12.6957
▁crib	-12.6958
▁woo	-12.6958
▁siren	-12.696
▁mic	-12.6961
▁inspect	-12.6961
▁Maj	-12.6964
▁Colorado	-12.6967
▁opposition	-12.6967
▁parcel	-12.6969
Be	-12.6971
▁Champ	-12.6971
▁recon	-12.6972
▁headaches	-12.6974
▁elections	-12.6975
▁forged	-12.6978
▁Wy	-12.6979
▁waving	-12.6979
▁insists	-12.6982
▁lighten	-12.6984
iling	-12.6987
▁solitary	-12.6991
▁stadium	-12.6991
▁swept	-12.6991
▁footsteps	-12.6991
▁Sherman	-12.6991
▁Brand	-12.6992
▁grind	-12.6993
▁Pep	-12.6993
▁chili	-12.6995
▁Hua	-12.6995
▁bananas	-12.7
▁aiming	-12.7003
▁recognised	-12.7003
▁Rise	-12.7003
▁Eleven	-12.7004
▁Karin	-12.7006
▁locals	-12.7007
▁dickhead	-12.7007
▁Blind	-12.7008
▁Meat	-12.7013
▁shh	-12.7015
▁bikini	-12.7016
▁Stacy	-12.7016
▁chilly	-12.7017
zan	-12.7017
▁Lights	-12.7017
▁relic	-12.7018
▁Spot	-12.702
▁tempted	-12.7021
▁stored	-12.7022
▁Byron	-12.7022
lp	-12.7026
▁Cartwright	-12.7028
▁mermaid	-12.7028
otic	-12.7029
▁unload	-12.7029
▁hunk	-12.7029
▁sunlight	-12.7029
▁tv	-12.7029
▁Kumar	-12.7034
iki	-12.7037
▁altered	-12.7038
▁COURSE	-12.704
▁Vampire	-12.704
▁continuing	-12.704
▁suspension	-12.704
▁Yeo	-12.704
▁kettle	-12.704
▁Cara	-12.7041
▁addiction	-12.7041
achi	-12.7042
▁splitting	-12.7044
▁Hoffman	-12.7046
▁tying	-12.7046
▁Hyde	-12.7051
▁Yeon	-12.7051
▁counterfeit	-12.7052
▁fantasies	-12.7052
▁prejudice	-12.7052
gno	-12.7054
cro	-12.7057
cru	-12.7057
▁chambers	-12.7058
▁Date	-12.7061
▁owl	-12.7062
kle	-12.7064
▁kindergarten	-12.7064
▁sushi	-12.7065
20	-12.7066
▁caravan	-12.7066
▁filmed	-12.7066
▁vows	-12.7066
▁chores	-12.7066
▁Dy	-12.7067
▁Nil	-12.7068
▁Glass	-12.7068
▁oppose	-12.7069
▁equals	-12.7069
▁Metro	-12.707
▁stoned	-12.7073
▁Rub	-12.7075
▁environmental	-12.7076
▁tactical	-12.7076
▁Impressive	-12.7077
▁unreasonable	-12.7077
▁Roth	-12.708
▁bathe	-12.7082
▁Dash	-12.7082
▁Prior	-12.7084
▁mil	-12.7086
▁Brendan	-12.7086
quin	-12.7087
lation	-12.7089
nz	-12.7092
▁Danish	-12.7093
▁Sato	-12.7098
▁Immediately	-12.7101
▁Patterson	-12.7101
▁HAPPENED	-12.7101
▁Tiny	-12.7103
▁scooter	-12.7104
▁Weaver	-12.7104
▁tenant	-12.7107
BER	-12.7108
iva	-12.7111
▁features	-12.7112
▁Lev	-12.7113
▁Creek	-12.7114
▁uni	-12.7115
▁relaxing	-12.712
▁attempting	-12.7122
▁Gestapo	-12.7126
▁Rom	-12.7126
13	-12.7127
▁designs	-12.7127
etto	-12.7129
▁longest	-12.713
▁getaway	-12.7131
▁ranks	-12.7132
▁McG	-12.7132
▁Market	-12.7137
▁Dag	-12.7137
ffi	-12.7138
▁phenomenon	-12.7138
▁blouse	-12.7138
rid	-12.7138
▁noticing	-12.7139
▁legendary	-12.7139
▁tat	-12.714
▁tripped	-12.7141
American	-12.7142
storm	-12.7142
▁accidents	-12.7148
▁Santos	-12.715
▁crust	-12.7151
▁Ferguson	-12.7151
▁Sergei	-12.7151
▁liable	-12.7151
▁wimp	-12.7151
▁Dalton	-12.7152
▁Thousands	-12.7156
▁scalp	-12.7159
▁roam	-12.716
▁Serious	-12.716
▁aged	-12.7161
▁compensate	-12.7163
▁Willow	-12.7163
▁bakery	-12.7167
▁warmer	-12.7169
▁sunk	-12.717
▁commanding	-12.7172
nard	-12.7174
▁Festival	-12.7175
▁Vulcan	-12.7175
▁flipped	-12.7176
▁HEAR	-12.7176
▁Ang	-12.7176
▁follows	-12.7176
▁Petr	-12.7177
▁ingredients	-12.7177
▁Foundation	-12.7179
▁hitch	-12.7179
▁manipulate	-12.718
▁sta	-12.7181
▁burglary	-12.7182
▁Cecil	-12.7182
▁Stephens	-12.7183
▁MAY	-12.7183
▁purposes	-12.7184
nnie	-12.7186
▁52	-12.7186
▁Ground	-12.7187
▁tame	-12.7187
iel	-12.7187
▁revive	-12.7188
▁Snap	-12.7189
▁Hulk	-12.719
▁Wheeler	-12.7191
▁retard	-12.7194
him	-12.7195
▁Heads	-12.7198
uta	-12.7198
▁tribute	-12.72
ago	-12.7202
▁Finding	-12.7202
▁hawk	-12.7202
▁Herbert	-12.7203
izer	-12.7209
▁Signor	-12.7209
▁Note	-12.721
▁39	-12.7211
▁separation	-12.7212
▁Solomon	-12.7212
▁encountered	-12.7213
▁Petty	-12.7213
▁Dia	-12.7217
▁psychotic	-12.7219
▁3-	-12.7222
▁canal	-12.7222
▁glimpse	-12.7225
▁rebellion	-12.7225
▁queue	-12.7225
▁fiddle	-12.7225
zed	-12.7226
related	-12.7229
▁interpret	-12.7231
▁BU	-12.7231
ending	-12.7232
▁elephants	-12.7233
▁hurricane	-12.7237
▁smiled	-12.7237
▁Clever	-12.7237
roo	-12.7238
wear	-12.7238
▁der	-12.7239
▁vou	-12.7241
▁Halt	-12.7241
bli	-12.7242
▁Mode	-12.7242
▁bites	-12.7243
▁restroom	-12.7244
▁winds	-12.7246
▁workin	-12.7246
▁Frau	-12.7247
▁irony	-12.7248
▁Witness	-12.7249
▁appreciation	-12.725
▁tequila	-12.725
▁northern	-12.725
▁Counselor	-12.725
▁Hilda	-12.7251
▁tonic	-12.7255
▁Shop	-12.7257
▁hospitals	-12.726
dee	-12.726
▁salvage	-12.7262
any	-12.7263
▁mop	-12.7267
smith	-12.7267
▁Pot	-12.7267
▁Greta	-12.727
▁readings	-12.7272
▁resigned	-12.7272
avier	-12.7274
▁english	-12.7275
▁agony	-12.7278
▁judgement	-12.7281
wall	-12.7283
ground	-12.7284
coat	-12.7285
▁insect	-12.7285
wei	-12.7286
▁american	-12.7286
▁Atlanta	-12.7287
▁humiliation	-12.7287
▁platoon	-12.7287
▁Bullet	-12.7288
▁gangsters	-12.7289
▁distinguished	-12.7291
▁cigars	-12.7295
▁hollow	-12.73
▁leaked	-12.73
▁Interpol	-12.73
aj	-12.73
▁Milton	-12.7301
▁nicest	-12.7302
▁freshen	-12.7305
▁wretch	-12.7307
▁Nay	-12.7308
lus	-12.7311
▁Donny	-12.7312
▁supported	-12.7312
▁LISTEN	-12.7312
▁leash	-12.7312
▁Norma	-12.7312
▁Sanders	-12.7315
▁Lose	-12.7316
▁mustard	-12.7316
▁onion	-12.7316
▁Jag	-12.7316
▁biting	-12.7318
▁condemn	-12.7319
ppe	-12.7322
TT	-12.7324
▁referred	-12.7325
▁wishing	-12.7325
▁businesses	-12.7326
▁Serge	-12.733
▁Cas	-12.733
hank	-12.7334
▁App	-12.7336
▁lam	-12.7336
track	-12.7337
rays	-12.7337
▁Mafia	-12.7337
▁dwarf	-12.7337
▁Duchess	-12.7337
▁Sutton	-12.7337
▁Information	-12.7338
▁travelled	-12.7339
▁adjustment	-12.7339
▁cape	-12.7341
▁Ap	-12.7342
▁dim	-12.7342
▁sweets	-12.7348
num	-12.7349
▁devastated	-12.735
▁syrup	-12.735
▁lifting	-12.7352
▁triggered	-12.7352
▁skilled	-12.7353
▁Cock	-12.7353
TI	-12.7354
▁equipped	-12.7354
▁swinging	-12.7356
▁VI	-12.7356
▁guarded	-12.7357
▁Blast	-12.7359
▁Haru	-12.736
▁eldest	-12.7362
▁cyber	-12.7363
▁asthma	-12.7363
▁Jed	-12.7365
▁PI	-12.7366
▁argued	-12.7367
nen	-12.7367
rang	-12.7369
▁Gla	-12.737
▁peanuts	-12.7371
active	-12.7371
▁frequent	-12.7372
▁Citizen	-12.7375
▁Stockholm	-12.7375
▁rubbing	-12.7375
▁Horace	-12.7375
▁biology	-12.7375
▁Norm	-12.7377
stock	-12.7378
▁DEA	-12.7379
▁superb	-12.7379
▁hash	-12.7379
▁trespassing	-12.738
▁CHA	-12.738
▁Reich	-12.7381
▁seized	-12.7386
now	-12.7386
dress	-12.7386
▁transition	-12.7386
▁kidnapper	-12.7387
▁Pentagon	-12.7388
▁Francine	-12.7388
▁Prague	-12.7388
▁Earlier	-12.7388
▁operational	-12.739
▁Rei	-12.7391
▁leaking	-12.7392
▁Caine	-12.7393
▁Matter	-12.7396
▁extended	-12.7399
destruct	-12.74
▁20-	-12.7404
▁herbs	-12.7404
▁reservations	-12.7405
▁Umm	-12.7406
▁Mouse	-12.7408
▁GIRL	-12.741
▁increasing	-12.741
▁globe	-12.7413
▁salvation	-12.7413
▁Web	-12.7413
type	-12.7415
ISH	-12.7417
40	-12.7417
▁Classic	-12.7418
IGHT	-12.7421
▁flowing	-12.7421
bara	-12.7422
▁perk	-12.7425
▁dungeon	-12.7426
▁console	-12.7426
▁bidding	-12.7426
▁whim	-12.7427
word	-12.7429
style	-12.743
▁skies	-12.743
ffy	-12.7431
▁hag	-12.7432
▁Fate	-12.7434
wave	-12.7438
[...]
