{
  "version": "1.0",
  "truncation": null,
  "padding": null,
  "added_tokens": [
    {
      "id": 0,
      "content": "[PAD]",
      "single_word": false,
      "lstrip": false,
      "rstrip": false,
      "normalized": false,
      "special": true
    },
    {
      "id": 1,
      "content": "[UNK]",
      "single_word": false,
      "lstrip": false,
      "rstrip": false,
      "normalized": false,
      "special": true
    },
    {
      "id": 2,
      "content": "[CLS]",
      "single_word": false,
      "lstrip": false,
      "rstrip": false,
      "normalized": false,
      "special": true
    },
    {
      "id": 3,
      "content": "[SEP]",
      "single_word": false,
      "lstrip": false,
      "rstrip": false,
      "normalized": false,
      "special": true
    },
    {
      "id": 4,
      "content": "[MASK]",
      "single_word": false,
      "lstrip": false,
      "rstrip": false,
      "normalized": false,
      "special": true
    }
  ],
  "normalizer": {
    "type": "BertNormalizer",
    "clean_text": true,
    "handle_chinese_chars": true,
    "strip_accents": null,
    "lowercase": false
  },
  "pre_tokenizer": {
    "type": "Metaspace",
    "replacement": "▁",
    "add_prefix_space": true
  },
  "post_processor": {
    "type": "TemplateProcessing",
    "single": [
      {
        "SpecialToken": {
          "id": "[CLS]",
          "type_id": 0
        }
      },
      {
        "Sequence": {
          "id": "A",
          "type_id": 0
        }
      },
      {
        "SpecialToken": {
          "id": "[SEP]",
          "type_id": 0
        }
      }
    ],
    "pair": [
      {
        "SpecialToken": {
          "id": "[CLS]",
          "type_id": 0
        }
      },
      {
        "Sequence": {
          "id": "A",
          "type_id": 0
        }
      },
      {
        "SpecialToken": {
          "id": "[SEP]",
          "type_id": 0
        }
      },
      {
        "Sequence": {
          "id": "B",
          "type_id": 1
        }
      },
      {
        "SpecialToken": {
          "id": "[SEP]",
          "type_id": 1
        }
      }
    ],
    "special_tokens": {
      "[CLS]": {
        "id": "[CLS]",
        "ids": [
          2
        ],
        "tokens": [
          "[CLS]"
        ]
      },
      "[SEP]": {
        "id": "[SEP]",
        "ids": [
          3
        ],
        "tokens": [
          "[SEP]"
        ]
      }
    }
  },
  "decoder": {
    "type": "Metaspace",
    "replacement": "▁",
    "add_prefix_space": true
  },
  "model": {
    "type": "Unigram",
    "unk_id": 1,
    "vocab": [
      [
        "[PAD]",
        0.0
      ],
      [
        "[UNK]",
        0.0
      ],
      [
        "[CLS]",
        0.0
      ],
      [
        "[SEP]",
        0.0
      ],
      [
        "[MASK]",
        0.0
      ],
      [
        "▁",
        -2.223606580795746
      ],
      [
        ".",
        -3.575535349164289
      ],
      [
        ",",
        -3.72815663167856
      ],
      [
        "I",
        -3.841538066073147
      ],
      [
        "▁you",
        -3.8484951027013863
      ],
      [
        "▁the",
        -3.856107162375943
      ],
      [
        "▁to",
        -3.9840596185117416
      ],
      [
        "a",
        -4.052917567358744
      ],
      [
        "?",
        -4.185406348904385
      ],
      [
        "▁of",
        -4.7498556647879155
      ],
      [
        "▁is",
        -4.907056600554949
      ],
      [
        "▁in",
        -4.925763697623548
      ],
      [
        "▁and",
        -4.939321506172062
      ],
      [
        "▁that",
        -5.0112732245586695
      ],
      [
        "!",
        -5.034685944812075
      ],
      [
        "▁You",
        -5.063552837877159
      ],
      [
        "s",
        -5.142298510808896
      ],
      [
        "▁it",
        -5.156951673939542
      ],
      [
        "▁for",
        -5.177168791521305
      ],
      [
        "▁have",
        -5.234812791154159
      ],
      [
        "▁your",
        -5.291344947534357
      ],
      [
        "▁be",
        -5.341630303699315
      ],
      [
        "▁was",
        -5.396974879541293
      ],
      [
        "...",
        -5.434830886165191
      ],
      [
        "▁on",
        -5.438024547885867
      ],
      [
        "▁this",
        -5.450944944737298
      ],
      [
        "▁I'm",
        -5.453676745119008
      ],
      [
        "▁my",
        -5.457342481148812
      ],
      [
        "▁not",
        -5.458059953343655
      ],
      [
        "▁are",
        -5.458116301929611
      ],
      [
        "▁me",
        -5.478394171381616
      ],
      [
        "▁with",
        -5.507768790850838
      ],
      [
        "▁do",
        -5.531615274584864
      ],
      [
        "▁we",
        -5.610985678546903
      ],
      [
        "▁don't",
        -5.650754751220225
      ],
      [
        "▁What",
        -5.686698051767239
      ],
      [
        "▁like",
        -5.769754445966372
      ],
      [
        "▁know",
        -5.781815146140671
      ],
      [
        "▁what",
        -5.811806870877298
      ],
      [
        "▁he",
        -5.8561494444238384
      ],
      [
        "▁just",
        -5.865766021164815
      ],
      [
        "▁all",
        -5.882496313533965
      ],
      [
        "▁about",
        -5.886780430547089
      ],
      [
        "▁get",
        -5.901406187921676
      ],
      [
        "▁The",
        -5.932385719875526
      ],
      [
        "▁And",
        -5.946038750611509
      ],
      [
        "▁It's",
        -5.952482778545772
      ],
      [
        "▁can",
        -5.9542498156380805
      ],
      [
        "▁at",
        -6.012423389284443
      ],
      [
        "▁out",
        -6.151882828534889
      ],
      [
        "▁want",
        -6.16811030935966
      ],
      [
        "▁so",
        -6.170234954342048
      ],
      [
        "'s",
        -6.174688180012543
      ],
      [
        "▁think",
        -6.197089174583056
      ],
      [
        "▁We",
        -6.200229372268945
      ],
      [
        "▁will",
        -6.203197553406671
      ],
      [
        "▁but",
        -6.208016026909023
      ],
      [
        "▁got",
        -6.208632682785419
      ],
      [
        "▁go",
        -6.245636731437177
      ],
      [
        "▁But",
        -6.249529658673806
      ],
      [
        "▁if",
        -6.253179910116291
      ],
      [
        "▁one",
        -6.299423574712716
      ],
      [
        "▁her",
        -6.325408449655789
      ],
      [
        "▁He",
        -6.325924206700963
      ],
      [
        "▁it.",
        -6.349857276918332
      ],
      [
        "▁from",
        -6.354916465027143
      ],
      [
        "▁up",
        -6.357397309284247
      ],
      [
        "▁you.",
        -6.392253879506869
      ],
      [
        "▁Well,",
        -6.408577391515669
      ],
      [
        "▁as",
        -6.409551360194504
      ],
      [
        "▁So",
        -6.417312649847741
      ],
      [
        "▁see",
        -6.418195246098646
      ],
      [
        "▁it's",
        -6.418786233167392
      ],
      [
        "▁I'll",
        -6.426577139445964
      ],
      [
        "▁him",
        -6.427059168339248
      ],
      [
        "▁his",
        -6.428098226078879
      ],
      [
        "▁It",
        -6.4285184215937505
      ],
      [
        "▁did",
        -6.431469926310379
      ],
      [
        "▁they",
        -6.454972739827015
      ],
      [
        "▁going",
        -6.462343649339449
      ],
      [
        "▁me.",
        -6.487636325376771
      ],
      [
        "e",
        -6.494256296787887
      ],
      [
        "▁an",
        -6.497396209867439
      ],
      [
        "▁you're",
        -6.507277144075918
      ],
      [
        "-",
        -6.5078268533555015
      ],
      [
        "t",
        -6.509394348572471
      ],
      [
        "▁been",
        -6.515350371046216
      ],
      [
        "▁How",
        -6.519625249242729
      ],
      [
        "▁were",
        -6.546682825796582
      ],
      [
        "▁no",
        -6.549376053502018
      ],
      [
        "▁That's",
        -6.5569352741810665
      ],
      [
        "▁she",
        -6.557456710067827
      ],
      [
        "▁Oh,",
        -6.571784279134352
      ],
      [
        "▁come",
        -6.593205908804688
      ],
      [
        "▁This",
        -6.612696339980907
      ],
      [
        "▁would",
        -6.62708469050289
      ],
      [
        "▁A",
        -6.633158773026084
      ],
      [
        "▁You're",
        -6.634402606960792
      ],
      [
        "▁Why",
        -6.6383165913982065
      ],
      [
        "▁had",
        -6.649113132299295
      ],
      [
        "▁take",
        -6.67639022611802
      ],
      [
        "▁some",
        -6.681360901184343
      ],
      [
        "▁didn't",
        -6.703783889123976
      ],
      [
        "▁can't",
        -6.712750579833806
      ],
      [
        "▁need",
        -6.71824950715982
      ],
      [
        "▁here",
        -6.721668893732344
      ],
      [
        "▁If",
        -6.727511935258876
      ],
      [
        "▁Do",
        -6.739998021922714
      ],
      [
        "▁tell",
        -6.744549936833687
      ],
      [
        "i",
        -6.745520105268643
      ],
      [
        "▁how",
        -6.756461496951124
      ],
      [
        "▁could",
        -6.762449448694024
      ],
      [
        "▁or",
        -6.7678317835280435
      ],
      [
        "▁our",
        -6.771197065282804
      ],
      [
        "▁there",
        -6.77565132394032
      ],
      [
        "▁No,",
        -6.776633817017451
      ],
      [
        "o",
        -6.780891402023446
      ],
      [
        "▁gonna",
        -6.7833942826344025
      ],
      [
        "▁who",
        -6.783637414205895
      ],
      [
        "▁when",
        -6.786156799352357
      ],
      [
        "▁has",
        -6.822133745842757
      ],
      [
        "▁here.",
        -6.823586780202094
      ],
      [
        "▁Don't",
        -6.833234782798732
      ],
      [
        "▁I've",
        -6.833505659227688
      ],
      [
        "▁back",
        -6.849623935140988
      ],
      [
        "▁good",
        -6.850376786761199
      ],
      [
        "▁really",
        -6.891552253522024
      ],
      [
        "▁us",
        -6.893173097468651
      ],
      [
        "▁make",
        -6.913146134189393
      ],
      [
        "▁That",
        -6.930880078528338
      ],
      [
        "\"",
        -6.942658304150541
      ],
      [
        "▁by",
        -6.945916222298154
      ],
      [
        "▁more",
        -6.952183019079424
      ],
      [
        "▁them",
        -6.967539028175919
      ],
      [
        "▁Yeah,",
        -6.97852352970841
      ],
      [
        "▁time",
        -6.981266888408328
      ],
      [
        "▁should",
        -6.982068531934884
      ],
      [
        "▁say",
        -6.98391239274833
      ],
      [
        "y",
        -6.984901451411316
      ],
      [
        "d",
        -6.992091734247563
      ],
      [
        "▁She",
        -7.001531094879379
      ],
      [
        "▁never",
        -7.002311254621954
      ],
      [
        "▁right",
        -7.008451430567641
      ],
      [
        "▁Come",
        -7.0155472896656
      ],
      [
        "▁They",
        -7.016242025140208
      ],
      [
        "▁little",
        -7.021421761386957
      ],
      [
        "▁very",
        -7.028700667356965
      ],
      [
        "▁only",
        -7.0349030101092165
      ],
      [
        "▁Is",
        -7.0417512284873816
      ],
      [
        "▁any",
        -7.049911342265068
      ],
      [
        "▁you?",
        -7.0538723880881555
      ],
      [
        "▁My",
        -7.059161314353698
      ],
      [
        "▁Yes,",
        -7.066338114760562
      ],
      [
        "▁Are",
        -7.066660546273509
      ],
      [
        "'",
        -7.073417560193789
      ],
      [
        "▁look",
        -7.075765520080308
      ],
      [
        "▁why",
        -7.10290084957817
      ],
      [
        "▁All",
        -7.109149636759092
      ],
      [
        "ing",
        -7.1148904585694766
      ],
      [
        "▁over",
        -7.120394301829741
      ],
      [
        "▁something",
        -7.121775937386673
      ],
      [
        "▁that's",
        -7.130562107006224
      ],
      [
        "▁He's",
        -7.160166253721323
      ],
      [
        "n",
        -7.165175888771627
      ],
      [
        "▁it?",
        -7.167750204802093
      ],
      [
        "▁where",
        -7.182623710168871
      ],
      [
        "▁What's",
        -7.184654660681824
      ],
      [
        "▁said",
        -7.20284996693859
      ],
      [
        "▁find",
        -7.204161529081459
      ],
      [
        "▁No",
        -7.205542374561528
      ],
      [
        "▁him.",
        -7.212028175581507
      ],
      [
        "▁Just",
        -7.220103576690974
      ],
      [
        "▁Hey,",
        -7.225673593233841
      ],
      [
        "▁still",
        -7.245169768919995
      ],
      [
        "ed",
        -7.246627588085381
      ],
      [
        "▁give",
        -7.2555909785888275
      ],
      [
        "▁am",
        -7.259184778982579
      ],
      [
        "▁must",
        -7.294763922077626
      ],
      [
        "▁way",
        -7.299347490270572
      ],
      [
        "▁even",
        -7.300614928503389
      ],
      [
        "▁Not",
        -7.30317704210079
      ],
      [
        "▁two",
        -7.305950589809383
      ],
      [
        "▁Did",
        -7.319058671349776
      ],
      [
        "▁Mr.",
        -7.3343728685598
      ],
      [
        "▁Where",
        -7.337091078496412
      ],
      [
        "▁much",
        -7.339106487673556
      ],
      [
        "m",
        -7.342934039760177
      ],
      [
        "▁Your",
        -7.34777767843148
      ],
      [
        "▁man",
        -7.348204948400186
      ],
      [
        "▁into",
        -7.352891684077171
      ],
      [
        "▁he's",
        -7.353051130430201
      ],
      [
        "▁thought",
        -7.356232600466896
      ],
      [
        "▁that.",
        -7.358511651822805
      ],
      [
        "▁off",
        -7.366463357144138
      ],
      [
        "▁too",
        -7.369184437795234
      ],
      [
        "▁told",
        -7.388351337532805
      ],
      [
        "l",
        -7.393833601112405
      ],
      [
        "▁let",
        -7.400049456464702
      ],
      [
        "▁now.",
        -7.404428526229163
      ],
      [
        "▁doing",
        -7.405311714963252
      ],
      [
        "▁people",
        -7.411221169163104
      ],
      [
        "▁than",
        -7.413478431951715
      ],
      [
        "▁talk",
        -7.419493049975069
      ],
      [
        "▁down",
        -7.419993097607845
      ],
      [
        "▁Now",
        -7.425305184190428
      ],
      [
        "▁these",
        -7.432253845337426
      ],
      [
        "▁me,",
        -7.437960701942197
      ],
      [
        "▁No.",
        -7.449515374563315
      ],
      [
        "▁last",
        -7.449741996970255
      ],
      [
        "▁me?",
        -7.450702276171061
      ],
      [
        "▁call",
        -7.455436199054455
      ],
      [
        "▁then",
        -7.4558064439072815
      ],
      [
        "▁Who",
        -7.456292934892572
      ],
      [
        "▁right.",
        -7.460713999483474
      ],
      [
        "▁won't",
        -7.46264111651373
      ],
      [
        "▁Yeah.",
        -7.46978279212655
      ],
      [
        "▁There",
        -7.480952439155105
      ],
      [
        "▁other",
        -7.482401162138583
      ],
      [
        "▁help",
        -7.487225892201915
      ],
      [
        "▁sure",
        -7.487425685118788
      ],
      [
        "▁now",
        -7.487455992142914
      ],
      [
        "▁love",
        -7.487685140388734
      ],
      [
        "▁Let's",
        -7.497005190858829
      ],
      [
        "▁We're",
        -7.51415844594659
      ],
      [
        "▁Thank",
        -7.5168504862652625
      ],
      [
        "▁we're",
        -7.526658473383368
      ],
      [
        "▁In",
        -7.5293620681414115
      ],
      [
        "▁I'd",
        -7.529366369491646
      ],
      [
        "▁you,",
        -7.533069675467699
      ],
      [
        "▁their",
        -7.535953529678533
      ],
      [
        "▁after",
        -7.5366188564916
      ],
      [
        "▁know.",
        -7.541666675957991
      ],
      [
        "▁there.",
        -7.543119370070196
      ],
      [
        "▁Can",
        -7.545791682964317
      ],
      [
        "▁know,",
        -7.547205654138576
      ],
      [
        "▁always",
        -7.550563969003312
      ],
      [
        "▁because",
        -7.551073671557498
      ],
      [
        "▁right?",
        -7.559796968774172
      ],
      [
        "▁doesn't",
        -7.574882544968828
      ],
      [
        "▁long",
        -7.577591997958711
      ],
      [
        "▁There's",
        -7.584868745522685
      ],
      [
        "▁When",
        -7.585274542066021
      ],
      [
        "▁put",
        -7.590036937501841
      ],
      [
        "▁those",
        -7.603307499328789
      ],
      [
        "▁Then",
        -7.61348601772252
      ],
      [
        "▁here?",
        -7.626474794105277
      ],
      [
        "r",
        -7.635855471907105
      ],
      [
        "▁Yes.",
        -7.639364884020614
      ],
      [
        "▁before",
        -7.6405694783054035
      ],
      [
        "▁first",
        -7.641434262550227
      ],
      [
        "▁Good",
        -7.6420164602198355
      ],
      [
        "▁anything",
        -7.642093746856871
      ],
      [
        "▁better",
        -7.649841932649572
      ],
      [
        "▁Maybe",
        -7.65802466579108
      ],
      [
        "▁keep",
        -7.660822898192826
      ],
      [
        "▁up.",
        -7.666213489327557
      ],
      [
        "▁thing",
        -7.671751924750486
      ],
      [
        "▁ever",
        -7.682108416548157
      ],
      [
        "▁that?",
        -7.691968734970192
      ],
      [
        "▁work",
        -7.701691901282933
      ],
      [
        "▁does",
        -7.702179263461142
      ],
      [
        "▁feel",
        -7.709614404619352
      ],
      [
        "▁made",
        -7.724450509905392
      ],
      [
        "▁old",
        -7.725642111299448
      ],
      [
        "▁Go",
        -7.741610880457904
      ],
      [
        "▁She's",
        -7.748481598189997
      ],
      [
        "▁wanted",
        -7.74946867107221
      ],
      [
        "▁time.",
        -7.754141074966881
      ],
      [
        "▁new",
        -7.758114531513742
      ],
      [
        "▁isn't",
        -7.761172396353603
      ],
      [
        "▁believe",
        -7.768267452043704
      ],
      [
        "▁might",
        -7.776822880225373
      ],
      [
        "▁came",
        -7.779306686437117
      ],
      [
        "h",
        -7.78356875029473
      ],
      [
        "▁leave",
        -7.786208817151486
      ],
      [
        "▁kind",
        -7.788960695066718
      ],
      [
        "▁out.",
        -7.793979554866922
      ],
      [
        "▁there's",
        -7.796911962438315
      ],
      [
        "▁Have",
        -7.799199682986687
      ],
      [
        "▁ask",
        -7.802652614271777
      ],
      [
        "▁Get",
        -7.80332113580176
      ],
      [
        "▁right,",
        -7.82411261717384
      ],
      [
        "u",
        -7.826252663637748
      ],
      [
        "▁nothing",
        -7.829031473380281
      ],
      [
        "▁lot",
        -7.835158122964852
      ],
      [
        "▁hear",
        -7.843381429953785
      ],
      [
        "▁found",
        -7.845578531930935
      ],
      [
        "▁To",
        -7.846842524438255
      ],
      [
        "▁it,",
        -7.847949672477775
      ],
      [
        "▁things",
        -7.849641405174877
      ],
      [
        "▁this.",
        -7.852006141331579
      ],
      [
        ":",
        -7.854813374403301
      ],
      [
        "▁around",
        -7.859358222466808
      ],
      [
        "▁her.",
        -7.859658428171256
      ],
      [
        "▁being",
        -7.869233388176394
      ],
      [
        "▁looking",
        -7.869455305644028
      ],
      [
        "▁mean",
        -7.875161524448574
      ],
      [
        "▁big",
        -7.881231518220135
      ],
      [
        "▁Okay,",
        -7.883202009552857
      ],
      [
        "▁kill",
        -7.888717981734535
      ],
      [
        "▁them.",
        -7.889359951536219
      ],
      [
        "▁too.",
        -7.915454067738045
      ],
      [
        "▁left",
        -7.919476227720695
      ],
      [
        "▁Look",
        -7.920406155344342
      ],
      [
        "▁us.",
        -7.931595263494803
      ],
      [
        "▁getting",
        -7.941049773555525
      ],
      [
        "▁Let",
        -7.943105651298655
      ],
      [
        "▁day",
        -7.9451620676804495
      ],
      [
        "▁What?",
        -7.948662769494881
      ],
      [
        "▁another",
        -7.948691707684361
      ],
      [
        "▁through",
        -7.956287305715662
      ],
      [
        "▁stay",
        -7.962142139171808
      ],
      [
        "▁someone",
        -7.962167547264638
      ],
      [
        "▁sir.",
        -7.964122238564954
      ],
      [
        "▁For",
        -7.966975244946278
      ],
      [
        "▁seen",
        -7.9678362964927345
      ],
      [
        "▁saw",
        -7.979627011231509
      ],
      [
        "▁wasn't",
        -7.979703159477671
      ],
      [
        "▁went",
        -7.985351621647652
      ],
      [
        "▁own",
        -7.990136851278734
      ],
      [
        "▁many",
        -7.990184080730797
      ],
      [
        "▁Please",
        -7.994357741290441
      ],
      [
        "▁talking",
        -7.994633350112805
      ],
      [
        "▁you've",
        -7.997069107262162
      ],
      [
        "▁go.",
        -8.004080907088035
      ],
      [
        "▁wouldn't",
        -8.007469153667204
      ],
      [
        "▁same",
        -8.007981434797491
      ],
      [
        "▁on.",
        -8.009768916724434
      ],
      [
        "▁Of",
        -8.014145076160728
      ],
      [
        "▁stop",
        -8.015000429004383
      ],
      [
        "▁here,",
        -8.018093401408517
      ],
      [
        "▁she's",
        -8.022541624160821
      ],
      [
        "▁They're",
        -8.02328905213747
      ],
      [
        "▁what's",
        -8.031427421800505
      ],
      [
        "▁care",
        -8.033142360779564
      ],
      [
        "▁coming",
        -8.037083564274466
      ],
      [
        "▁may",
        -8.037834472195652
      ],
      [
        "▁guy",
        -8.04947838728724
      ],
      [
        "▁heard",
        -8.050120176823313
      ],
      [
        "▁trying",
        -8.054759897316199
      ],
      [
        "▁again.",
        -8.060103236771173
      ],
      [
        "▁away",
        -8.067044837917408
      ],
      [
        "▁back.",
        -8.072018171747493
      ],
      [
        "▁We'll",
        -8.074824513802893
      ],
      [
        "▁every",
        -8.076837646451056
      ],
      [
        "in",
        -8.086529766861247
      ],
      [
        "▁mean,",
        -8.086839300061657
      ],
      [
        "▁name",
        -8.087699382829038
      ],
      [
        "▁place",
        -8.090314924829686
      ],
      [
        "▁everything",
        -8.092674130614583
      ],
      [
        "▁years",
        -8.096384204006345
      ],
      [
        "▁done",
        -8.097594215769922
      ],
      [
        "▁bad",
        -8.101269534696888
      ],
      [
        "▁haven't",
        -8.103948831886123
      ],
      [
        "▁nice",
        -8.112647660233588
      ],
      [
        "▁show",
        -8.114291110266048
      ],
      [
        "▁life",
        -8.114438103606767
      ],
      [
        "▁they're",
        -8.114515594952923
      ],
      [
        "▁Because",
        -8.120458980711408
      ],
      [
        "▁already",
        -8.126104102602183
      ],
      [
        "▁without",
        -8.130132719209442
      ],
      [
        "▁try",
        -8.133716474272687
      ],
      [
        "▁this?",
        -8.133916547815339
      ],
      [
        "▁you'll",
        -8.135055255540832
      ],
      [
        "▁great",
        -8.141985086671232
      ],
      [
        "▁Tell",
        -8.143562849402056
      ],
      [
        "▁three",
        -8.145366592956707
      ],
      [
        "▁home",
        -8.147104959915211
      ],
      [
        "f",
        -8.151580082679176
      ],
      [
        "▁Take",
        -8.15269667544439
      ],
      [
        "▁man.",
        -8.159275834590927
      ],
      [
        "▁One",
        -8.161929838177347
      ],
      [
        "▁used",
        -8.162306239723375
      ],
      [
        "▁next",
        -8.169195428056682
      ],
      [
        "er",
        -8.170726520304493
      ],
      [
        "▁what?",
        -8.175838250659694
      ],
      [
        "▁use",
        -8.175881836250783
      ],
      [
        "▁guys",
        -8.179945371501557
      ],
      [
        "▁such",
        -8.180488421950287
      ],
      [
        "▁best",
        -8.180982451178519
      ],
      [
        "▁money",
        -8.182463185095596
      ],
      [
        "▁few",
        -8.183973097775976
      ],
      [
        "▁real",
        -8.18708811934381
      ],
      [
        "▁took",
        -8.18725901429272
      ],
      [
        "▁knew",
        -8.189567585794405
      ],
      [
        "▁As",
        -8.190521906783584
      ],
      [
        "▁maybe",
        -8.195220525782831
      ],
      [
        "▁meet",
        -8.197368132965494
      ],
      [
        "▁hell",
        -8.199894383480451
      ],
      [
        "▁him?",
        -8.208793706635506
      ],
      [
        "▁Or",
        -8.209836005397786
      ],
      [
        "▁called",
        -8.218692938787692
      ],
      [
        "g",
        -8.219220506189636
      ],
      [
        "ly",
        -8.224387545532057
      ],
      [
        "▁You've",
        -8.230131807669133
      ],
      [
        "▁wanna",
        -8.231814464344204
      ],
      [
        "▁happened",
        -8.232626536303739
      ],
      [
        "an",
        -8.246739391525926
      ],
      [
        "▁Here",
        -8.247143421579116
      ],
      [
        "▁whole",
        -8.2513023950907
      ],
      [
        "▁enough",
        -8.257618822648704
      ],
      [
        "▁live",
        -8.259151777295775
      ],
      [
        "▁pretty",
        -8.26608015682218
      ],
      [
        "▁we'll",
        -8.269275615275443
      ],
      [
        "▁Okay.",
        -8.27029163764518
      ],
      [
        "▁okay?",
        -8.283149023200222
      ],
      [
        "▁let's",
        -8.283960379673236
      ],
      [
        "▁which",
        -8.284421148820886
      ],
      [
        "able",
        -8.286268190375058
      ],
      [
        "▁understand",
        -8.287245933122914
      ],
      [
        "▁bit",
        -8.287275887937152
      ],
      [
        "▁remember",
        -8.28752818539654
      ],
      [
        "b",
        -8.28836157290736
      ],
      [
        "▁start",
        -8.292402131232748
      ],
      [
        "▁good.",
        -8.293670927291837
      ],
      [
        "▁else",
        -8.302678049641141
      ],
      [
        "▁way.",
        -8.304204047112629
      ],
      [
        "▁also",
        -8.31768357012266
      ],
      [
        "▁car",
        -8.318916797433873
      ],
      [
        "▁hope",
        -8.325477290809362
      ],
      [
        "▁bring",
        -8.325824623321198
      ],
      [
        "▁killed",
        -8.330581265855322
      ],
      [
        "▁couldn't",
        -8.33139449904634
      ],
      [
        "▁father",
        -8.332421060339161
      ],
      [
        "▁now,",
        -8.338210993103297
      ],
      [
        "▁down.",
        -8.341842086619673
      ],
      [
        "▁Will",
        -8.342180915756716
      ],
      [
        "▁now?",
        -8.34362955897539
      ],
      [
        "▁Miss",
        -8.35889225254759
      ],
      [
        "▁one.",
        -8.370883294574874
      ],
      [
        "▁since",
        -8.375209162214865
      ],
      [
        "is",
        -8.376730736147332
      ],
      [
        "▁hard",
        -8.37729145295817
      ],
      [
        "▁well,",
        -8.377725925724858
      ],
      [
        "▁night",
        -8.379618497758136
      ],
      [
        "▁wait",
        -8.383715969836492
      ],
      [
        "▁sorry.",
        -8.384888102179463
      ],
      [
        "▁most",
        -8.387032208048995
      ],
      [
        "▁wants",
        -8.391562720791054
      ],
      [
        "▁well",
        -8.392614205879768
      ],
      [
        "▁play",
        -8.394424554790168
      ],
      [
        "▁You'll",
        -8.397110122449385
      ],
      [
        "▁Mr",
        -8.398519416702424
      ],
      [
        "▁wrong",
        -8.399765221901504
      ],
      [
        "▁guess",
        -8.401488455084946
      ],
      [
        "▁Like",
        -8.40357319466066
      ],
      [
        "▁there?",
        -8.406519680331161
      ],
      [
        "▁At",
        -8.40761950315368
      ],
      [
        "▁you'd",
        -8.410450100590825
      ],
      [
        "▁sorry",
        -8.411188301673118
      ],
      [
        "▁do.",
        -8.41594430945368
      ],
      [
        "▁girl",
        -8.425318882360346
      ],
      [
        "▁thank",
        -8.425488133545663
      ],
      [
        "▁gotta",
        -8.431792943748118
      ],
      [
        "▁home.",
        -8.434636383376176
      ],
      [
        "▁until",
        -8.435876373625936
      ],
      [
        "p",
        -8.436104469030143
      ],
      [
        "▁YOU",
        -8.436564544872825
      ],
      [
        "▁See",
        -8.441085649666041
      ],
      [
        "▁run",
        -8.447335426865232
      ],
      [
        "▁under",
        -8.448287598571154
      ],
      [
        "▁Give",
        -8.452807388078567
      ],
      [
        "▁both",
        -8.454573806385968
      ],
      [
        "Look,",
        -8.468468280392393
      ],
      [
        "▁lost",
        -8.471094413862023
      ],
      [
        "▁gave",
        -8.471787287851557
      ],
      [
        "on",
        -8.472667239178802
      ],
      [
        "▁having",
        -8.474129448094834
      ],
      [
        "re",
        -8.475666217339926
      ],
      [
        "▁night.",
        -8.475860109975693
      ],
      [
        "▁huh?",
        -8.478482289026285
      ],
      [
        "▁doing?",
        -8.482142532811213
      ],
      [
        "▁head",
        -8.487999143402124
      ],
      [
        "▁pay",
        -8.489099348643693
      ],
      [
        "▁Where's",
        -8.494878685791926
      ],
      [
        "▁men",
        -8.498093711905025
      ],
      [
        "▁house",
        -8.503487718161368
      ],
      [
        "▁looks",
        -8.50646628000235
      ],
      [
        "▁asked",
        -8.50785061604321
      ],
      [
        "▁Oh",
        -8.51504253071502
      ],
      [
        "▁case",
        -8.520850692434275
      ],
      [
        "▁With",
        -8.521072954824776
      ],
      [
        "▁least",
        -8.522030036794133
      ],
      [
        "▁mind",
        -8.524966722555007
      ],
      [
        "▁please.",
        -8.526843083522053
      ],
      [
        "▁Wait",
        -8.528611403351643
      ],
      [
        "▁course",
        -8.533262776821353
      ],
      [
        "▁each",
        -8.53405516160828
      ],
      [
        "▁anyone",
        -8.53445945733018
      ],
      [
        "▁taking",
        -8.535095569578374
      ],
      [
        "▁while",
        -8.539721201468785
      ],
      [
        "▁job",
        -8.542120733635
      ],
      [
        "▁please",
        -8.55050583246815
      ],
      [
        "▁move",
        -8.55333408676925
      ],
      [
        "▁eat",
        -8.554488079322082
      ],
      [
        "▁working",
        -8.559089246231224
      ],
      [
        "▁end",
        -8.562468231389543
      ],
      [
        "w",
        -8.562498041335344
      ],
      [
        "▁probably",
        -8.564754275163466
      ],
      [
        "▁says",
        -8.56868337915777
      ],
      [
        "▁Would",
        -8.57488062236876
      ],
      [
        "k",
        -8.575401412006672
      ],
      [
        "▁mother",
        -8.577187433789788
      ],
      [
        "▁far",
        -8.58686789082361
      ],
      [
        "▁away.",
        -8.589500841477944
      ],
      [
        "▁Excuse",
        -8.592321063111164
      ],
      [
        "▁something.",
        -8.593773037605642
      ],
      [
        "▁turn",
        -8.594445178791753
      ],
      [
        "▁friend",
        -8.5983794652229
      ],
      [
        "▁We've",
        -8.598806631894682
      ],
      [
        "▁it!",
        -8.59940813723792
      ],
      [
        "c",
        -8.599877371403496
      ],
      [
        "▁fine.",
        -8.608003809148371
      ],
      [
        "▁do?",
        -8.612672687755344
      ],
      [
        "▁Hello,",
        -8.614601200315924
      ],
      [
        "▁quite",
        -8.614605071371193
      ],
      [
        "▁fucking",
        -8.614618792040835
      ],
      [
        "▁life.",
        -8.616372044314032
      ],
      [
        "▁His",
        -8.618694754408232
      ],
      [
        "▁gone",
        -8.621455312423821
      ],
      [
        "▁aren't",
        -8.626671512529992
      ],
      [
        "▁day.",
        -8.630738230299853
      ],
      [
        "▁well.",
        -8.638116422680628
      ],
      [
        "▁part",
        -8.638421615881917
      ],
      [
        "▁supposed",
        -8.641511544534524
      ],
      [
        "▁thing.",
        -8.647339152256013
      ],
      [
        "▁son",
        -8.65051627674639
      ],
      [
        "▁yourself",
        -8.658354889832712
      ],
      [
        "▁woman",
        -8.660051920857814
      ],
      [
        "▁read",
        -8.667538473295746
      ],
      [
        "▁knows",
        -8.668438810739739
      ],
      [
        "▁matter",
        -8.669225510348914
      ],
      [
        "▁dead",
        -8.669500099070179
      ],
      [
        "▁Stop",
        -8.669712542314876
      ],
      [
        "▁young",
        -8.670587158003391
      ],
      [
        "▁waiting",
        -8.672568907789278
      ],
      [
        "▁saying",
        -8.673043231363156
      ],
      [
        "▁actually",
        -8.675307012712137
      ],
      [
        "▁Dr.",
        -8.683902737528625
      ],
      [
        "▁up,",
        -8.684098267016754
      ],
      [
        "▁makes",
        -8.68474541499183
      ],
      [
        "Uh,",
        -8.685802579341464
      ],
      [
        "▁wish",
        -8.687735119208606
      ],
      [
        "▁soon",
        -8.6883551789026
      ],
      [
        "▁once",
        -8.695177457291019
      ],
      [
        "▁family",
        -8.695288295325266
      ],
      [
        "▁THE",
        -8.696348940355731
      ],
      [
        "▁making",
        -8.69668224345187
      ],
      [
        "▁against",
        -8.697626428092331
      ],
      [
        "▁means",
        -8.702138070430308
      ],
      [
        "▁open",
        -8.704123917758267
      ],
      [
        "Now,",
        -8.704454206196937
      ],
      [
        "▁Thanks",
        -8.70678632275103
      ],
      [
        "▁off.",
        -8.7082669458767
      ],
      [
        "▁exactly",
        -8.709189693698457
      ],
      [
        "▁sit",
        -8.709475259062451
      ],
      [
        "▁work.",
        -8.710898337657586
      ],
      [
        "▁Be",
        -8.711795149380777
      ],
      [
        "▁thinking",
        -8.71213832704566
      ],
      [
        "▁afraid",
        -8.71443875460087
      ],
      [
        "▁check",
        -8.71589082612415
      ],
      [
        "▁speak",
        -8.716672903913553
      ],
      [
        "▁hit",
        -8.717111649865528
      ],
      [
        "to",
        -8.721517568683343
      ],
      [
        "▁brought",
        -8.722257776175288
      ],
      [
        "▁there,",
        -8.723655334633227
      ],
      [
        "▁me!",
        -8.727274133353966
      ],
      [
        "▁him,",
        -8.729930270950346
      ],
      [
        "▁police",
        -8.730910102492448
      ],
      [
        "▁idea",
        -8.73439027859263
      ],
      [
        "▁Me",
        -8.73999932040196
      ],
      [
        "▁we've",
        -8.741266547709648
      ],
      [
        "▁days",
        -8.746490984535823
      ],
      [
        "▁forget",
        -8.749559088969818
      ],
      [
        "▁ain't",
        -8.749707628650631
      ],
      [
        "▁hurt",
        -8.75029660310382
      ],
      [
        "▁die",
        -8.751744433180141
      ],
      [
        "▁Mrs.",
        -8.752487508128679
      ],
      [
        "▁God",
        -8.753549354017428
      ],
      [
        "▁wife",
        -8.75420740000676
      ],
      [
        "▁happy",
        -8.754576771227663
      ],
      [
        "▁world",
        -8.759340113404152
      ],
      [
        "▁hold",
        -8.762470375478284
      ],
      [
        "▁rest",
        -8.76976215462539
      ],
      [
        "▁buy",
        -8.771687769426475
      ],
      [
        "▁Does",
        -8.772776019489063
      ],
      [
        "▁couple",
        -8.775227072583474
      ],
      [
        "▁uh,",
        -8.77951333964059
      ],
      [
        "▁course.",
        -8.781284706986218
      ],
      [
        "▁today.",
        -8.781532016719664
      ],
      [
        "S",
        -8.781873425707232
      ],
      [
        "▁all.",
        -8.782453501537907
      ],
      [
        "▁fuck",
        -8.783568443047589
      ],
      [
        "▁change",
        -8.78377927733608
      ],
      [
        "▁send",
        -8.783803645686687
      ],
      [
        "▁Nothing",
        -8.784581349210752
      ],
      [
        "▁On",
        -8.786062241374877
      ],
      [
        "▁ready",
        -8.788270983764727
      ],
      [
        "▁anything.",
        -8.790975248053384
      ],
      [
        "▁boy",
        -8.792247723746831
      ],
      [
        "▁ago.",
        -8.79271886432283
      ],
      [
        "▁room",
        -8.793772469791964
      ],
      [
        "▁set",
        -8.798929435198604
      ],
      [
        "▁Very",
        -8.800183348931427
      ],
      [
        "▁telling",
        -8.800271016528013
      ],
      [
        "▁Why?",
        -8.804523989540698
      ],
      [
        "it",
        -8.808160849781023
      ],
      [
        "▁between",
        -8.81678055148749
      ],
      [
        "▁her?",
        -8.818592220334343
      ],
      [
        "▁comes",
        -8.818919154747737
      ],
      [
        "▁sorry,",
        -8.819848339309914
      ],
      [
        "▁Which",
        -8.821335903203293
      ],
      [
        "▁Even",
        -8.82540326696735
      ],
      [
        "▁person",
        -8.82985558133613
      ],
      [
        "▁Our",
        -8.830563071863637
      ],
      [
        "▁five",
        -8.833061424979691
      ],
      [
        "▁no,",
        -8.833534771230587
      ],
      [
        "▁TO",
        -8.837073106748305
      ],
      [
        "or",
        -8.839378529157738
      ],
      [
        "▁met",
        -8.84135921212097
      ],
      [
        "▁watch",
        -8.841731930331303
      ],
      [
        "▁S",
        -8.842361634409725
      ],
      [
        "▁seems",
        -8.843334340108957
      ],
      [
        "▁money.",
        -8.843878244742704
      ],
      [
        "▁hand",
        -8.845266006560491
      ],
      [
        "▁dad",
        -8.845596760139932
      ],
      [
        "▁fine",
        -8.851872503448323
      ],
      [
        "▁These",
        -8.852891494034678
      ],
      [
        "▁tried",
        -8.854942602010338
      ],
      [
        "▁sent",
        -8.856035425433221
      ],
      [
        "▁kids",
        -8.858842888460659
      ],
      [
        "▁Was",
        -8.859452221113079
      ],
      [
        "▁gets",
        -8.861480875261917
      ],
      [
        "▁word",
        -8.86474640880935
      ],
      [
        "▁close",
        -8.87159790831986
      ],
      [
        "▁phone",
        -8.872844659255362
      ],
      [
        "▁goes",
        -8.876848878640134
      ],
      [
        "▁Well",
        -8.878995283514168
      ],
      [
        "▁cut",
        -8.879950951479108
      ],
      [
        "▁baby",
        -8.882530861185044
      ],
      [
        "▁half",
        -8.886688927592862
      ],
      [
        "▁deal",
        -8.887482200622935
      ],
      [
        "▁An",
        -8.8933710772612
      ],
      [
        "▁almost",
        -8.897078118120168
      ],
      [
        "▁morning.",
        -8.898303197739672
      ],
      [
        "▁true",
        -8.898489968740284
      ],
      [
        "▁Really?",
        -8.89877393649218
      ],
      [
        "▁drink",
        -8.901480481655774
      ],
      [
        "▁After",
        -8.903999472416434
      ],
      [
        "▁behind",
        -8.904269089398419
      ],
      [
        "▁stuff",
        -8.909723700516777
      ],
      [
        "▁needs",
        -8.910006210131403
      ],
      [
        "▁school",
        -8.913859034678152
      ],
      [
        "▁everyone",
        -8.917004154266012
      ],
      [
        "▁yet.",
        -8.918444505195637
      ],
      [
        "▁reason",
        -8.918720248039667
      ],
      [
        "▁much.",
        -8.92041157217287
      ],
      [
        "▁fight",
        -8.922206991576521
      ],
      [
        "▁important",
        -8.924057211931126
      ],
      [
        "▁okay.",
        -8.928738413238193
      ],
      [
        "▁face",
        -8.930410502746808
      ],
      [
        "▁become",
        -8.931635482851407
      ],
      [
        "▁house.",
        -8.932050040424402
      ],
      [
        "▁place.",
        -8.933041311805553
      ],
      [
        "▁May",
        -8.93492118674068
      ],
      [
        "▁time,",
        -8.937908157443168
      ],
      [
        "▁Some",
        -8.939727194821968
      ],
      [
        "▁second",
        -8.940227905562852
      ],
      [
        "▁different",
        -8.942129398068055
      ],
      [
        "▁shouldn't",
        -8.943468780041824
      ],
      [
        "▁Hey.",
        -8.943598693265583
      ],
      [
        "▁Could",
        -8.947428223813514
      ],
      [
        "▁happen",
        -8.948347793533173
      ],
      [
        "▁no.",
        -8.949401654757926
      ],
      [
        "▁stand",
        -8.952864094084578
      ],
      [
        "▁worry",
        -8.953302400604152
      ],
      [
        "▁Any",
        -8.9581890962122
      ],
      [
        "▁full",
        -8.95897011005232
      ],
      [
        "▁Can't",
        -8.961603660271841
      ],
      [
        "▁Only",
        -8.963697269625467
      ],
      [
        "▁listen",
        -8.965532318790718
      ],
      [
        "▁shall",
        -8.96869808330991
      ],
      [
        "▁business",
        -8.96971866019736
      ],
      [
        "▁body",
        -8.969776073222096
      ],
      [
        "▁save",
        -8.970863708236283
      ],
      [
        "▁break",
        -8.970983226144225
      ],
      [
        "▁front",
        -8.974728880507099
      ],
      [
        "▁pick",
        -8.9764691123431
      ],
      [
        "▁walk",
        -8.977218199111366
      ],
      [
        "▁miss",
        -8.9772654145059
      ],
      [
        "▁friends",
        -8.979164069034338
      ],
      [
        "▁started",
        -8.98052463709442
      ],
      [
        "▁Isn't",
        -8.981431712176382
      ],
      [
        "▁four",
        -8.981772060611185
      ],
      [
        "▁heart",
        -8.986513501241015
      ],
      [
        "▁taken",
        -8.98661518093666
      ],
      [
        "▁hate",
        -8.98777954238472
      ],
      [
        "▁together.",
        -8.988095531049632
      ],
      [
        "▁Two",
        -8.991335637605676
      ],
      [
        "▁then.",
        -8.99290030611454
      ],
      [
        "▁chance",
        -8.994671643910026
      ],
      [
        "▁sleep",
        -8.996171671291894
      ],
      [
        "▁seem",
        -8.998363493411155
      ],
      [
        "▁blood",
        -9.000016273432607
      ],
      [
        "▁years.",
        -9.003655508227125
      ],
      [
        "▁myself",
        -9.0079440586798
      ],
      [
        "▁shot",
        -9.01117012859398
      ],
      [
        "▁late",
        -9.011883610769468
      ],
      [
        "▁trust",
        -9.013643577831036
      ],
      [
        "▁Who's",
        -9.014948488681046
      ],
      [
        "▁dead.",
        -9.0174685843846
      ],
      [
        "al",
        -9.02182073920289
      ],
      [
        "▁New",
        -9.03212197000987
      ],
      [
        "▁who's",
        -9.035065526225406
      ],
      [
        "▁Keep",
        -9.035872349776072
      ],
      [
        "Ah,",
        -9.036085279717582
      ],
      [
        "▁know?",
        -9.036818687328148
      ],
      [
        "▁asking",
        -9.037462062725474
      ],
      [
        "▁say?",
        -9.043105654063089
      ],
      [
        "▁shit",
        -9.044264880231747
      ],
      [
        "'d",
        -9.048870709923603
      ],
      [
        "▁mom",
        -9.049941840192782
      ],
      [
        "▁Nice",
        -9.050807584641962
      ],
      [
        "▁beautiful",
        -9.054320673329528
      ],
      [
        "▁alone",
        -9.054962683680058
      ],
      [
        "▁tonight.",
        -9.056256468893164
      ],
      [
        "th",
        -9.056628746845456
      ],
      [
        "▁somebody",
        -9.057709561988489
      ],
      [
        "▁side",
        -9.058596734897415
      ],
      [
        "▁died",
        -9.059556867351535
      ],
      [
        "▁brother",
        -9.060011294092424
      ],
      [
        "▁Her",
        -9.06008776675162
      ],
      [
        "▁Sorry,",
        -9.06038948351497
      ],
      [
        "▁sort",
        -9.060684047816547
      ],
      [
        "▁From",
        -9.06076896200836
      ],
      [
        "▁tomorrow.",
        -9.061899926694146
      ],
      [
        "▁fun",
        -9.062054128197447
      ],
      [
        "▁easy",
        -9.064294035994184
      ],
      [
        "▁again",
        -9.064307916819
      ],
      [
        "▁hands",
        -9.06588749191804
      ],
      [
        "▁happened?",
        -9.066864156497768
      ],
      [
        "▁By",
        -9.068011895676651
      ],
      [
        "▁glad",
        -9.074421580177326
      ],
      [
        "▁lose",
        -9.07754272390883
      ],
      [
        "▁yourself.",
        -9.078892925094316
      ],
      [
        "▁running",
        -9.079345902150374
      ],
      [
        "▁Got",
        -9.081658579657354
      ],
      [
        "▁kid",
        -9.08750297542167
      ],
      [
        "▁10",
        -9.087937402060428
      ],
      [
        "▁point",
        -9.089171058685688
      ],
      [
        "▁later.",
        -9.089693498576484
      ],
      [
        "er.",
        -9.090888819139252
      ],
      [
        "▁answer",
        -9.091210358423613
      ],
      [
        "▁did.",
        -9.091832264155126
      ],
      [
        "▁hours",
        -9.09249007983734
      ],
      [
        "▁problem",
        -9.095571485038024
      ],
      [
        "▁How's",
        -9.095711070753747
      ],
      [
        "▁us?",
        -9.09804646610985
      ],
      [
        "▁Listen,",
        -9.101676600666032
      ],
      [
        "▁dear",
        -9.10326605742803
      ],
      [
        "▁Mom",
        -9.104479015953537
      ],
      [
        "▁high",
        -9.106741756697891
      ],
      [
        "▁yet",
        -9.108018176585103
      ],
      [
        "▁Right",
        -9.108343800931303
      ],
      [
        "▁room.",
        -9.10835604202203
      ],
      [
        "▁Right.",
        -9.11064612128134
      ],
      [
        "▁inside",
        -9.110945054317371
      ],
      [
        "▁husband",
        -9.11291317006907
      ],
      [
        "▁job.",
        -9.1146761864202
      ],
      [
        "▁living",
        -9.114766344780854
      ],
      [
        "▁anymore.",
        -9.115480362041373
      ],
      [
        "▁free",
        -9.117133087140951
      ],
      [
        "▁them?",
        -9.117646588464474
      ],
      [
        "▁gun",
        -9.119675714744693
      ],
      [
        "▁over.",
        -9.126211638854745
      ],
      [
        "▁together",
        -9.126533237355805
      ],
      [
        "▁up?",
        -9.130121845943302
      ],
      [
        "▁feeling",
        -9.130550672216318
      ],
      [
        "▁idea.",
        -9.131783307607533
      ],
      [
        "▁everything.",
        -9.132892293784016
      ],
      [
        "▁water",
        -9.133343594030771
      ],
      [
        "▁understand.",
        -9.134132885516344
      ],
      [
        "▁times",
        -9.135623067126367
      ],
      [
        "▁news",
        -9.13780685879186
      ],
      [
        "▁Didn't",
        -9.13781538327754
      ],
      [
        "▁I...",
        -9.139747400727506
      ],
      [
        "▁alone.",
        -9.140042128780618
      ],
      [
        "▁Thanks.",
        -9.141864497894344
      ],
      [
        "▁O",
        -9.14198778490721
      ],
      [
        "▁number",
        -9.142459502794294
      ],
      [
        "▁Dad",
        -9.144759348389204
      ],
      [
        "▁rather",
        -9.1461602226589
      ],
      [
        "▁help.",
        -9.146248039309391
      ],
      [
        "▁Put",
        -9.14684639210786
      ],
      [
        "▁minute.",
        -9.148593510455882
      ],
      [
        "▁whatever",
        -9.14972965894847
      ],
      [
        "▁crazy",
        -9.149866720036432
      ],
      [
        "▁girl.",
        -9.151925383020382
      ],
      [
        "▁order",
        -9.152888434974503
      ],
      [
        "▁Never",
        -9.154176637961928
      ],
      [
        "▁its",
        -9.15501450771367
      ],
      [
        "▁Yes",
        -9.156149409807725
      ],
      [
        "▁B",
        -9.156666424535445
      ],
      [
        "▁Oh.",
        -9.157264959875992
      ],
      [
        "▁yeah.",
        -9.157752711889094
      ],
      [
        "▁way,",
        -9.158956629499658
      ],
      [
        "▁people.",
        -9.159439858165875
      ],
      [
        "▁women",
        -9.159935486432955
      ],
      [
        "▁eyes",
        -9.160276892186424
      ],
      [
        "▁here!",
        -9.161294332044683
      ],
      [
        "▁yes.",
        -9.165755604811338
      ],
      [
        "▁small",
        -9.16668190182761
      ],
      [
        "▁cannot",
        -9.170721675518664
      ],
      [
        "▁minutes",
        -9.171497685315032
      ],
      [
        "▁Sorry",
        -9.171504418151212
      ],
      [
        "▁damn",
        -9.175183083157105
      ],
      [
        "ar",
        -9.178765364732165
      ],
      [
        "▁stupid",
        -9.17885997935442
      ],
      [
        "▁catch",
        -9.1793096110202
      ],
      [
        "ed.",
        -9.187151774526168
      ],
      [
        "▁months",
        -9.188722768982965
      ],
      [
        "▁mean?",
        -9.190375605916644
      ],
      [
        "▁friend.",
        -9.191692977057226
      ],
      [
        "▁car.",
        -9.192771040474366
      ],
      [
        "▁myself.",
        -9.194814875321354
      ],
      [
        "▁God,",
        -9.195420856667122
      ],
      [
        "▁past",
        -9.195509145724174
      ],
      [
        "▁weren't",
        -9.19597236348824
      ],
      [
        "▁20",
        -9.196152230376432
      ],
      [
        "▁hot",
        -9.197112736361523
      ],
      [
        "▁nothing.",
        -9.200061055211766
      ],
      [
        "▁death",
        -9.200667887441478
      ],
      [
        "▁along",
        -9.202426163989925
      ],
      [
        "▁playing",
        -9.203625613385192
      ],
      [
        "▁up!",
        -9.204383042060186
      ],
      [
        "▁fire",
        -9.205637913590298
      ],
      [
        "▁power",
        -9.207155750765
      ],
      [
        "▁problem.",
        -9.20950114128792
      ],
      [
        "▁again?",
        -9.20960400546985
      ],
      [
        "▁touch",
        -9.210793664390506
      ],
      [
        "▁Something",
        -9.211116727029106
      ],
      [
        "▁great.",
        -9.21185226737506
      ],
      [
        "▁six",
        -9.212959434364528
      ],
      [
        "▁till",
        -9.220700511365594
      ],
      [
        "▁girls",
        -9.224371212502252
      ],
      [
        "Hi,",
        -9.225659695803854
      ],
      [
        "▁married",
        -9.22664435472438
      ],
      [
        "▁Hold",
        -9.228825923761054
      ],
      [
        "▁party",
        -9.230799970374736
      ],
      [
        "▁late.",
        -9.232358584591736
      ],
      [
        "▁sign",
        -9.23305384320531
      ],
      [
        "▁leaving",
        -9.23406898800184
      ],
      [
        "▁see.",
        -9.237762201138985
      ],
      [
        "▁First",
        -9.238415084885268
      ],
      [
        "▁happens",
        -9.239213541960655
      ],
      [
        "▁boys",
        -9.242566199283576
      ],
      [
        "▁enough.",
        -9.24316868017804
      ],
      [
        "▁write",
        -9.243309448122318
      ],
      [
        "▁before.",
        -9.246540239907937
      ],
      [
        "▁Those",
        -9.247568358507465
      ],
      [
        "▁sound",
        -9.249064228072774
      ],
      [
        "▁about?",
        -9.249238845722187
      ],
      [
        "▁but...",
        -9.250728043190604
      ],
      [
        "▁bed",
        -9.2525265661436
      ],
      [
        "▁days.",
        -9.25438647185492
      ],
      [
        "▁course,",
        -9.256464458744658
      ],
      [
        "▁mind.",
        -9.25826659354109
      ],
      [
        "▁game",
        -9.260509866950496
      ],
      [
        "▁Everything",
        -9.260846354850278
      ],
      [
        "▁Perhaps",
        -9.262169965439384
      ],
      [
        "▁Say",
        -9.264281799654835
      ],
      [
        "▁year",
        -9.266694641296295
      ],
      [
        "▁wonder",
        -9.26824987442074
      ],
      [
        "▁C",
        -9.269920984880171
      ],
      [
        "▁he'll",
        -9.270999641550937
      ],
      [
        "▁plan",
        -9.271049348316554
      ],
      [
        "▁then?",
        -9.271483179387433
      ],
      [
        "▁book",
        -9.272623501119789
      ],
      [
        "▁door",
        -9.276975782134274
      ],
      [
        "▁special",
        -9.27725181593128
      ],
      [
        "▁worth",
        -9.278230869444696
      ],
      [
        "▁Leave",
        -9.278625274004934
      ],
      [
        "▁parents",
        -9.284566436676783
      ],
      [
        "▁going?",
        -9.285514489050165
      ],
      [
        "▁learn",
        -9.28555158194259
      ],
      [
        "▁town",
        -9.285784387492209
      ],
      [
        "▁child",
        -9.287548540530594
      ],
      [
        "▁war",
        -9.288664861029028
      ],
      [
        "▁food",
        -9.290072252482751
      ],
      [
        "▁shoot",
        -9.290438908877904
      ],
      [
        "▁Hey",
        -9.290577243031514
      ],
      [
        "▁seeing",
        -9.290903288618482
      ],
      [
        "▁\"?",
        -9.291113120419384
      ],
      [
        "▁better.",
        -9.291135666994895
      ],
      [
        "▁drive",
        -9.291771935844771
      ],
      [
        "▁outside",
        -9.29354231652334
      ],
      [
        "man",
        -9.295081398790163
      ],
      [
        "▁calling",
        -9.295517721488965
      ],
      [
        "▁worked",
        -9.299403701671224
      ],
      [
        "▁Good.",
        -9.300147201909304
      ],
      [
        "▁sick",
        -9.300759326610828
      ],
      [
        "▁things.",
        -9.302268104094257
      ],
      [
        "▁mine",
        -9.30254202016055
      ],
      [
        "▁About",
        -9.303613375191985
      ],
      [
        "us",
        -9.30364459422156
      ],
      [
        "▁black",
        -9.304249794698473
      ],
      [
        "▁tomorrow",
        -9.304737456880266
      ],
      [
        "▁trouble",
        -9.30516566794875
      ],
      [
        "▁daughter",
        -9.30563390724761
      ],
      [
        "▁line",
        -9.307664129564708
      ],
      [
        "▁known",
        -9.313779707397186
      ],
      [
        "▁Man",
        -9.314198118336586
      ],
      [
        "▁first.",
        -9.31441013521038
      ],
      [
        "le",
        -9.315112559097985
      ],
      [
        "▁something?",
        -9.316072863743338
      ],
      [
        "▁given",
        -9.317287570245972
      ],
      [
        "▁cause",
        -9.317537861630733
      ],
      [
        "▁looked",
        -9.31954684824612
      ],
      [
        "▁more.",
        -9.320508395187352
      ],
      [
        "▁business.",
        -9.326486624481388
      ],
      [
        "▁meeting",
        -9.328030055822603
      ],
      [
        "▁us,",
        -9.328659977187124
      ],
      [
        "▁night,",
        -9.332021034187733
      ],
      [
        "▁clear",
        -9.334142237049749
      ],
      [
        "▁People",
        -9.334650925096131
      ],
      [
        "▁D",
        -9.33501671175313
      ],
      [
        "▁2",
        -9.335374601272225
      ],
      [
        "me",
        -9.336300723047197
      ],
      [
        "▁Hello.",
        -9.338132932131186
      ],
      [
        "▁Am",
        -9.340431252636066
      ],
      [
        "▁boy.",
        -9.340629029380189
      ],
      [
        "▁name?",
        -9.342148831126586
      ],
      [
        "▁return",
        -9.343298416895797
      ],
      [
        "▁hasn't",
        -9.343868280243376
      ],
      [
        "▁team",
        -9.344243821792928
      ],
      [
        "▁figure",
        -9.344334827296844
      ],
      [
        "▁question",
        -9.346192401907915
      ],
      [
        "▁poor",
        -9.348603901856883
      ],
      [
        "▁explain",
        -9.34916125811575
      ],
      [
        "ing.",
        -9.349452419214428
      ],
      [
        "▁story",
        -9.349652830931898
      ],
      [
        "▁human",
        -9.351621276835855
      ],
      [
        "▁lady",
        -9.35167817012071
      ],
      [
        "▁\".",
        -9.353229156807998
      ],
      [
        "▁God.",
        -9.353622864666978
      ],
      [
        "▁Hey!",
        -9.3548129519184
      ],
      [
        "▁son.",
        -9.355742425322594
      ],
      [
        "▁expect",
        -9.359300421130529
      ],
      [
        "▁3",
        -9.359704285773248
      ],
      [
        "▁OK.",
        -9.360009499662745
      ],
      [
        "▁beat",
        -9.360862201093772
      ],
      [
        "▁again,",
        -9.363717807969904
      ],
      [
        "▁done.",
        -9.363942347431834
      ],
      [
        "▁giving",
        -9.366665454357866
      ],
      [
        "▁shut",
        -9.368500896428046
      ],
      [
        "▁Make",
        -9.368673521519638
      ],
      [
        "▁Sure.",
        -9.368781479322942
      ],
      [
        "▁light",
        -9.36964712630152
      ],
      [
        "▁wrong.",
        -9.372715667953228
      ],
      [
        "▁Shut",
        -9.374697379181962
      ],
      [
        "▁M",
        -9.37596427337851
      ],
      [
        "▁Looks",
        -9.376573079449653
      ],
      [
        "A",
        -9.37664445860051
      ],
      [
        "▁No!",
        -9.37810504324763
      ],
      [
        "´",
        -9.37906262009322
      ],
      [
        "▁say,",
        -9.37930680543977
      ],
      [
        "▁out,",
        -9.379507407207996
      ],
      [
        "▁sell",
        -9.383557158845448
      ],
      [
        "▁suppose",
        -9.38512160840459
      ],
      [
        "▁Hi",
        -9.38528878655566
      ],
      [
        "▁anybody",
        -9.387650523552052
      ],
      [
        "▁turned",
        -9.387974783633116
      ],
      [
        "▁safe",
        -9.388724310479065
      ],
      [
        "▁morning",
        -9.38905420321967
      ],
      [
        "▁else.",
        -9.390000550544729
      ],
      [
        "▁follow",
        -9.391150961846622
      ],
      [
        "▁guy.",
        -9.392319405560924
      ],
      [
        "▁lives",
        -9.396256584245926
      ],
      [
        "▁dog",
        -9.39658933462692
      ],
      [
        "▁father.",
        -9.39771865302906
      ],
      [
        "$",
        -9.399784792027486
      ],
      [
        "OK,",
        -9.399961678637675
      ],
      [
        "▁worry.",
        -9.400552143791126
      ],
      [
        "▁T",
        -9.400590694691449
      ],
      [
        "▁then,",
        -9.40349873841905
      ],
      [
        "▁ten",
        -9.403776951010691
      ],
      [
        "▁clean",
        -9.405250125188044
      ],
      [
        "▁around.",
        -9.405336049861686
      ],
      [
        "▁felt",
        -9.406378180819312
      ],
      [
        "▁He'll",
        -9.408610400862974
      ],
      [
        "▁Hi.",
        -9.408809798600846
      ],
      [
        "▁Lord",
        -9.409565366592725
      ],
      [
        "yeah,",
        -9.41174204151811
      ],
      [
        "▁Captain",
        -9.41239459592485
      ],
      [
        "v",
        -9.415114106117835
      ],
      [
        "▁G",
        -9.417417655071068
      ],
      [
        "▁top",
        -9.4215478743096
      ],
      [
        "▁worried",
        -9.423652774227737
      ],
      [
        "▁luck",
        -9.425563498851036
      ],
      [
        "▁morning,",
        -9.426191118135604
      ],
      [
        "▁kept",
        -9.426382188125592
      ],
      [
        "▁boss",
        -9.428403971569004
      ],
      [
        ";",
        -9.428711624542856
      ],
      [
        "▁doctor",
        -9.429209709601738
      ],
      [
        "▁family.",
        -9.43023197178103
      ],
      [
        "▁truth",
        -9.430381008076406
      ],
      [
        "▁marry",
        -9.431395576460842
      ],
      [
        "▁Think",
        -9.431674985408884
      ],
      [
        "▁Call",
        -9.432224685832958
      ],
      [
        "▁P",
        -9.433135782333604
      ],
      [
        "▁true.",
        -9.433668270820505
      ],
      [
        "▁Sorry.",
        -9.435959598464132
      ],
      [
        "▁today",
        -9.437749682701083
      ],
      [
        "▁talked",
        -9.43802326025932
      ],
      [
        "in'",
        -9.438188805042548
      ],
      [
        "▁mine.",
        -9.440665742983782
      ],
      [
        "▁scared",
        -9.44124996060554
      ],
      [
        "▁hour",
        -9.441757471395803
      ],
      [
        "▁world.",
        -9.443643323124688
      ],
      [
        "s...",
        -9.446226270358896
      ],
      [
        "▁Stay",
        -9.446323365676896
      ],
      [
        "▁Aren't",
        -9.447109524588177
      ],
      [
        "▁Since",
        -9.448632444565416
      ],
      [
        "▁down,",
        -9.449688073495468
      ],
      [
        "▁needed",
        -9.452949009450087
      ],
      [
        "▁decided",
        -9.453017906041028
      ],
      [
        "▁throw",
        -9.453073878104515
      ],
      [
        "▁piece",
        -9.45364572808984
      ],
      [
        "▁minutes.",
        -9.454697738640958
      ],
      [
        "▁Want",
        -9.460787904545034
      ],
      [
        "▁Has",
        -9.46139244092796
      ],
      [
        "▁drop",
        -9.461876205959728
      ],
      [
        "▁Sir",
        -9.46295617574619
      ],
      [
        "▁go?",
        -9.4647640602986
      ],
      [
        "▁handle",
        -9.465590823709212
      ],
      [
        "▁soon.",
        -9.467395822931213
      ],
      [
        "▁Father",
        -9.468331205254104
      ],
      [
        "▁bad.",
        -9.469179415961683
      ],
      [
        "▁loved",
        -9.472075139887965
      ],
      [
        "▁white",
        -9.472762090879987
      ],
      [
        "▁Remember",
        -9.47383510591782
      ],
      [
        "▁wrong?",
        -9.474440785559604
      ],
      [
        "▁Jack",
        -9.475007329820311
      ],
      [
        "▁It'll",
        -9.476054151078722
      ],
      [
        "▁eye",
        -9.476158766994756
      ],
      [
        "▁Someone",
        -9.47625480174908
      ],
      [
        "▁sister",
        -9.476363766448152
      ],
      [
        "▁so.",
        -9.476827149758826
      ],
      [
        "▁everybody",
        -9.48000971088374
      ],
      [
        "▁caught",
        -9.480228436285971
      ],
      [
        "▁de",
        -9.482259737192187
      ],
      [
        "▁he'd",
        -9.482532443614645
      ],
      [
        "▁Sure",
        -9.482699614211738
      ],
      [
        "▁finally",
        -9.482893042434949
      ],
      [
        "▁changed",
        -9.48310953317088
      ],
      [
        "▁John",
        -9.483417922445746
      ],
      [
        "▁sounds",
        -9.483479827665647
      ],
      [
        "▁wear",
        -9.484274924056391
      ],
      [
        "Y",
        -9.484630827374552
      ],
      [
        "▁cold",
        -9.484769623111966
      ],
      [
        "▁they'll",
        -9.48694341897354
      ],
      [
        "▁fall",
        -9.487403701916922
      ],
      [
        "▁less",
        -9.488082889307108
      ],
      [
        "▁paid",
        -9.489325088360088
      ],
      [
        "▁hair",
        -9.489455790652595
      ],
      [
        "▁Here's",
        -9.491302660069383
      ],
      [
        "▁baby.",
        -9.495020819570115
      ],
      [
        "▁takes",
        -9.495033252945902
      ],
      [
        "▁near",
        -9.495548099566385
      ],
      [
        "▁anyway.",
        -9.49561436906172
      ],
      [
        "▁friends.",
        -9.4965324003234
      ],
      [
        "▁Still",
        -9.49953697306013
      ],
      [
        "▁say.",
        -9.499898633390528
      ],
      [
        "▁bought",
        -9.5011471777493
      ],
      [
        "yes,",
        -9.501534062188334
      ],
      [
        "▁Uncle",
        -9.5035580309796
      ],
      [
        "▁join",
        -9.504494581528872
      ],
      [
        "▁finish",
        -9.50483309986384
      ],
      [
        "▁lie",
        -9.507162457973545
      ],
      [
        "▁thanks",
        -9.507433684078316
      ],
      [
        "▁million",
        -9.507905795788483
      ],
      [
        "▁them,",
        -9.509088769379565
      ],
      [
        "▁hang",
        -9.50956880279488
      ],
      [
        "▁Nobody",
        -9.510702404581368
      ],
      [
        "▁pull",
        -9.511151375975135
      ],
      [
        "▁office",
        -9.511286788570184
      ],
      [
        "▁sex",
        -9.511847615099626
      ],
      [
        "▁longer",
        -9.51360622204564
      ],
      [
        "▁her,",
        -9.515366171437126
      ],
      [
        "▁Right,",
        -9.515907388077904
      ],
      [
        "▁day,",
        -9.516195568988891
      ],
      [
        "▁Ma",
        -9.516533993154574
      ],
      [
        "▁Every",
        -9.517867471379155
      ],
      [
        "▁red",
        -9.519382885189131
      ],
      [
        "▁name.",
        -9.51985551851347
      ],
      [
        "▁sure.",
        -9.52002836934761
      ],
      [
        "▁ran",
        -9.520100960751725
      ],
      [
        "▁nice.",
        -9.52040813977528
      ],
      [
        "▁1",
        -9.520741912680776
      ],
      [
        "▁AND",
        -9.521288470768408
      ],
      [
        "▁meant",
        -9.52281270769322
      ],
      [
        "▁win",
        -9.523607316518076
      ],
      [
        "▁week.",
        -9.525667390490998
      ],
      [
        "▁Anything",
        -9.525704520335522
      ],
      [
        "▁Hello?",
        -9.526613437045755
      ],
      [
        "▁early",
        -9.531668679929714
      ],
      [
        "▁school.",
        -9.53224372362742
      ],
      [
        "▁murder",
        -9.533066998798033
      ],
      [
        "do",
        -9.53308092795469
      ],
      [
        "▁mother.",
        -9.534424764633297
      ],
      [
        "▁dinner",
        -9.53514812257564
      ],
      [
        "▁E",
        -9.53518999298932
      ],
      [
        "▁5",
        -9.536604957965324
      ],
      [
        "▁30",
        -9.539496479418268
      ],
      [
        "▁sir?",
        -9.541359283676735
      ],
      [
        "▁Should",
        -9.54144104024352
      ],
      [
        "▁IT",
        -9.545223970790312
      ],
      [
        "▁nobody",
        -9.54624275027471
      ],
      [
        "▁spend",
        -9.54624435156756
      ],
      [
        "▁straight",
        -9.547563490242606
      ],
      [
        "▁Listen",
        -9.547582313435004
      ],
      [
        "▁said,",
        -9.54769838668483
      ],
      [
        "▁sir,",
        -9.548257201045272
      ],
      [
        "▁un",
        -9.549599544378738
      ],
      [
        "be",
        -9.549877048501692
      ],
      [
        "▁ago",
        -9.55059921784466
      ],
      [
        "ers",
        -9.550636318052923
      ],
      [
        "▁guys.",
        -9.551525824486262
      ],
      [
        "Sir,",
        -9.553327832977525
      ],
      [
        "▁Shall",
        -9.555900499466466
      ],
      [
        "▁protect",
        -9.556463762919003
      ],
      [
        "▁air",
        -9.560763261462135
      ],
      [
        "▁promise",
        -9.561518515739625
      ],
      [
        "est",
        -9.562574582227295
      ],
      [
        "▁cool",
        -9.562629224690586
      ],
      [
        "▁Damn",
        -9.563323475378963
      ],
      [
        "▁sense",
        -9.563856099200242
      ],
      [
        "▁watching",
        -9.565957673557351
      ],
      [
        "▁Three",
        -9.567419890956833
      ],
      [
        "▁fix",
        -9.567540776094434
      ],
      [
        "▁it'll",
        -9.56786178304074
      ],
      [
        "▁brother.",
        -9.56916811315478
      ],
      [
        "▁Yeah?",
        -9.569312942225492
      ],
      [
        "▁Whatever",
        -9.5724111043817
      ],
      [
        "▁Mrs",
        -9.573878268383304
      ],
      [
        "▁please?",
        -9.576099548510026
      ],
      [
        "▁Everyone",
        -9.578517444626073
      ],
      [
        "▁certainly",
        -9.57983809913344
      ],
      [
        "▁week",
        -9.582075698689524
      ],
      [
        "▁F",
        -9.582160088289758
      ],
      [
        "▁moment",
        -9.58281612989548
      ],
      [
        "▁secret",
        -9.58495668794336
      ],
      [
        "▁time?",
        -9.58529507722978
      ],
      [
        "▁short",
        -9.587093530365928
      ],
      [
        "▁report",
        -9.58710511064032
      ],
      [
        "▁children",
        -9.58799696662805
      ],
      [
        "▁fast",
        -9.588884407670657
      ],
      [
        "▁happened.",
        -9.59048209749738
      ],
      [
        "▁Try",
        -9.5927246947313
      ],
      [
        "▁Welcome",
        -9.592878532813351
      ],
      [
        "▁me...",
        -9.595179370701125
      ],
      [
        "▁either.",
        -9.595542336306856
      ],
      [
        "▁missed",
        -9.597492406537304
      ],
      [
        "▁gone.",
        -9.597689109657264
      ],
      [
        "▁OK?",
        -9.597692146343508
      ],
      [
        "▁wearing",
        -9.598388461768955
      ],
      [
        "▁weeks",
        -9.59866861042025
      ],
      [
        "▁we'd",
        -9.599923984473568
      ],
      [
        "▁city",
        -9.60019280888804
      ],
      [
        "▁Sit",
        -9.601060417464716
      ],
      [
        "▁busy",
        -9.60115513012914
      ],
      [
        "▁You'd",
        -9.602342930416222
      ],
      [
        "▁More",
        -9.607415646876786
      ],
      [
        "at",
        -9.608056207315345
      ],
      [
        "▁act",
        -9.60896031497707
      ],
      [
        "▁strange",
        -9.610088119093428
      ],
      [
        "▁Too",
        -9.61146499060894
      ],
      [
        "▁lucky",
        -9.613293516687737
      ],
      [
        "▁OF",
        -9.613770930981502
      ],
      [
        "▁ride",
        -9.614446919604392
      ],
      [
        "▁broke",
        -9.616786767222802
      ],
      [
        "▁Sam",
        -9.617032652917676
      ],
      [
        "▁excuse",
        -9.617602771593296
      ],
      [
        "▁entire",
        -9.617942790872435
      ],
      [
        "▁step",
        -9.620828714761345
      ],
      [
        "▁Great",
        -9.621395988522664
      ],
      [
        "▁dream",
        -9.623424526507458
      ],
      [
        "▁too,",
        -9.6256500670731
      ],
      [
        "▁yours.",
        -9.625869702286456
      ],
      [
        "▁later",
        -9.626893999237817
      ],
      [
        "▁either",
        -9.627295054512272
      ],
      [
        "▁perfect",
        -9.631625182829636
      ],
      [
        "ll",
        -9.633161096473918
      ],
      [
        "▁wedding",
        -9.633176428929795
      ],
      [
        "▁control",
        -9.63329582534465
      ],
      [
        "▁thanks.",
        -9.634284993418763
      ],
      [
        "▁missing",
        -9.63455736359352
      ],
      [
        "no",
        -9.635241868263138
      ],
      [
        "▁saved",
        -9.637060397831714
      ],
      [
        "▁fell",
        -9.637101925572953
      ],
      [
        "Actually,",
        -9.63818468759148
      ],
      [
        "▁date",
        -9.63943299232895
      ],
      [
        "▁door.",
        -9.64088807352317
      ],
      [
        "▁pass",
        -9.642207360046209
      ],
      [
        "▁night?",
        -9.64429869445106
      ],
      [
        "▁sweet",
        -9.644614037701384
      ],
      [
        "▁himself",
        -9.64467034408727
      ],
      [
        "▁completely",
        -9.645280943011114
      ],
      [
        "ic",
        -9.64565976004321
      ],
      [
        "▁sitting",
        -9.646026222896731
      ],
      [
        "▁too?",
        -9.647186490212246
      ],
      [
        "▁definitely",
        -9.647650531542183
      ],
      [
        "▁thinks",
        -9.647723013099316
      ],
      [
        "▁letter",
        -9.648700394496474
      ],
      [
        "▁THAT",
        -9.648882851648349
      ],
      [
        "▁during",
        -9.64902234463221
      ],
      [
        "▁Nothing.",
        -9.650533564111004
      ],
      [
        "▁out?",
        -9.65243866518396
      ],
      [
        "▁moving",
        -9.652962678039012
      ],
      [
        "▁left.",
        -9.654227205010514
      ],
      [
        "▁interested",
        -9.655343092648108
      ],
      [
        "▁today?",
        -9.655736350139875
      ],
      [
        "▁back,",
        -9.655777595322787
      ],
      [
        "▁he?",
        -9.65604542960489
      ],
      [
        "es.",
        -9.65808591409326
      ],
      [
        "▁L",
        -9.663519897784568
      ],
      [
        "▁visit",
        -9.668183794294508
      ],
      [
        "▁wife.",
        -9.668857469958306
      ],
      [
        "▁year.",
        -9.669110030369218
      ],
      [
        "▁love.",
        -9.67034132024301
      ],
      [
        "▁him!",
        -9.672334155185531
      ],
      [
        "▁De",
        -9.67271557758756
      ],
      [
        "▁somewhere",
        -9.673669613506512
      ],
      [
        "▁case.",
        -9.673776739616098
      ],
      [
        "▁using",
        -9.675063256942872
      ],
      [
        "▁Fuck",
        -9.676754376537309
      ],
      [
        "'ll",
        -9.677754932925648
      ],
      [
        "▁yet?",
        -9.6778200412275
      ],
      [
        "▁works",
        -9.680346272338827
      ],
      [
        "▁home?",
        -9.680996108672522
      ],
      [
        "▁Well...",
        -9.6831076660533
      ],
      [
        "▁stuff.",
        -9.683577022833468
      ],
      [
        "ate",
        -9.683647735386904
      ],
      [
        "▁trouble.",
        -9.68481813812732
      ],
      [
        "▁forgot",
        -9.685654017229174
      ],
      [
        "▁worry,",
        -9.686044401062595
      ],
      [
        "▁They'll",
        -9.687227352481791
      ],
      [
        "▁fact",
        -9.688970541397646
      ],
      [
        "▁strong",
        -9.68916672622451
      ],
      [
        "▁certain",
        -9.690092052045944
      ],
      [
        "▁evidence",
        -9.691881045150822
      ],
      [
        "▁single",
        -9.69276510229678
      ],
      [
        "ch",
        -9.693302917924475
      ],
      [
        "▁picture",
        -9.69576359362539
      ],
      [
        "▁round",
        -9.695949708492831
      ],
      [
        "▁Were",
        -9.696367032249368
      ],
      [
        "▁ship",
        -9.696590736689608
      ],
      [
        "▁wait.",
        -9.696736793203083
      ],
      [
        "▁wake",
        -9.697489818173386
      ],
      [
        "▁music",
        -9.698118759216335
      ],
      [
        "▁IN",
        -9.698353803343904
      ],
      [
        "▁offer",
        -9.698724067147866
      ],
      [
        "ly.",
        -9.701163512884326
      ],
      [
        "▁totally",
        -9.7018769914746
      ],
      [
        "▁head.",
        -9.703482564660366
      ],
      [
        "▁though.",
        -9.70355973758832
      ],
      [
        "▁Oh!",
        -9.7078026727785
      ],
      [
        "▁mad",
        -9.708004994087114
      ],
      [
        "▁ass",
        -9.708307774279977
      ],
      [
        "▁Watch",
        -9.708839753368633
      ],
      [
        "▁K",
        -9.710210144319944
      ],
      [
        "▁blow",
        -9.710343675031677
      ],
      [
        "▁country",
        -9.711091041651963
      ],
      [
        "▁anything?",
        -9.7112044499517
      ],
      [
        "▁fun.",
        -9.712401148419897
      ],
      [
        "▁woman.",
        -9.712998824241588
      ],
      [
        "▁appreciate",
        -9.713088181447946
      ],
      [
        "▁security",
        -9.713302965684685
      ],
      [
        "▁though",
        -9.713878507953025
      ],
      [
        "▁tired",
        -9.715394855026233
      ],
      [
        "▁charge",
        -9.717362642733768
      ],
      [
        "▁realize",
        -9.718376170265024
      ],
      [
        "▁kid.",
        -9.718506214462971
      ],
      [
        "▁hours.",
        -9.718545823166934
      ],
      [
        "▁ones",
        -9.721454581471242
      ],
      [
        "▁back?",
        -9.721571388845314
      ],
      [
        "▁office.",
        -9.72313777231057
      ],
      [
        "▁just...",
        -9.723741101530209
      ],
      [
        "▁teach",
        -9.724206708441294
      ],
      [
        "▁now!",
        -9.724210287632172
      ],
      [
        "▁Sometimes",
        -9.724259855319549
      ],
      [
        "D",
        -9.725153752992489
      ],
      [
        "/",
        -9.725632210544754
      ],
      [
        "▁stopped",
        -9.72619297090141
      ],
      [
        "▁dance",
        -9.726810862373426
      ],
      [
        "▁dare",
        -9.72770210895758
      ],
      [
        "ve",
        -9.727937118309203
      ],
      [
        "▁die.",
        -9.728309665058928
      ],
      [
        "▁alive.",
        -9.729092071273032
      ],
      [
        "▁middle",
        -9.730716245896687
      ],
      [
        "▁personal",
        -9.73350527862056
      ],
      [
        "▁Ha",
        -9.73530450740141
      ],
      [
        "▁imagine",
        -9.735692080880256
      ],
      [
        "go",
        -9.736150980045371
      ],
      [
        "▁Master",
        -9.737597412588
      ],
      [
        "▁possible",
        -9.737931144349416
      ],
      [
        "▁okay,",
        -9.738129398574872
      ],
      [
        "▁coming.",
        -9.738550424874775
      ],
      [
        "▁eh?",
        -9.74005450652379
      ],
      [
        "▁accept",
        -9.740948331883375
      ],
      [
        "▁road",
        -9.741737034378785
      ],
      [
        "▁company",
        -9.742061722942289
      ],
      [
        "▁Once",
        -9.743432215992865
      ],
      [
        "▁serious",
        -9.743738648330073
      ],
      [
        "▁lead",
        -9.744197582193037
      ],
      [
        "▁enjoy",
        -9.745424451221249
      ],
      [
        "▁coffee",
        -9.746310602350237
      ],
      [
        "▁train",
        -9.746440793845238
      ],
      [
        "▁killing",
        -9.74768750960554
      ],
      [
        "▁George",
        -9.751408354028376
      ],
      [
        "▁think?",
        -9.752746257018654
      ],
      [
        "Anyway,",
        -9.756301828439735
      ],
      [
        "▁Hurry",
        -9.75658550840122
      ],
      [
        "▁15",
        -9.756721251991015
      ],
      [
        "▁across",
        -9.758192220096234
      ],
      [
        "▁share",
        -9.761397988972895
      ],
      [
        "▁Ok",
        -9.76186589768816
      ],
      [
        "▁Last",
        -9.766413416438228
      ],
      [
        "▁Fine.",
        -9.7665776861225
      ],
      [
        "▁ME",
        -9.766809333626016
      ],
      [
        "▁bother",
        -9.76763806931584
      ],
      [
        "▁crime",
        -9.76953532677203
      ],
      [
        "▁talk.",
        -9.772545616611689
      ],
      [
        "▁want?",
        -9.773825644781748
      ],
      [
        "▁test",
        -9.776354744868348
      ],
      [
        "▁question.",
        -9.77646268524395
      ],
      [
        "▁bar",
        -9.776943256139315
      ],
      [
        "▁Al",
        -9.777069620226763
      ],
      [
        "▁prove",
        -9.77772403947273
      ],
      [
        "Um,",
        -9.779323372430854
      ],
      [
        "▁Forget",
        -9.779548988819228
      ],
      [
        "▁contact",
        -9.779735274803228
      ],
      [
        "▁death.",
        -9.780078565288608
      ],
      [
        "▁Big",
        -9.780789348187495
      ],
      [
        "▁ahead.",
        -9.78083415790377
      ],
      [
        "▁words",
        -9.781753485913676
      ],
      [
        "▁while.",
        -9.782112842985972
      ],
      [
        "▁face.",
        -9.782205084142811
      ],
      [
        "▁spent",
        -9.783375226777563
      ],
      [
        "▁pain",
        -9.7843783778509
      ],
      [
        "▁forgive",
        -9.785592226367918
      ],
      [
        "▁smell",
        -9.78590123265178
      ],
      [
        "▁dear.",
        -9.787457424143794
      ],
      [
        "▁stick",
        -9.787883566181026
      ],
      [
        "▁long.",
        -9.787983573031232
      ],
      [
        "▁cover",
        -9.788886813091262
      ],
      [
        "▁Before",
        -9.789015364378916
      ],
      [
        "▁hide",
        -9.790795428744216
      ],
      [
        "▁ahead",
        -9.790881819957637
      ],
      [
        "▁good,",
        -9.79124798611247
      ],
      [
        "▁fool",
        -9.792521328244014
      ],
      [
        "▁liked",
        -9.79267794738718
      ],
      [
        "er,",
        -9.79286122890321
      ],
      [
        "▁home,",
        -9.793201642110866
      ],
      [
        "▁IS",
        -9.794179030320096
      ],
      [
        "▁lying",
        -9.795092882683468
      ],
      [
        "▁blame",
        -9.795969640477384
      ],
      [
        "▁doubt",
        -9.79832462894
      ],
      [
        "▁welcome",
        -9.798332010937123
      ],
      [
        "▁rid",
        -9.798462808324231
      ],
      [
        "▁shit.",
        -9.798599839869643
      ],
      [
        "▁agree",
        -9.799122346733403
      ],
      [
        "▁easy.",
        -9.799259339298413
      ],
      [
        "▁others",
        -9.799300968155734
      ],
      [
        "▁staying",
        -9.80137973174028
      ],
      [
        "▁information",
        -9.802293067826952
      ],
      [
        "▁finished",
        -9.80346545989384
      ],
      [
        "▁moved",
        -9.804413068654348
      ],
      [
        "▁moment.",
        -9.804780722782484
      ],
      [
        "and",
        -9.804814866101117
      ],
      [
        "▁wonderful",
        -9.804996570881674
      ],
      [
        "▁Dr",
        -9.80524856070551
      ],
      [
        "▁standing",
        -9.806802405030105
      ],
      [
        "▁Tom",
        -9.80762394785715
      ],
      [
        "▁truth.",
        -9.808812541140636
      ],
      [
        "▁trip",
        -9.810526741296783
      ],
      [
        "▁owe",
        -9.81070867705514
      ],
      [
        "▁okay",
        -9.811004583107618
      ],
      [
        "▁bag",
        -9.811025104061434
      ],
      [
        "ur",
        -9.812024229876853
      ],
      [
        "▁beautiful.",
        -9.81292896140528
      ],
      [
        "▁Jesus",
        -9.813702378360686
      ],
      [
        "▁hundred",
        -9.8170177321268
      ],
      [
        "▁weird",
        -9.81735136138978
      ],
      [
        "ling",
        -9.81796085743663
      ],
      [
        "z",
        -9.81866524268881
      ],
      [
        "▁court",
        -9.819376246762298
      ],
      [
        "▁money?",
        -9.820729908810629
      ],
      [
        "▁born",
        -9.821572145223742
      ],
      [
        "▁law",
        -9.822563616494811
      ],
      [
        "▁lovely",
        -9.823379122434904
      ],
      [
        "▁land",
        -9.824636341669349
      ],
      [
        "▁kiss",
        -9.8250631959834
      ],
      [
        "▁Doesn't",
        -9.82552843269818
      ],
      [
        "▁feet",
        -9.827360548541654
      ],
      [
        "he",
        -9.827450414325469
      ],
      [
        "▁leave.",
        -9.827620728830173
      ],
      [
        "▁crazy.",
        -9.829245916290828
      ],
      [
        "▁attack",
        -9.830025470000615
      ],
      [
        "▁state",
        -9.8319075038291
      ],
      [
        "▁Next",
        -9.831935277929633
      ],
      [
        "▁hotel",
        -9.833883168824697
      ],
      [
        "▁smart",
        -9.836658632808952
      ],
      [
        "▁see,",
        -9.837583699122556
      ],
      [
        "▁town.",
        -9.837639642520596
      ],
      [
        "on.",
        -9.837647822520774
      ],
      [
        "▁uh...",
        -9.8379225715161
      ],
      [
        "▁difficult",
        -9.838070815529766
      ],
      [
        "▁key",
        -9.83807942619804
      ],
      [
        "▁sometimes",
        -9.838087740996285
      ],
      [
        "▁bed.",
        -9.839685045503838
      ],
      [
        "▁would've",
        -9.83977690065534
      ],
      [
        "▁They've",
        -9.843108121924695
      ],
      [
        "▁swear",
        -9.846644019482165
      ],
      [
        "▁horse",
        -9.84675006374384
      ],
      [
        "▁else?",
        -9.847154642415932
      ],
      [
        "▁clothes",
        -9.847582079399702
      ],
      [
        "▁hospital",
        -9.847842830476546
      ],
      [
        "▁story.",
        -9.84955925211844
      ],
      [
        "▁dark",
        -9.849565961802009
      ],
      [
        "▁sleep.",
        -9.85039368325558
      ],
      [
        "▁respect",
        -9.85056656375108
      ],
      [
        "▁boat",
        -9.85072341483082
      ],
      [
        "ers.",
        -9.850962626364575
      ],
      [
        "▁Back",
        -9.852353274371396
      ],
      [
        "▁Everybody",
        -9.853768693077468
      ],
      [
        "▁terrible",
        -9.853922896305075
      ],
      [
        "▁mention",
        -9.853924535299448
      ],
      [
        "▁hand.",
        -9.8570546563837
      ],
      [
        "▁H",
        -9.857060126658862
      ],
      [
        "▁perhaps",
        -9.857069308624364
      ],
      [
        "▁often",
        -9.85710363175273
      ],
      [
        "▁list",
        -9.857155388655626
      ],
      [
        "▁50",
        -9.857452902707225
      ],
      [
        "▁lived",
        -9.85769115250543
      ],
      [
        "▁present",
        -9.860927375563389
      ],
      [
        "▁WHAT",
        -9.863295770240146
      ],
      [
        "▁one?",
        -9.866630072527682
      ],
      [
        "▁am.",
        -9.867268514398198
      ],
      [
        "▁Help",
        -9.86741591254893
      ],
      [
        "▁Huh?",
        -9.868056086154125
      ],
      [
        "▁funny",
        -9.868890910203913
      ],
      [
        "▁King",
        -9.869603849876563
      ],
      [
        "▁Today",
        -9.869896083533265
      ],
      [
        "▁private",
        -9.87034354187655
      ],
      [
        "men",
        -9.87090084593614
      ],
      [
        "▁phone.",
        -9.871924954857748
      ],
      [
        "▁calm",
        -9.871982657371571
      ],
      [
        "▁tea",
        -9.872400511393607
      ],
      [
        "▁starting",
        -9.87869231983288
      ],
      [
        "▁none",
        -9.87927745851196
      ],
      [
        "▁station",
        -9.880003128141391
      ],
      [
        "▁hadn't",
        -9.8802527670013
      ],
      [
        "▁carry",
        -9.880371968974291
      ],
      [
        "▁hurry",
        -9.880639589770258
      ],
      [
        "▁wrote",
        -9.881138130845445
      ],
      [
        "▁fault.",
        -9.882015336507434
      ],
      [
        "▁times.",
        -9.883530379288995
      ],
      [
        "▁happen.",
        -9.884396565962495
      ],
      [
        "▁ready.",
        -9.88540756423322
      ],
      [
        "▁Bring",
        -9.886022806134964
      ],
      [
        "▁Open",
        -9.886608810031872
      ],
      [
        "▁once.",
        -9.886815549265132
      ],
      [
        "▁one's",
        -9.886955387991762
      ],
      [
        "▁Move",
        -9.889233174214333
      ],
      [
        "▁dress",
        -9.889713317797968
      ],
      [
        "▁ago,",
        -9.889934898853872
      ],
      [
        "▁bank",
        -9.89162057466662
      ],
      [
        "▁inside.",
        -9.891794808860492
      ],
      [
        "▁paper",
        -9.891991822377529
      ],
      [
        "▁quiet",
        -9.89228109601992
      ],
      [
        "▁brain",
        -9.893591067527517
      ],
      [
        "▁today,",
        -9.895544245464334
      ],
      [
        "▁party.",
        -9.895820653917834
      ],
      [
        "▁message",
        -9.89833984467095
      ],
      [
        "▁4",
        -9.898837649555652
      ],
      [
        "▁Over",
        -9.90043442049344
      ],
      [
        "▁class",
        -9.901072134728915
      ],
      [
        "▁Show",
        -9.902454987243935
      ],
      [
        "▁picked",
        -9.904351985764077
      ],
      [
        "▁matter?",
        -9.904424285109105
      ],
      [
        "▁feels",
        -9.904440480404958
      ],
      [
        "▁bloody",
        -9.904823259398608
      ],
      [
        "▁angry",
        -9.9052541737077
      ],
      [
        "▁promised",
        -9.9059229793631
      ],
      [
        "▁age",
        -9.908488874953283
      ],
      [
        "▁force",
        -9.908658650149755
      ],
      [
        "▁TV",
        -9.908708586069572
      ],
      [
        "▁normal",
        -9.909218828781396
      ],
      [
        "less",
        -9.910845920468187
      ],
      [
        "▁ring",
        -9.911412051310585
      ],
      [
        "▁box",
        -9.911420045722958
      ],
      [
        "▁worse",
        -9.911761507343751
      ],
      [
        "▁eating",
        -9.912014275651105
      ],
      [
        "▁Chief",
        -9.91252519963947
      ],
      [
        "▁tough",
        -9.914034219451036
      ],
      [
        "▁water.",
        -9.914515535291953
      ],
      [
        "▁R",
        -9.9148258086911
      ],
      [
        "▁deal.",
        -9.915672222654036
      ],
      [
        "▁holding",
        -9.915854954076051
      ],
      [
        "▁Love",
        -9.916005376169563
      ],
      [
        "▁Ms.",
        -9.91777463034525
      ],
      [
        "▁cost",
        -9.919336694926953
      ],
      [
        "▁Ben",
        -9.920435877307296
      ],
      [
        "you",
        -9.92077905419496
      ],
      [
        "▁steal",
        -9.920941122931646
      ],
      [
        "▁cop",
        -9.921999780573511
      ],
      [
        "▁reach",
        -9.922032797506304
      ],
      [
        "▁putting",
        -9.922090898363749
      ],
      [
        "▁Ask",
        -9.922994159912674
      ],
      [
        "▁Honey",
        -9.923242905790934
      ],
      [
        "▁Re",
        -9.923309824590136
      ],
      [
        "▁fighting",
        -9.92410221470794
      ],
      [
        "▁happy.",
        -9.92494115467048
      ],
      [
        "▁count",
        -9.926730757984762
      ],
      [
        "▁Michael",
        -9.92810416542277
      ],
      [
        "▁please,",
        -9.929033552910113
      ],
      [
        "▁Better",
        -9.929967720903957
      ],
      [
        "▁fish",
        -9.931344105447566
      ],
      [
        "▁Time",
        -9.931475387441344
      ],
      [
        "▁N",
        -9.932554620752567
      ],
      [
        "li",
        -9.933490177526108
      ],
      [
        "▁American",
        -9.93352991475537
      ],
      [
        "▁they've",
        -9.933694452381712
      ],
      [
        "▁unless",
        -9.934608845757763
      ],
      [
        "▁work,",
        -9.934864760713385
      ],
      [
        "▁David",
        -9.93741716768274
      ],
      [
        "▁General",
        -9.937973664045796
      ],
      [
        "led",
        -9.938440108751632
      ],
      [
        "▁uncle",
        -9.93863286297729
      ],
      [
        "▁other.",
        -9.940079089401063
      ],
      [
        "▁instead",
        -9.940355972912023
      ],
      [
        "▁broken",
        -9.9404220074066
      ],
      [
        "▁tonight",
        -9.941810209975344
      ],
      [
        "▁marriage",
        -9.942485953194094
      ],
      [
        "▁there!",
        -9.942541193135538
      ],
      [
        "▁public",
        -9.942993862707718
      ],
      [
        "▁yes",
        -9.943209383554247
      ],
      [
        "▁cell",
        -9.943770466256344
      ],
      [
        "▁WE",
        -9.944331054782683
      ],
      [
        "▁Peter",
        -9.94504415367246
      ],
      [
        "▁Check",
        -9.945226426768851
      ],
      [
        "▁Another",
        -9.945390773255324
      ],
      [
        "▁J",
        -9.94542163441574
      ],
      [
        "▁look.",
        -9.946943037113284
      ],
      [
        "▁Detective",
        -9.94757009518298
      ],
      [
        "▁usually",
        -9.94840507103713
      ],
      [
        "ter",
        -9.948457675648571
      ],
      [
        "▁Here.",
        -9.949463507616882
      ],
      [
        "▁allowed",
        -9.950256240901616
      ],
      [
        "▁loves",
        -9.95058186874693
      ],
      [
        "▁waste",
        -9.95142316047244
      ],
      [
        "▁third",
        -9.952483335128164
      ],
      [
        "▁Red",
        -9.953197826756565
      ],
      [
        "▁12",
        -9.953811643745023
      ],
      [
        "▁lot.",
        -9.954209430768769
      ],
      [
        "ent",
        -9.95609873106018
      ],
      [
        "▁minute",
        -9.956989880382888
      ],
      [
        "▁game.",
        -9.958064459002724
      ],
      [
        "▁doctor.",
        -9.958988631439208
      ],
      [
        "▁helping",
        -9.95997619424504
      ],
      [
        "▁driving",
        -9.960003985355844
      ],
      [
        "ge",
        -9.96036267468441
      ],
      [
        "▁upset",
        -9.961104845718618
      ],
      [
        "▁absolutely",
        -9.96112654971219
      ],
      [
        "▁whether",
        -9.962257151650746
      ],
      [
        "▁Wait.",
        -9.962714095409751
      ],
      [
        "▁La",
        -9.962781421455384
      ],
      [
        "▁simple",
        -9.963006594632208
      ],
      [
        "▁figured",
        -9.963624500100394
      ],
      [
        "▁surprise",
        -9.964156222282984
      ],
      [
        "▁cops",
        -9.96502519019614
      ],
      [
        "▁Joe",
        -9.965437647144958
      ],
      [
        "▁Paul",
        -9.965604855943749
      ],
      [
        "▁mouth",
        -9.966173944494138
      ],
      [
        "Thanks,",
        -9.966801482594253
      ],
      [
        "▁drink.",
        -9.967335267408908
      ],
      [
        "ING",
        -9.967343385998
      ],
      [
        "▁life,",
        -9.96793556432203
      ],
      [
        "▁fair",
        -9.968517246464751
      ],
      [
        "▁lunch",
        -9.96864399104181
      ],
      [
        "▁fact,",
        -9.969133316512254
      ],
      [
        "▁proud",
        -9.969671470715314
      ],
      [
        "▁Max",
        -9.971643768885915
      ],
      [
        "j",
        -9.972450122437408
      ],
      [
        "▁keeping",
        -9.973324115694735
      ],
      [
        "▁eyes.",
        -9.974480463517365
      ],
      [
        "▁record",
        -9.974905801680915
      ],
      [
        "▁hour.",
        -9.976342851371538
      ],
      [
        "▁film",
        -9.976546780445712
      ],
      [
        "▁Out",
        -9.977832217721284
      ],
      [
        "▁prison",
        -9.977898182708325
      ],
      [
        "▁Don",
        -9.97814211389502
      ],
      [
        "▁Great.",
        -9.978581390350962
      ],
      [
        "▁movie",
        -9.978708500959236
      ],
      [
        "▁study",
        -9.978927171176045
      ],
      [
        "▁admit",
        -9.979591860264314
      ],
      [
        "▁child.",
        -9.979674819408524
      ],
      [
        "▁stuck",
        -9.98041818008296
      ],
      [
        "▁within",
        -9.980775461245573
      ],
      [
        "▁money,",
        -9.981417948823273
      ],
      [
        "▁daughter.",
        -9.98184141514217
      ],
      [
        "T",
        -9.982596673169176
      ],
      [
        "▁government",
        -9.98260037124491
      ],
      [
        "▁future",
        -9.983697474842774
      ],
      [
        "▁building",
        -9.984175724341014
      ],
      [
        "▁rich",
        -9.984198168538718
      ],
      [
        "▁Yo",
        -9.985591620089508
      ],
      [
        "▁possible.",
        -9.985983055601691
      ],
      [
        "▁matter.",
        -9.986083810997547
      ],
      [
        "▁king",
        -9.986990399536952
      ],
      [
        "▁100",
        -9.98713449894088
      ],
      [
        "▁extra",
        -9.987471076079702
      ],
      [
        "▁forward",
        -9.987739526034822
      ],
      [
        "▁honey.",
        -9.988846674823316
      ],
      [
        "▁mess",
        -9.98892455551158
      ],
      [
        "▁fear",
        -9.989099262096156
      ],
      [
        "the",
        -9.989141584416767
      ],
      [
        "▁ought",
        -9.990027242865182
      ],
      [
        "▁father's",
        -9.990832432286322
      ],
      [
        "▁Wow",
        -9.991664228472088
      ],
      [
        "▁Little",
        -9.992435548317262
      ],
      [
        "▁Sounds",
        -9.993938505482138
      ],
      [
        "▁so...",
        -9.99484737164663
      ],
      [
        "▁treat",
        -9.99516119150266
      ],
      [
        "▁chance.",
        -9.99554583558859
      ],
      [
        "▁thousand",
        -9.995759977253089
      ],
      [
        "x",
        -9.996779726016754
      ],
      [
        "▁W",
        -9.997161994809144
      ],
      [
        "▁ice",
        -9.9984469036561
      ],
      [
        "▁card",
        -9.998533175136345
      ],
      [
        "▁voice",
        -9.999283797295009
      ],
      [
        "▁seven",
        -9.9995421607977
      ],
      [
        "man,",
        -10.00076017023799
      ],
      [
        "▁gold",
        -10.001927478791613
      ],
      [
        "▁choice",
        -10.002001283487523
      ],
      [
        "▁search",
        -10.002246125738122
      ],
      [
        "▁quick",
        -10.00358575231746
      ],
      [
        "▁THIS",
        -10.004807694476009
      ],
      [
        "▁walking",
        -10.005378085866589
      ],
      [
        "▁push",
        -10.006382574858971
      ],
      [
        "▁Mary",
        -10.006695693160491
      ],
      [
        "ting",
        -10.006900228889693
      ],
      [
        "▁kids.",
        -10.008297431316826
      ],
      [
        "▁side.",
        -10.009326244048994
      ],
      [
        "▁won",
        -10.0095782474272
      ],
      [
        "▁Please.",
        -10.010010673054015
      ],
      [
        "▁York",
        -10.01055024140055
      ],
      [
        "▁she'll",
        -10.011396648813308
      ],
      [
        "▁DO",
        -10.01173109487786
      ],
      [
        "▁Frank",
        -10.012055272690636
      ],
      [
        "▁understand?",
        -10.012345750064217
      ],
      [
        "▁dangerous",
        -10.01296771979334
      ],
      [
        "▁involved",
        -10.013216188044598
      ],
      [
        "▁second.",
        -10.01352589446674
      ],
      [
        "▁grow",
        -10.013792289880998
      ],
      [
        "▁questions",
        -10.013858691905002
      ],
      [
        "▁blue",
        -10.014528437625705
      ],
      [
        "▁named",
        -10.015987824816364
      ],
      [
        "▁happening",
        -10.017840810757823
      ],
      [
        "▁stole",
        -10.018098222061132
      ],
      [
        "ation",
        -10.019623603578486
      ],
      [
        "▁destroy",
        -10.021179246725398
      ],
      [
        "▁wondering",
        -10.022429022357016
      ],
      [
        "▁learned",
        -10.02483596441541
      ],
      [
        "▁thing,",
        -10.025365521646137
      ],
      [
        "M",
        -10.025371185130526
      ],
      [
        "▁and...",
        -10.026197290216755
      ],
      [
        "▁street",
        -10.026854285240386
      ],
      [
        "▁calls",
        -10.02699381632561
      ],
      [
        "on,",
        -10.027377060853414
      ],
      [
        "▁wine",
        -10.028318312165997
      ],
      [
        "▁Fine",
        -10.02842518335478
      ],
      [
        "▁sleeping",
        -10.030520842033798
      ],
      [
        "▁eight",
        -10.030598887879886
      ],
      [
        "▁except",
        -10.03102492066163
      ],
      [
        "▁work?",
        -10.032217186437569
      ],
      [
        "▁funny.",
        -10.032870408109073
      ],
      [
        "▁fly",
        -10.032917567028967
      ],
      [
        "▁point.",
        -10.03293399052325
      ],
      [
        "▁French",
        -10.033343643331586
      ],
      [
        "▁Daddy",
        -10.033347526459137
      ],
      [
        "▁arrest",
        -10.034231155270655
      ],
      [
        "▁God!",
        -10.034501268711844
      ],
      [
        "▁ball",
        -10.03474545214148
      ],
      [
        "▁Must",
        -10.036484125645927
      ],
      [
        "▁tonight?",
        -10.037373745492864
      ],
      [
        "▁helped",
        -10.038864793779924
      ],
      [
        "▁choice.",
        -10.038959666462398
      ],
      [
        "▁sold",
        -10.040086588999458
      ],
      [
        "▁checked",
        -10.043315573677576
      ],
      [
        "▁master",
        -10.043941226964744
      ],
      [
        "▁passed",
        -10.045282789732893
      ],
      [
        "▁prefer",
        -10.045752778720995
      ],
      [
        "▁gives",
        -10.046641748667613
      ],
      [
        "ry",
        -10.04664446048404
      ],
      [
        "▁deep",
        -10.046899184880749
      ],
      [
        "▁19",
        -10.047251657719126
      ],
      [
        "▁FOR",
        -10.047414456950635
      ],
      [
        "▁group",
        -10.047451034933966
      ],
      [
        "▁decide",
        -10.047461068646111
      ],
      [
        "▁shop",
        -10.049607880134085
      ],
      [
        "▁yesterday.",
        -10.051510658257593
      ],
      [
        "▁bus",
        -10.051690595806033
      ],
      [
        "▁floor",
        -10.05306067961309
      ],
      [
        "▁Christmas",
        -10.055800725453793
      ],
      [
        "hey,",
        -10.055976918265465
      ],
      [
        "▁drinking",
        -10.057004855343411
      ],
      [
        "▁English",
        -10.057618002076811
      ],
      [
        "▁notice",
        -10.05794360554464
      ],
      [
        "▁sing",
        -10.058703404187252
      ],
      [
        "▁favorite",
        -10.05885600532248
      ],
      [
        "▁spoke",
        -10.059997415037008
      ],
      [
        "▁match",
        -10.062206710211797
      ],
      [
        "▁Happy",
        -10.06378099033977
      ],
      [
        "▁kick",
        -10.064475195380176
      ],
      [
        "▁away,",
        -10.065964348839676
      ],
      [
        "▁she?",
        -10.066493694695248
      ],
      [
        "▁hands.",
        -10.066525157831633
      ],
      [
        "▁Five",
        -10.0667070696086
      ],
      [
        "▁Okay?",
        -10.067178317970615
      ],
      [
        "▁fit",
        -10.067181601710768
      ],
      [
        "▁that...",
        -10.067296477068748
      ],
      [
        "▁months.",
        -10.067505892111368
      ],
      [
        "▁sad",
        -10.06944559789276
      ],
      [
        "▁system",
        -10.069900468827534
      ],
      [
        "▁heart.",
        -10.070619230551868
      ],
      [
        "▁evening.",
        -10.070659288856094
      ],
      [
        "▁song",
        -10.071248763057817
      ],
      [
        "▁house?",
        -10.071376598481391
      ],
      [
        "▁Lady",
        -10.071670601375615
      ],
      [
        "▁alive",
        -10.072036030860158
      ],
      [
        "▁ma'am.",
        -10.073042735346446
      ],
      [
        "▁Probably",
        -10.073395990215367
      ],
      [
        "▁month",
        -10.07342084743184
      ],
      [
        "▁San",
        -10.074786930324192
      ],
      [
        "▁locked",
        -10.075204530390756
      ],
      [
        "▁Dad.",
        -10.075266784312648
      ],
      [
        "▁own.",
        -10.077367871335705
      ],
      [
        "▁cash",
        -10.07822539672493
      ],
      [
        "▁bunch",
        -10.080401720109926
      ],
      [
        "▁build",
        -10.080705726759149
      ],
      [
        "▁darling.",
        -10.080755409554326
      ],
      [
        "um,",
        -10.081918751043132
      ],
      [
        "▁hospital.",
        -10.0846718092166
      ],
      [
        "▁Sa",
        -10.084787606793189
      ],
      [
        "▁club",
        -10.08496269519849
      ],
      [
        "▁know...",
        -10.085398385863206
      ],
      [
        "▁plane",
        -10.085533793722805
      ],
      [
        "▁relationship",
        -10.08570151457782
      ],
      [
        "▁place?",
        -10.085715264201914
      ],
      [
        "▁following",
        -10.086256829383128
      ],
      [
        "▁Professor",
        -10.086774070804855
      ],
      [
        "▁store",
        -10.087550088662525
      ],
      [
        "▁mistake.",
        -10.088025229268997
      ],
      [
        "▁luck.",
        -10.088437939493032
      ],
      [
        "▁sea",
        -10.088845407486634
      ],
      [
        "▁sister.",
        -10.0889734809525
      ],
      [
        "▁Yes?",
        -10.089070968646572
      ],
      [
        "▁married.",
        -10.089678247251996
      ],
      [
        "▁foot",
        -10.09090343637216
      ],
      [
        "▁girl?",
        -10.090931091315117
      ],
      [
        "▁choose",
        -10.091013348438738
      ],
      [
        "▁children.",
        -10.095234392518654
      ],
      [
        "▁fresh",
        -10.09652589168893
      ],
      [
        "▁played",
        -10.096777295489384
      ],
      [
        "▁could've",
        -10.097220447237962
      ],
      [
        "▁support",
        -10.097351529234023
      ],
      [
        "▁Somebody",
        -10.09785281622984
      ],
      [
        "▁died.",
        -10.097972263804596
      ],
      [
        "▁smoke",
        -10.098754901583758
      ],
      [
        "▁drug",
        -10.099072195599126
      ],
      [
        "▁acting",
        -10.099345963019475
      ],
      [
        "▁news.",
        -10.09943977378026
      ],
      [
        "▁pleasure",
        -10.100915593256923
      ],
      [
        "▁bit.",
        -10.101512522604562
      ],
      [
        "man's",
        -10.101667322649844
      ],
      [
        "▁planning",
        -10.101691011345226
      ],
      [
        "▁discuss",
        -10.102042842708324
      ],
      [
        "▁Hello",
        -10.102716764945352
      ],
      [
        "man.",
        -10.103392781219252
      ],
      [
        "▁important.",
        -10.103709639594744
      ],
      [
        "▁She'll",
        -10.104243248297768
      ],
      [
        "▁Colonel",
        -10.104603767184654
      ],
      [
        "▁escape",
        -10.10476782796096
      ],
      [
        "▁hoping",
        -10.10497299456974
      ],
      [
        "'S",
        -10.105017342665649
      ],
      [
        "▁Ho",
        -10.105114360552468
      ],
      [
        "▁sun",
        -10.105421067382132
      ],
      [
        "▁fast.",
        -10.106607435248886
      ],
      [
        "▁hiding",
        -10.10853307461291
      ],
      [
        "▁recognize",
        -10.10917241457762
      ],
      [
        "▁plenty",
        -10.109299668522564
      ],
      [
        "▁risk",
        -10.109998391710402
      ],
      [
        "▁James",
        -10.112031833068905
      ],
      [
        "C",
        -10.112350531149886
      ],
      [
        "▁continue",
        -10.11267134259904
      ],
      [
        "▁Yes!",
        -10.113148296975613
      ],
      [
        "▁miles",
        -10.114067881105123
      ],
      [
        "▁himself.",
        -10.114370576521308
      ],
      [
        "▁killer",
        -10.114554429970754
      ],
      [
        "▁gotten",
        -10.114918946737395
      ],
      [
        "▁quit",
        -10.115570586377014
      ],
      [
        "▁medical",
        -10.115672809117886
      ],
      [
        "▁should've",
        -10.116060620109725
      ],
      [
        "▁Agent",
        -10.116399023797086
      ],
      [
        "▁V",
        -10.11678633405868
      ],
      [
        "▁person.",
        -10.11794541496088
      ],
      [
        "▁interesting",
        -10.118243035040589
      ],
      [
        "▁Mike",
        -10.119151419623734
      ],
      [
        "▁Long",
        -10.120155744981476
      ],
      [
        "▁became",
        -10.120458137969102
      ],
      [
        "E",
        -10.12189799736019
      ],
      [
        "▁dinner.",
        -10.123236997698426
      ],
      [
        "▁dirty",
        -10.123295440907832
      ],
      [
        "▁call.",
        -10.123469462151148
      ],
      [
        "▁showed",
        -10.123686969050336
      ],
      [
        "▁None",
        -10.123850399043253
      ],
      [
        "B",
        -10.126390337475623
      ],
      [
        "▁remind",
        -10.126467575664938
      ],
      [
        "am",
        -10.126549383470888
      ],
      [
        "▁final",
        -10.126716422220342
      ],
      [
        "▁BE",
        -10.12811383396951
      ],
      [
        "▁dad.",
        -10.129307841230354
      ],
      [
        "▁truck",
        -10.131008559260216
      ],
      [
        "▁history",
        -10.131036040686183
      ],
      [
        "▁press",
        -10.131438458691816
      ],
      [
        "▁space",
        -10.131485111166576
      ],
      [
        "▁said.",
        -10.132467556954063
      ],
      [
        "▁grab",
        -10.133380235875835
      ],
      [
        "▁cool.",
        -10.133506984227132
      ],
      [
        "▁situation",
        -10.13515973877264
      ],
      [
        "▁problem?",
        -10.135242881445745
      ],
      [
        "▁ladies",
        -10.135359234487773
      ],
      [
        "▁police.",
        -10.13561519297039
      ],
      [
        "▁peace",
        -10.13640933543131
      ],
      [
        "▁reading",
        -10.136429699981951
      ],
      [
        "▁Ooh",
        -10.136552474426228
      ],
      [
        "▁college",
        -10.136844843578382
      ],
      [
        "▁earth",
        -10.137040428823877
      ],
      [
        "▁patient",
        -10.137083996639454
      ],
      [
        "▁table",
        -10.137206681364692
      ],
      [
        "▁written",
        -10.138891835210554
      ],
      [
        "▁glass",
        -10.139184831830466
      ],
      [
        "▁scene",
        -10.139318719335805
      ],
      [
        "▁seemed",
        -10.139456180573244
      ],
      [
        "▁Black",
        -10.13963227865582
      ],
      [
        "▁Bo",
        -10.14068285764928
      ],
      [
        "▁HE",
        -10.140901117786475
      ],
      [
        "▁6",
        -10.141227856486196
      ],
      [
        "▁due",
        -10.141782720235485
      ],
      [
        "▁off,",
        -10.1420252400903
      ],
      [
        "▁willing",
        -10.142269514602852
      ],
      [
        "▁surprised",
        -10.142705802082313
      ],
      [
        "▁allow",
        -10.145958679796207
      ],
      [
        "▁gas",
        -10.146634346408868
      ],
      [
        "▁body.",
        -10.148271935837064
      ],
      [
        "▁already.",
        -10.148275846413544
      ],
      [
        "▁consider",
        -10.148613367321971
      ],
      [
        "▁safe.",
        -10.14906705225926
      ],
      [
        "▁worst",
        -10.149429412004068
      ],
      [
        "▁Turn",
        -10.150039021385975
      ],
      [
        "▁service",
        -10.152200282404172
      ],
      [
        "▁writing",
        -10.152424912916286
      ],
      [
        "▁Tomorrow",
        -10.153181799229785
      ],
      [
        "▁Mark",
        -10.15353002159471
      ],
      [
        "Sure,",
        -10.153602188061948
      ],
      [
        "▁interest",
        -10.154529780614313
      ],
      [
        "▁cross",
        -10.155040838737213
      ],
      [
        "▁ha",
        -10.155795048927184
      ],
      [
        "▁board",
        -10.15649876251115
      ],
      [
        "Besides,",
        -10.156768692752436
      ],
      [
        "▁suddenly",
        -10.157914972472897
      ],
      [
        "▁friend,",
        -10.157945543132032
      ],
      [
        "▁local",
        -10.1580229365867
      ],
      [
        "▁hardly",
        -10.158168652257006
      ],
      [
        "ED",
        -10.15862351519835
      ],
      [
        "▁years,",
        -10.158750629878623
      ],
      [
        "▁Talk",
        -10.15908595128989
      ],
      [
        "ill",
        -10.15913698649577
      ],
      [
        "▁birthday",
        -10.16071215031115
      ],
      [
        "er?",
        -10.163389460545886
      ],
      [
        "▁further",
        -10.163930482395129
      ],
      [
        "▁Really",
        -10.164090044285244
      ],
      [
        "▁ground",
        -10.164467112454648
      ],
      [
        "▁star",
        -10.165159750814423
      ],
      [
        "▁where's",
        -10.16548043948534
      ],
      [
        "▁fat",
        -10.166731502709633
      ],
      [
        "▁army",
        -10.167221860829695
      ],
      [
        "▁Without",
        -10.168112218924175
      ],
      [
        "▁men.",
        -10.16877094416429
      ],
      [
        "▁different.",
        -10.169994091464622
      ],
      [
        "▁How'd",
        -10.17074819150199
      ],
      [
        "▁dying",
        -10.1711104720887
      ],
      [
        "▁taste",
        -10.172610924301429
      ],
      [
        "▁officer",
        -10.173478774808396
      ],
      [
        "%",
        -10.173501494156053
      ],
      [
        "▁ON",
        -10.174288820725486
      ],
      [
        "▁U",
        -10.175553652145735
      ],
      [
        "▁questions.",
        -10.175625194950744
      ],
      [
        "▁job,",
        -10.176149832479778
      ],
      [
        "▁gift",
        -10.176708972161371
      ],
      [
        "▁Always",
        -10.177384970736655
      ],
      [
        "▁they?",
        -10.17922074764442
      ],
      [
        "son",
        -10.180085546726364
      ],
      [
        "▁deserve",
        -10.180316968960415
      ],
      [
        "▁lock",
        -10.180834585523412
      ],
      [
        "▁judge",
        -10.18299382641207
      ],
      [
        "▁care.",
        -10.1830488409533
      ],
      [
        "▁mind?",
        -10.18332818999756
      ],
      [
        "▁seat",
        -10.185226596435674
      ],
      [
        "ja",
        -10.187014253863213
      ],
      [
        "ke",
        -10.187395663014374
      ],
      [
        "▁type",
        -10.18830744871584
      ],
      [
        "▁keeps",
        -10.189035585252617
      ],
      [
        "▁suspect",
        -10.18927827250286
      ],
      [
        "▁pulled",
        -10.18939288859534
      ],
      [
        "▁victim",
        -10.18953819252708
      ],
      [
        "▁Unless",
        -10.189786024740185
      ],
      [
        "▁HAVE",
        -10.190804483251348
      ],
      [
        "▁suggest",
        -10.19095904291553
      ],
      [
        "▁Find",
        -10.192842418259534
      ],
      [
        "▁Le",
        -10.193075992714622
      ],
      [
        "▁house,",
        -10.194161415663968
      ],
      [
        "▁evil",
        -10.194380623060798
      ],
      [
        "▁Most",
        -10.195458734619466
      ],
      [
        "age",
        -10.19706194348617
      ],
      [
        "W",
        -10.197403880512905
      ],
      [
        "▁thing?",
        -10.197450243123347
      ],
      [
        "▁drink?",
        -10.197490972563736
      ],
      [
        "▁upon",
        -10.198744716003976
      ],
      [
        "ver",
        -10.198922793437488
      ],
      [
        "N",
        -10.199136562261426
      ],
      [
        "▁lots",
        -10.200634991888096
      ],
      [
        "▁YOUR",
        -10.200793506547871
      ],
      [
        "up",
        -10.201013833092574
      ],
      [
        "ness",
        -10.201049110103671
      ],
      [
        "▁bottle",
        -10.201415591179886
      ],
      [
        "▁taught",
        -10.20205549942706
      ],
      [
        "'Cause",
        -10.20238003188252
      ],
      [
        "▁Mi",
        -10.202393132094931
      ],
      [
        "▁innocent",
        -10.202794581389442
      ],
      [
        "▁come.",
        -10.202798151892017
      ],
      [
        "▁track",
        -10.203395337808413
      ],
      [
        "ou",
        -10.203700390782114
      ],
      [
        "▁she'd",
        -10.2037913324113
      ],
      [
        "▁Had",
        -10.204080445340333
      ],
      [
        "ive",
        -10.204173740520693
      ],
      [
        "▁Poor",
        -10.204436587771283
      ],
      [
        "▁computer",
        -10.204501573080451
      ],
      [
        "▁orders",
        -10.205366287040125
      ],
      [
        "▁teacher",
        -10.205685093443282
      ],
      [
        "▁beg",
        -10.20569223256918
      ],
      [
        "ted",
        -10.205766721986553
      ],
      [
        "▁shooting",
        -10.206119302567762
      ],
      [
        "▁god",
        -10.2071702329055
      ],
      [
        "▁boss.",
        -10.207950521133323
      ],
      [
        "▁Mother",
        -10.208814223774269
      ],
      [
        "▁losing",
        -10.209312505511534
      ],
      [
        "▁husband.",
        -10.209478234022695
      ],
      [
        "▁guess.",
        -10.209483893000272
      ],
      [
        "▁word.",
        -10.209999781358178
      ],
      [
        "▁Pretty",
        -10.212208280774798
      ],
      [
        "▁jump",
        -10.212328894707868
      ],
      [
        "▁village",
        -10.212890706596408
      ],
      [
        "▁Guess",
        -10.213301456374117
      ],
      [
        "▁here...",
        -10.21334396314414
      ],
      [
        "▁Know",
        -10.214487767621554
      ],
      [
        "▁accident.",
        -10.214593122222835
      ],
      [
        "▁Christ",
        -10.215518820122746
      ],
      [
        "▁Dear",
        -10.216201004644988
      ],
      [
        "▁Dan",
        -10.216908158077494
      ],
      [
        "▁paying",
        -10.217277935163478
      ],
      [
        "▁machine",
        -10.218292383666396
      ],
      [
        "▁Except",
        -10.219627539297834
      ],
      [
        "▁lt's",
        -10.221628597078054
      ],
      [
        "▁Harry",
        -10.22191209041075
      ],
      [
        "▁aware",
        -10.222388180798731
      ],
      [
        "▁dropped",
        -10.224174729865595
      ],
      [
        "▁saying?",
        -10.224930333297698
      ],
      [
        "▁Hell",
        -10.226167793446988
      ],
      [
        "▁something,",
        -10.226274020960863
      ],
      [
        "▁anyone.",
        -10.226487972659683
      ],
      [
        "▁Se",
        -10.22698189475794
      ],
      [
        "▁down!",
        -10.22760093963516
      ],
      [
        "▁bitch",
        -10.227843818335083
      ],
      [
        "▁arrived",
        -10.228398025574554
      ],
      [
        "▁best.",
        -10.229472295709838
      ],
      [
        "▁raise",
        -10.229519746273716
      ],
      [
        "▁Hmm.",
        -10.230070289311104
      ],
      [
        "▁careful",
        -10.230643894284276
      ],
      [
        "▁simply",
        -10.230749163579256
      ],
      [
        "▁field",
        -10.23075846751128
      ],
      [
        "▁expecting",
        -10.23142484827138
      ],
      [
        "▁Goodbye",
        -10.231754232540828
      ],
      [
        "▁here's",
        -10.232089500229876
      ],
      [
        "▁bigger",
        -10.234158669862907
      ],
      [
        "▁guys,",
        -10.234163939226404
      ],
      [
        "▁Until",
        -10.234440788033377
      ],
      [
        "▁bear",
        -10.235084904374387
      ],
      [
        "▁outside.",
        -10.235388567716983
      ],
      [
        "▁40",
        -10.236920535834072
      ],
      [
        "▁Un",
        -10.237244882161573
      ],
      [
        "▁hanging",
        -10.237617670678931
      ],
      [
        "▁spot",
        -10.23838525968665
      ],
      [
        "▁President",
        -10.238624060893214
      ],
      [
        "▁Up",
        -10.238639447784962
      ],
      [
        "▁Son",
        -10.238744404567749
      ],
      [
        "▁duty",
        -10.23947865012826
      ],
      [
        "▁Same",
        -10.240388967363344
      ],
      [
        "▁man!",
        -10.240955105324725
      ],
      [
        "▁photo",
        -10.241335879740216
      ],
      [
        "▁Alex",
        -10.241528979972356
      ],
      [
        "▁magic",
        -10.241973353726983
      ],
      [
        "▁difference",
        -10.242068540117897
      ],
      [
        "▁sir",
        -10.243413975460513
      ],
      [
        "▁dry",
        -10.244100385182156
      ],
      [
        "▁witness",
        -10.244922266552178
      ],
      [
        "▁MY",
        -10.245230836222412
      ],
      [
        "▁move.",
        -10.245276266312246
      ],
      [
        "▁double",
        -10.246363875332134
      ],
      [
        "▁serve",
        -10.24659168531726
      ],
      [
        "▁car?",
        -10.246602786632907
      ],
      [
        "▁country.",
        -10.247106128457972
      ],
      [
        "▁Yeah",
        -10.247243497440971
      ],
      [
        "▁invited",
        -10.248274429474389
      ],
      [
        "▁mistake",
        -10.248343193679156
      ],
      [
        "▁why?",
        -10.2487842741197
      ],
      [
        "▁huge",
        -10.248842044444176
      ],
      [
        "▁serious.",
        -10.249138036241629
      ],
      [
        "▁radio",
        -10.249713157042637
      ],
      [
        "▁00",
        -10.250302719751469
      ],
      [
        "▁Sergeant",
        -10.250339868545318
      ],
      [
        "▁begin",
        -10.250433317824228
      ],
      [
        "▁Four",
        -10.25049718159852
      ],
      [
        "▁mother's",
        -10.251158160606687
      ],
      [
        "▁anything,",
        -10.251495196770929
      ],
      [
        "▁blind",
        -10.251936147509683
      ],
      [
        "ji",
        -10.252312824949614
      ],
      [
        "ful",
        -10.253022616335986
      ],
      [
        "▁cat",
        -10.25347201899589
      ],
      [
        "▁jail",
        -10.255944078190014
      ],
      [
        "▁art",
        -10.255981449626734
      ],
      [
        "▁speaking",
        -10.256345412583949
      ],
      [
        "▁complete",
        -10.256511952264628
      ],
      [
        "▁girl,",
        -10.256546472803118
      ],
      [
        "▁Wow.",
        -10.25670590776357
      ],
      [
        "▁responsible",
        -10.256782303373402
      ],
      [
        "▁position",
        -10.256830010712504
      ],
      [
        "▁yourself?",
        -10.257637511885672
      ],
      [
        "▁price",
        -10.257669446465142
      ],
      [
        "▁afford",
        -10.257767084345506
      ],
      [
        "▁arm",
        -10.258566237673888
      ],
      [
        "▁Doctor",
        -10.258603810012
      ],
      [
        "▁main",
        -10.258661165017852
      ],
      [
        "▁rest.",
        -10.258758309491986
      ],
      [
        "▁Young",
        -10.259257719850948
      ],
      [
        "▁Tony",
        -10.259431437661105
      ],
      [
        "▁grand",
        -10.26018654097599
      ],
      [
        "▁anyway?",
        -10.260476862789908
      ],
      [
        "▁Guys",
        -10.260479924913612
      ],
      [
        "▁Ten",
        -10.26061098659721
      ],
      [
        "▁wind",
        -10.261813290806051
      ],
      [
        "▁Bill",
        -10.26235943489074
      ],
      [
        "▁bringing",
        -10.262399788912816
      ],
      [
        "▁cook",
        -10.263058698304002
      ],
      [
        "▁line.",
        -10.26336426714336
      ],
      [
        "▁green",
        -10.263861194903615
      ],
      [
        "▁yourself,",
        -10.26399986653386
      ],
      [
        "▁Paris",
        -10.264518229583132
      ],
      [
        "▁Police",
        -10.265539141367904
      ],
      [
        "▁warm",
        -10.265796950058569
      ],
      [
        "▁address",
        -10.26625986578624
      ],
      [
        "▁wrong,",
        -10.266651542760908
      ],
      [
        "ner",
        -10.266743733270271
      ],
      [
        "▁slow",
        -10.268700679305557
      ],
      [
        "ly,",
        -10.269744087871947
      ],
      [
        "▁church",
        -10.269750156434789
      ],
      [
        "▁same.",
        -10.270535790528914
      ],
      [
        "▁Jo",
        -10.271162731618352
      ],
      [
        "▁cup",
        -10.271404895228626
      ],
      [
        "▁girls.",
        -10.271545184269185
      ],
      [
        "▁books",
        -10.27212849513316
      ],
      [
        "▁anywhere",
        -10.2722875982018
      ],
      [
        "▁sick.",
        -10.272394387819771
      ],
      [
        "▁knock",
        -10.272880445225365
      ],
      [
        "▁wild",
        -10.273147142142534
      ],
      [
        "▁God's",
        -10.273941154812125
      ],
      [
        "H",
        -10.274384612700349
      ],
      [
        "▁plan.",
        -10.274537665525708
      ],
      [
        "▁Hang",
        -10.2747320106374
      ],
      [
        "▁plans",
        -10.27484082709634
      ],
      [
        "▁rock",
        -10.27536462609986
      ],
      [
        "▁guy?",
        -10.27602573812126
      ],
      [
        "▁So...",
        -10.276142964134994
      ],
      [
        "▁they'd",
        -10.276332189810466
      ],
      [
        "▁Henry",
        -10.278344358503086
      ],
      [
        "▁weapon",
        -10.2783598615477
      ],
      [
        "▁problems",
        -10.278612345796322
      ],
      [
        "▁video",
        -10.279194270179936
      ],
      [
        "▁remember?",
        -10.279628050198117
      ],
      [
        "▁Who?",
        -10.279878519857366
      ],
      [
        "▁company.",
        -10.280040917792284
      ],
      [
        "▁Ah",
        -10.280274440098074
      ],
      [
        "▁KNOW",
        -10.280419959907798
      ],
      [
        "▁bomb",
        -10.280736657744946
      ],
      [
        "man?",
        -10.281081799699468
      ],
      [
        "ten",
        -10.281624140579938
      ],
      [
        "▁ARE",
        -10.281637253648858
      ],
      [
        "▁quickly",
        -10.281742498900083
      ],
      [
        "F",
        -10.28179411780465
      ],
      [
        "▁file",
        -10.281908859411832
      ],
      [
        "▁lady.",
        -10.28273335227668
      ],
      [
        "▁access",
        -10.283772726362058
      ],
      [
        "▁boys.",
        -10.284954665090137
      ],
      [
        "▁walked",
        -10.286101768679572
      ],
      [
        "▁But...",
        -10.28667415765578
      ],
      [
        "▁suit",
        -10.28667510550452
      ],
      [
        "▁together,",
        -10.28738328214178
      ],
      [
        "▁partner",
        -10.289452698285306
      ],
      [
        "▁minute,",
        -10.290468279552758
      ],
      [
        "▁leg",
        -10.29100007516681
      ],
      [
        "▁Lee",
        -10.291050182696674
      ],
      [
        "▁obviously",
        -10.291278972728358
      ],
      [
        "▁burn",
        -10.29191237061774
      ],
      [
        "▁drugs",
        -10.292717809681529
      ],
      [
        "▁gun.",
        -10.292859032180411
      ],
      [
        "ell",
        -10.292875443901591
      ],
      [
        "▁Won't",
        -10.293126553655869
      ],
      [
        "▁through.",
        -10.293129763219708
      ],
      [
        "▁kidding",
        -10.294463842762564
      ],
      [
        "▁We'd",
        -10.29479916922186
      ],
      [
        "▁Brother",
        -10.297316187112456
      ],
      [
        "▁belong",
        -10.29772436859316
      ],
      [
        "▁Earth",
        -10.298169664304456
      ],
      [
        "▁built",
        -10.299389033222704
      ],
      [
        "▁common",
        -10.299705315843347
      ],
      [
        "▁fill",
        -10.300020098921465
      ],
      [
        "▁window",
        -10.300247786137351
      ],
      [
        "▁major",
        -10.300383241477263
      ],
      [
        "▁lay",
        -10.300977239276271
      ],
      [
        "▁shot.",
        -10.30152240834498
      ],
      [
        "▁sense.",
        -10.301686895842028
      ],
      [
        "ca",
        -10.30242313297644
      ],
      [
        "▁is...",
        -10.30275081897327
      ],
      [
        "▁Old",
        -10.30323026243756
      ],
      [
        "▁tonight,",
        -10.30338962292864
      ],
      [
        "▁El",
        -10.30350718923018
      ],
      [
        "▁whose",
        -10.303896587139391
      ],
      [
        "▁drunk",
        -10.3040846248608
      ],
      [
        "▁fellow",
        -10.304665295041689
      ],
      [
        "▁large",
        -10.305092440264326
      ],
      [
        "▁change.",
        -10.305222326943705
      ],
      [
        "▁yeah?",
        -10.30585113599913
      ],
      [
        "▁military",
        -10.307691233155188
      ],
      [
        "▁Haven't",
        -10.307904578873606
      ],
      [
        "▁manage",
        -10.307942182102307
      ],
      [
        "▁finding",
        -10.309040201560444
      ],
      [
        "▁rules",
        -10.309438858059876
      ],
      [
        "▁later,",
        -10.309948378202629
      ],
      [
        "▁evening",
        -10.310446384432383
      ],
      [
        "▁White",
        -10.310759252577178
      ],
      [
        "▁cute",
        -10.310858250459235
      ],
      [
        "0",
        -10.311163480609746
      ],
      [
        "▁soul",
        -10.311314777335946
      ],
      [
        "▁Calm",
        -10.312745031505056
      ],
      [
        "ce",
        -10.313754568464931
      ],
      [
        "▁feed",
        -10.313997885191156
      ],
      [
        "▁father?",
        -10.315953627797406
      ],
      [
        "-up",
        -10.316441556763968
      ],
      [
        "▁does.",
        -10.316513375249125
      ],
      [
        "▁back!",
        -10.316616365690573
      ],
      [
        "G",
        -10.31714391437771
      ],
      [
        "▁introduce",
        -10.318606559751732
      ],
      [
        "▁forever.",
        -10.319062575758968
      ],
      [
        "▁fake",
        -10.31927142571095
      ],
      [
        "▁Inspector",
        -10.3193494196105
      ],
      [
        "▁cry",
        -10.319406037185653
      ],
      [
        "▁Major",
        -10.320337766675836
      ],
      [
        "ok",
        -10.32085835999705
      ],
      [
        "▁shoes",
        -10.321131259848894
      ],
      [
        "▁account",
        -10.321984250531226
      ],
      [
        "▁noticed",
        -10.322139900292935
      ],
      [
        "L",
        -10.322213917418466
      ],
      [
        "▁Kim",
        -10.322789645321228
      ],
      [
        "▁Pa",
        -10.323726659375884
      ],
      [
        "▁attention",
        -10.324186387214905
      ],
      [
        "▁letting",
        -10.325374363575532
      ],
      [
        "▁low",
        -10.325983224480447
      ],
      [
        "▁two.",
        -10.326362594390256
      ],
      [
        "▁possibly",
        -10.327050984492802
      ],
      [
        "▁buddy",
        -10.327467075712716
      ],
      [
        "▁client",
        -10.32844832318893
      ],
      [
        "▁SO",
        -10.3285727650425
      ],
      [
        "▁away?",
        -10.329012539876226
      ],
      [
        "▁Exactly.",
        -10.329108616965458
      ],
      [
        "▁above",
        -10.329248504552403
      ],
      [
        "▁per",
        -10.32933979003299
      ],
      [
        "▁wall",
        -10.33037513193879
      ],
      [
        "▁mind,",
        -10.3304575357351
      ],
      [
        "▁Lieutenant",
        -10.330752704220435
      ],
      [
        "▁pack",
        -10.331412151197704
      ],
      [
        "chi",
        -10.3321458359045
      ],
      [
        "▁several",
        -10.333911749705452
      ],
      [
        "▁Car",
        -10.334288388146666
      ],
      [
        "▁honest",
        -10.335103664199934
      ],
      [
        "─",
        -10.335746691448769
      ],
      [
        "▁especially",
        -10.335869707809977
      ],
      [
        "▁forgotten",
        -10.336228705339597
      ],
      [
        "▁book.",
        -10.336355065096532
      ],
      [
        "▁hearing",
        -10.336562654225908
      ],
      [
        "lin",
        -10.336693249263066
      ],
      [
        "▁pretend",
        -10.336843616599005
      ],
      [
        "▁beginning",
        -10.336886918406258
      ],
      [
        "▁Things",
        -10.33714258647123
      ],
      [
        "▁Ever",
        -10.337856255054716
      ],
      [
        "▁honor",
        -10.338014267995533
      ],
      [
        "▁ALL",
        -10.338271049092535
      ],
      [
        "▁blood.",
        -10.338659370347614
      ],
      [
        "é",
        -10.339210938649376
      ],
      [
        "▁i'm",
        -10.339461691404768
      ],
      [
        "▁settle",
        -10.339627138558216
      ],
      [
        "ki",
        -10.34010219699542
      ],
      [
        "▁ordered",
        -10.340941048992574
      ],
      [
        "▁ass.",
        -10.34102418042781
      ],
      [
        "▁America",
        -10.341341310366982
      ],
      [
        "▁held",
        -10.34155455308356
      ],
      [
        "▁papers",
        -10.34188851438925
      ],
      [
        "▁murder.",
        -10.342173943515812
      ],
      [
        "▁happen?",
        -10.343271492407856
      ],
      [
        "▁careful.",
        -10.344527986841872
      ],
      [
        "▁Dude",
        -10.34463485073968
      ],
      [
        "Alright,",
        -10.344803819449874
      ],
      [
        "▁WAS",
        -10.344911086110027
      ],
      [
        "▁pictures",
        -10.3450638898873
      ],
      [
        "▁end.",
        -10.345382291695287
      ],
      [
        "▁chicken",
        -10.347396108953753
      ],
      [
        "▁others.",
        -10.347683570165502
      ],
      [
        "▁flying",
        -10.349626434052665
      ],
      [
        "▁7",
        -10.349992004739455
      ],
      [
        "▁turns",
        -10.350717599409364
      ],
      [
        "▁chief",
        -10.350755485003688
      ],
      [
        "▁stayed",
        -10.351005069524811
      ],
      [
        "▁guard",
        -10.352040448425845
      ],
      [
        "▁kitchen",
        -10.352829679801207
      ],
      [
        "▁Anyone",
        -10.352877000486012
      ],
      [
        "▁before?",
        -10.353055086494605
      ],
      [
        "▁hard.",
        -10.354651085184717
      ],
      [
        "▁remain",
        -10.35474909051507
      ],
      [
        "▁agreed",
        -10.35577114213302
      ],
      [
        "▁con",
        -10.356841706011894
      ],
      [
        "▁afternoon.",
        -10.357554258603331
      ],
      [
        "▁closed",
        -10.35768748764908
      ],
      [
        "▁slept",
        -10.357759840354465
      ],
      [
        "▁Jim",
        -10.357771194346276
      ],
      [
        "▁food.",
        -10.358031635284078
      ],
      [
        "▁done?",
        -10.358072294520388
      ],
      [
        "▁listening",
        -10.358300523934028
      ],
      [
        "▁followed",
        -10.360212652102364
      ],
      [
        "▁selling",
        -10.36145600928772
      ],
      [
        "▁Both",
        -10.361947134383424
      ],
      [
        "▁fired",
        -10.362080558777889
      ],
      [
        "▁tree",
        -10.3621403141605
      ],
      [
        "▁wash",
        -10.362331499466652
      ],
      [
        "▁right!",
        -10.363151385239544
      ],
      [
        "▁stop.",
        -10.36338971674622
      ],
      [
        "▁beer",
        -10.363511747528351
      ],
      [
        "▁Martin",
        -10.363558209787156
      ],
      [
        "▁Mac",
        -10.36362824279718
      ],
      [
        "▁son?",
        -10.363629191329816
      ],
      [
        "▁Nick",
        -10.364481320581977
      ],
      [
        "▁famous",
        -10.365271691879936
      ],
      [
        "▁fault",
        -10.36529268768401
      ],
      [
        "▁skin",
        -10.36542626500676
      ],
      [
        "▁older",
        -10.365631343693495
      ],
      [
        "▁amazing",
        -10.366100711188194
      ],
      [
        "▁credit",
        -10.366116288119647
      ],
      [
        "▁nearly",
        -10.366156043991882
      ],
      [
        "▁well?",
        -10.366542214782834
      ],
      [
        "▁stupid.",
        -10.36669893392373
      ],
      [
        "▁room?",
        -10.366706519870394
      ],
      [
        "▁ma",
        -10.366723040189836
      ],
      [
        "▁I'M",
        -10.36673445644285
      ],
      [
        "▁shows",
        -10.367618343874652
      ],
      [
        "▁nose",
        -10.367696766719112
      ],
      [
        "▁memory",
        -10.369072619085934
      ],
      [
        "▁Morning",
        -10.370042341012482
      ],
      [
        "▁general",
        -10.370085240503457
      ],
      [
        "▁split",
        -10.370863417210773
      ],
      [
        "▁Forgive",
        -10.371943619185071
      ],
      [
        "▁summer",
        -10.372817046351363
      ],
      [
        "▁pressure",
        -10.372996861658196
      ],
      [
        "▁war.",
        -10.374005466712095
      ],
      [
        "▁Mo",
        -10.374361076204346
      ],
      [
        "▁Eric",
        -10.37493151973922
      ],
      [
        "▁knowing",
        -10.375074516332974
      ],
      [
        "▁ready?",
        -10.375414247029516
      ],
      [
        "▁evening,",
        -10.375870204136923
      ],
      [
        "▁Chinese",
        -10.375907388894197
      ],
      [
        "▁seriously",
        -10.375948868959515
      ],
      [
        "▁weeks.",
        -10.376035953486385
      ],
      [
        "▁along.",
        -10.376684529721622
      ],
      [
        "ear",
        -10.379852148860516
      ],
      [
        "▁empty",
        -10.380089925943151
      ],
      [
        "▁Ray",
        -10.38056242594177
      ],
      [
        "▁herself",
        -10.380672351833828
      ],
      [
        "▁planet",
        -10.38143822931573
      ],
      [
        "▁worse.",
        -10.38278226682822
      ],
      [
        "▁DON'T",
        -10.383235900369153
      ],
      [
        "▁flight",
        -10.386033809601116
      ],
      [
        "▁NOT",
        -10.386106483761823
      ],
      [
        "▁remember.",
        -10.386376865105015
      ],
      [
        "▁park",
        -10.387610200221854
      ],
      [
        "▁Robert",
        -10.387885417402575
      ],
      [
        "P",
        -10.38823084048644
      ],
      [
        "▁ourselves",
        -10.388654248071012
      ],
      [
        "we",
        -10.388922201379826
      ],
      [
        "▁Chi",
        -10.38916071111101
      ],
      [
        "▁yours?",
        -10.389243703088246
      ],
      [
        "▁neck",
        -10.3903349975056
      ],
      [
        "▁draw",
        -10.39049901190769
      ],
      [
        "▁prepared",
        -10.390767654633144
      ],
      [
        "▁somewhere.",
        -10.390829000550765
      ],
      [
        "▁from?",
        -10.390952563938315
      ],
      [
        "▁Da",
        -10.391232481072173
      ],
      [
        "▁travel",
        -10.392437718885509
      ],
      [
        "▁Aunt",
        -10.392905358398233
      ],
      [
        "▁Na",
        -10.39311307216247
      ],
      [
        "▁knife",
        -10.39382935626219
      ],
      [
        "▁leaves",
        -10.394343262555104
      ],
      [
        "▁guy's",
        -10.396039187248256
      ],
      [
        "▁Bye.",
        -10.39653196483698
      ],
      [
        "▁spare",
        -10.396718885631442
      ],
      [
        "▁mom.",
        -10.39715584368802
      ],
      [
        "'re",
        -10.397876375323046
      ],
      [
        "▁received",
        -10.398262131509917
      ],
      [
        "▁rent",
        -10.398501546580512
      ],
      [
        "ary",
        -10.399490101996896
      ],
      [
        "▁OK",
        -10.400894923604168
      ],
      [
        "▁crap",
        -10.400952020231916
      ],
      [
        "one",
        -10.401090916759808
      ],
      [
        "if",
        -10.40109163466081
      ],
      [
        "▁Johnny",
        -10.401533388457228
      ],
      [
        "▁Jimmy",
        -10.402024582530156
      ],
      [
        "▁camera",
        -10.402365553560603
      ],
      [
        "▁tells",
        -10.403242516451783
      ],
      [
        "▁8",
        -10.403242555766248
      ],
      [
        "▁mean.",
        -10.40399418806082
      ],
      [
        "▁mentioned",
        -10.404266378925346
      ],
      [
        "▁laugh",
        -10.404698723996503
      ],
      [
        "▁coffee.",
        -10.405089603788827
      ],
      [
        "R",
        -10.405507441621966
      ],
      [
        "▁murdered",
        -10.405526201207184
      ],
      [
        "▁race",
        -10.406217244611431
      ],
      [
        "▁beyond",
        -10.40659083181638
      ],
      [
        "▁again!",
        -10.406680681973643
      ],
      [
        "▁Such",
        -10.407544825212934
      ],
      [
        "▁captain",
        -10.408014151909237
      ],
      [
        "▁Their",
        -10.408144627355544
      ],
      [
        "▁everyone.",
        -10.408395056747622
      ],
      [
        "▁silly",
        -10.40882148309575
      ],
      [
        "▁Trust",
        -10.408999766006284
      ],
      [
        "▁Mar",
        -10.410094472092334
      ],
      [
        "▁Cut",
        -10.410212038281442
      ],
      [
        "▁stolen",
        -10.411056492908063
      ],
      [
        "▁milk",
        -10.413090234168658
      ],
      [
        "▁invite",
        -10.413101215755905
      ],
      [
        "▁um...",
        -10.414684723871952
      ],
      [
        "▁down?",
        -10.415579928007888
      ],
      [
        "▁easier",
        -10.41610396548333
      ],
      [
        "▁West",
        -10.417252016798647
      ],
      [
        "▁arrested",
        -10.418075495850667
      ],
      [
        "▁month.",
        -10.41923660136592
      ],
      [
        "▁boy,",
        -10.41938808226567
      ],
      [
        "▁Danny",
        -10.421752660528677
      ],
      [
        "oh,",
        -10.422830914173344
      ],
      [
        "▁brings",
        -10.423455588065377
      ],
      [
        "▁sure?",
        -10.424504582591334
      ],
      [
        "▁Ka",
        -10.424802941145504
      ],
      [
        "▁life?",
        -10.4249664858307
      ],
      [
        "▁concerned",
        -10.425419886956746
      ],
      [
        "▁threw",
        -10.425518406504354
      ],
      [
        "der",
        -10.42595033740922
      ],
      [
        "▁place,",
        -10.426518969773136
      ],
      [
        "▁I-I",
        -10.427018190387392
      ],
      [
        "▁listen.",
        -10.427059688685082
      ],
      [
        "▁enemy",
        -10.427106798478665
      ],
      [
        "▁far.",
        -10.427383296813924
      ],
      [
        "▁show.",
        -10.428553948389627
      ],
      [
        "▁Lo",
        -10.429095396052093
      ],
      [
        "▁super",
        -10.429262922402936
      ],
      [
        "▁names",
        -10.429941512594178
      ],
      [
        "▁di",
        -10.430183813275
      ],
      [
        "▁criminal",
        -10.43080615866316
      ],
      [
        "▁assume",
        -10.43080725981458
      ],
      [
        "▁Richard",
        -10.43092842216801
      ],
      [
        "Dad,",
        -10.43122056963271
      ],
      [
        "*",
        -10.431456729637016
      ],
      [
        "▁city.",
        -10.431836160659794
      ],
      [
        "▁anywhere.",
        -10.432305035523484
      ],
      [
        "▁crew",
        -10.432743593103954
      ],
      [
        "▁impossible",
        -10.433199619265292
      ],
      [
        "▁dressed",
        -10.434492717386682
      ],
      [
        "▁Bob",
        -10.434500896758031
      ],
      [
        "▁awful",
        -10.434602681009215
      ],
      [
        "▁fire.",
        -10.435005485628729
      ],
      [
        "▁Di",
        -10.435033596663745
      ],
      [
        "▁lawyer",
        -10.4352478700852
      ],
      [
        "▁Um...",
        -10.435598788114095
      ],
      [
        "▁Holy",
        -10.435792210284552
      ],
      [
        "▁While",
        -10.4358010121858
      ],
      [
        "▁regret",
        -10.436019881318437
      ],
      [
        "▁off!",
        -10.43635103174508
      ],
      [
        "▁hole",
        -10.43659133074282
      ],
      [
        "▁sending",
        -10.43685224843244
      ],
      [
        "▁Sir.",
        -10.437042559493737
      ],
      [
        "▁scare",
        -10.438114637222755
      ],
      [
        "▁name's",
        -10.438472803223542
      ],
      [
        "▁tired.",
        -10.438550943479232
      ],
      [
        "▁twice",
        -10.438672244783556
      ],
      [
        "▁team.",
        -10.438755495877547
      ],
      [
        "▁experience",
        -10.438947818164351
      ],
      [
        "▁cold.",
        -10.440094868801486
      ],
      [
        "by",
        -10.440807253986506
      ],
      [
        "▁mission",
        -10.440809165202506
      ],
      [
        "▁Okay",
        -10.440894353245382
      ],
      [
        "▁yesterday",
        -10.441070772240035
      ],
      [
        "▁Ar",
        -10.443934796460065
      ],
      [
        "▁hurt.",
        -10.445864212436128
      ],
      [
        "▁trick",
        -10.44628922988797
      ],
      [
        "▁please!",
        -10.446370749730244
      ],
      [
        "▁closer",
        -10.447085046463584
      ],
      [
        "O",
        -10.447321390352432
      ],
      [
        "▁days,",
        -10.44821701028888
      ],
      [
        "▁WITH",
        -10.448522405030948
      ],
      [
        "▁Yeah!",
        -10.449187502793832
      ],
      [
        "▁Jane",
        -10.449772507437316
      ],
      [
        "▁Men",
        -10.450258118761417
      ],
      [
        "▁Con",
        -10.450384159568168
      ],
      [
        "▁Boss",
        -10.450384609622438
      ],
      [
        "▁release",
        -10.4506426620745
      ],
      [
        "▁guns",
        -10.451358663140574
      ],
      [
        "ger",
        -10.452097874222234
      ],
      [
        "▁DNA",
        -10.452133670315844
      ],
      [
        ".....",
        -10.45231166814507
      ],
      [
        "▁Prince",
        -10.452424339038537
      ],
      [
        "▁Bad",
        -10.452495992171157
      ],
      [
        "▁folks",
        -10.453076659888636
      ],
      [
        "den",
        -10.453169727680065
      ],
      [
        "▁see?",
        -10.45436849931338
      ],
      [
        "▁asleep",
        -10.454644815100185
      ],
      [
        "▁11",
        -10.454838607289762
      ],
      [
        "▁heavy",
        -10.454861964170874
      ],
      [
        "ER",
        -10.455111708221288
      ],
      [
        "▁Especially",
        -10.455430480500352
      ],
      [
        "▁Run",
        -10.45571199006325
      ],
      [
        "▁lies",
        -10.455835425810308
      ],
      [
        "un",
        -10.45592438522562
      ],
      [
        "vi",
        -10.455968634340923
      ],
      [
        "▁Life",
        -10.456842125268569
      ],
      [
        "▁Billy",
        -10.456915688312108
      ],
      [
        "▁Steve",
        -10.457073218796298
      ],
      [
        "▁JUST",
        -10.458627474964825
      ],
      [
        "▁fight.",
        -10.45877924481227
      ],
      [
        "▁24",
        -10.459123302173044
      ],
      [
        "▁bastard",
        -10.461072011770044
      ],
      [
        "▁way?",
        -10.462761200759296
      ],
      [
        "▁practice",
        -10.463023564047829
      ],
      [
        "▁student",
        -10.464101242191642
      ],
      [
        "▁ended",
        -10.464193461494665
      ],
      [
        "▁nine",
        -10.464225415479037
      ],
      [
        "▁18",
        -10.464626722409657
      ],
      [
        "▁onto",
        -10.464871850217952
      ],
      [
        "▁ugly",
        -10.466449097501297
      ],
      [
        "▁it...",
        -10.466840397882592
      ],
      [
        "▁bullet",
        -10.467087082858187
      ],
      [
        "K",
        -10.467134187008863
      ],
      [
        "▁away!",
        -10.46790001320527
      ],
      [
        "▁opened",
        -10.46931124129095
      ],
      [
        "▁apologize",
        -10.46955287337339
      ],
      [
        "▁moment,",
        -10.469576198020794
      ],
      [
        "▁bitch.",
        -10.46958855974702
      ],
      [
        "▁busy.",
        -10.470500928681467
      ],
      [
        "▁places",
        -10.47112442070116
      ],
      [
        "▁close.",
        -10.471286853300128
      ],
      [
        "▁apartment",
        -10.47132234802488
      ],
      [
        "▁much,",
        -10.471417006756996
      ],
      [
        "▁clear.",
        -10.472089511486182
      ],
      [
        "▁energy",
        -10.472234396162792
      ],
      [
        "▁flat",
        -10.47264936477758
      ],
      [
        "▁people,",
        -10.473027107115415
      ],
      [
        "▁upstairs",
        -10.47303456965756
      ],
      [
        "▁NO",
        -10.47379041274128
      ],
      [
        "▁bottom",
        -10.47435873931827
      ],
      [
        "▁arms",
        -10.475091330141456
      ],
      [
        "▁advice",
        -10.475714752886418
      ],
      [
        "▁add",
        -10.478658256783191
      ],
      [
        "▁seat.",
        -10.479400579573683
      ],
      [
        "♪",
        -10.47942489663639
      ],
      [
        "▁perfectly",
        -10.480083228496778
      ],
      [
        "▁South",
        -10.480195870773066
      ],
      [
        "▁idiot",
        -10.480263105512291
      ],
      [
        "▁joke",
        -10.48062499405127
      ],
      [
        "▁crazy?",
        -10.484429905882546
      ],
      [
        "▁tie",
        -10.486105516058489
      ],
      [
        "▁legs",
        -10.486350047822196
      ],
      [
        "▁IT'S",
        -10.486801763737509
      ],
      [
        "▁signed",
        -10.487021624183914
      ],
      [
        "▁map",
        -10.487053360197873
      ],
      [
        "her",
        -10.48768951342356
      ],
      [
        "▁level",
        -10.488364294627816
      ],
      [
        "▁Six",
        -10.488734962297093
      ],
      [
        "▁em.",
        -10.489094285786512
      ],
      [
        "▁hired",
        -10.489120067206224
      ],
      [
        "▁paint",
        -10.489845585448268
      ],
      [
        "▁name,",
        -10.490150542118096
      ],
      [
        "▁answer.",
        -10.490405612399629
      ],
      [
        "▁forced",
        -10.49067903873695
      ],
      [
        "▁dog.",
        -10.491298976988428
      ],
      [
        "▁caused",
        -10.491790504212062
      ],
      [
        "▁rule",
        -10.49179982790649
      ],
      [
        "▁killed.",
        -10.49264380794454
      ],
      [
        "▁Er",
        -10.492912658451631
      ],
      [
        "▁buddy.",
        -10.493118841803804
      ],
      [
        "▁turning",
        -10.493721363941283
      ],
      [
        "▁done,",
        -10.49428348923749
      ],
      [
        "▁wife?",
        -10.49441520104797
      ],
      [
        "pe",
        -10.494859055579989
      ],
      [
        "▁guest",
        -10.49505724808993
      ],
      [
        "▁eat.",
        -10.49510086489308
      ],
      [
        "▁War",
        -10.495220902502869
      ],
      [
        "▁post",
        -10.495620009547952
      ],
      [
        "▁training",
        -10.49567361960026
      ],
      [
        "▁president",
        -10.495986240613313
      ],
      [
        "let",
        -10.49761226300608
      ],
      [
        "▁Uh...",
        -10.497654631973177
      ],
      [
        "ya.",
        -10.497737388029474
      ],
      [
        "▁dig",
        -10.49774517336599
      ],
      [
        "▁alone?",
        -10.498277944785285
      ],
      [
        "▁hungry.",
        -10.49855968572558
      ],
      [
        "▁dead,",
        -10.49933748481772
      ],
      [
        "▁opinion",
        -10.499357101464954
      ],
      [
        "▁among",
        -10.49953127021764
      ],
      [
        "▁whom",
        -10.49982231218032
      ],
      [
        "▁starts",
        -10.499960221958451
      ],
      [
        "▁danger",
        -10.500818702990795
      ],
      [
        "▁lied",
        -10.501236049079813
      ],
      [
        "▁themselves",
        -10.501491129494598
      ],
      [
        "land",
        -10.501555981724817
      ],
      [
        "▁Stand",
        -10.501565207925614
      ],
      [
        "▁number.",
        -10.501642561886833
      ],
      [
        "▁room,",
        -10.502201471480827
      ],
      [
        "▁heading",
        -10.5023273025231
      ],
      [
        "us.",
        -10.502767764412235
      ],
      [
        "▁truly",
        -10.503733078453823
      ],
      [
        "▁neither",
        -10.50385019769421
      ],
      [
        "▁Ladies",
        -10.505352940773347
      ],
      [
        "▁decision",
        -10.505565515604577
      ],
      [
        "▁Mum",
        -10.50808277803349
      ],
      [
        "▁speed",
        -10.508771293198532
      ],
      [
        "▁Pete",
        -10.508924089449977
      ],
      [
        "▁Right?",
        -10.509309228044556
      ],
      [
        "▁health",
        -10.509446126429792
      ],
      [
        "es,",
        -10.509800955524405
      ],
      [
        "▁block",
        -10.510336141150272
      ],
      [
        "▁Co",
        -10.510419723856216
      ],
      [
        "▁fan",
        -10.512102050742948
      ],
      [
        "tic",
        -10.512328372546596
      ],
      [
        "▁meat",
        -10.512784033574295
      ],
      [
        "▁Ya",
        -10.512948285588852
      ],
      [
        "▁Officer",
        -10.513105118968
      ],
      [
        "▁sight",
        -10.513423026148104
      ],
      [
        "▁Wouldn't",
        -10.514202929333456
      ],
      [
        "▁attacked",
        -10.515119047784422
      ],
      [
        "▁Daniel",
        -10.51517347099117
      ],
      [
        "▁them!",
        -10.515199266964457
      ],
      [
        "▁tape",
        -10.515902532228962
      ],
      [
        "▁table.",
        -10.51611601470746
      ],
      [
        "▁weapons",
        -10.51612963279852
      ],
      [
        "▁birth",
        -10.516957256591173
      ],
      [
        "▁size",
        -10.517061501749728
      ],
      [
        "▁Sarah",
        -10.519131146875242
      ],
      [
        "▁Enough",
        -10.519819346482276
      ],
      [
        "▁FBI",
        -10.520467892599026
      ],
      [
        "▁biggest",
        -10.520987503907932
      ],
      [
        "ping",
        -10.522052510501814
      ],
      [
        "▁City",
        -10.5223013348049
      ],
      [
        "▁agent",
        -10.522585721385848
      ],
      [
        "zi",
        -10.522702123587043
      ],
      [
        "▁fancy",
        -10.522830123610978
      ],
      [
        "▁alright?",
        -10.522851355927
      ],
      [
        "▁Where?",
        -10.52309819273566
      ],
      [
        "▁enter",
        -10.52389876076816
      ],
      [
        "▁animal",
        -10.525230175026952
      ],
      [
        "▁mate.",
        -10.525418781967202
      ],
      [
        "les",
        -10.525575016320383
      ],
      [
        "▁mother?",
        -10.525595920644523
      ],
      [
        "▁proof",
        -10.526365981981344
      ],
      [
        "▁station.",
        -10.526775942844775
      ],
      [
        "▁ruin",
        -10.526868255840297
      ],
      [
        "▁guilty",
        -10.527102781952292
      ],
      [
        "▁member",
        -10.52771103598034
      ],
      [
        "▁Anna",
        -10.527822095527966
      ],
      [
        "que",
        -10.527905143528068
      ],
      [
        "▁legal",
        -10.528162572407544
      ],
      [
        "▁Aye",
        -10.52831758954694
      ],
      [
        "▁Mm-hmm.",
        -10.528331994223912
      ],
      [
        "▁battle",
        -10.528352156720578
      ],
      [
        "▁usual",
        -10.52854313667437
      ],
      [
        "in.",
        -10.52875335583207
      ],
      [
        "▁Eddie",
        -10.530300784452743
      ],
      [
        "▁Thought",
        -10.530377990439463
      ],
      [
        "▁avoid",
        -10.530523708205555
      ],
      [
        "▁Neither",
        -10.530706983069384
      ],
      [
        "▁spirit",
        -10.53073237356649
      ],
      [
        "▁co",
        -10.53077207975867
      ],
      [
        "▁hello",
        -10.53094942125018
      ],
      [
        "ating",
        -10.531875965784522
      ],
      [
        "▁natural",
        -10.531972628743416
      ],
      [
        "▁problem,",
        -10.53212701996056
      ],
      [
        "▁school?",
        -10.532305930873743
      ],
      [
        "▁tomorrow,",
        -10.533214766207978
      ],
      [
        "▁scared.",
        -10.533216024106848
      ],
      [
        "▁code",
        -10.5335869288117
      ],
      [
        "▁dealing",
        -10.534558326097482
      ],
      [
        "▁German",
        -10.535371399545884
      ],
      [
        "▁social",
        -10.535412152926016
      ],
      [
        "▁BUT",
        -10.535540031219895
      ],
      [
        "▁order.",
        -10.535627284114003
      ],
      [
        "▁harm",
        -10.536038033801075
      ],
      [
        "my",
        -10.536196092187051
      ],
      [
        "▁oil",
        -10.536810149215263
      ],
      [
        "▁25",
        -10.537428621976854
      ],
      [
        "▁buried",
        -10.537758360333584
      ],
      [
        "▁must've",
        -10.538988298721264
      ],
      [
        "out",
        -10.539558786810794
      ],
      [
        "▁breaking",
        -10.539802053628922
      ],
      [
        "▁opportunity",
        -10.53992865386844
      ],
      [
        "▁brothers",
        -10.540808507217315
      ],
      [
        "▁camp",
        -10.541024908849224
      ],
      [
        "▁reason.",
        -10.541617498031007
      ],
      [
        "▁dumb",
        -10.542972858605127
      ],
      [
        "▁Mom.",
        -10.543309655272944
      ],
      [
        "▁proper",
        -10.543422954934568
      ],
      [
        "▁river",
        -10.543671766573878
      ],
      [
        "▁restaurant",
        -10.543880771074004
      ],
      [
        "▁North",
        -10.544115470612423
      ],
      [
        "▁Hope",
        -10.544396787444988
      ],
      [
        "▁quiet.",
        -10.544591752555018
      ],
      [
        "▁keys",
        -10.545062281025524
      ],
      [
        "▁immediately.",
        -10.545485173006472
      ],
      [
        "▁lights",
        -10.545910925560968
      ],
      [
        "▁#",
        -10.54683150020156
      ],
      [
        "▁tight",
        -10.546857625071626
      ],
      [
        "▁perfect.",
        -10.54756766899254
      ],
      [
        "▁towards",
        -10.547721479794712
      ],
      [
        "▁showing",
        -10.54775968277428
      ],
      [
        "side",
        -10.548502957585216
      ],
      [
        "▁powerful",
        -10.549496944898962
      ],
      [
        "▁Commander",
        -10.549567976538691
      ],
      [
        "▁purpose",
        -10.549774633601634
      ],
      [
        "▁research",
        -10.550084864560892
      ],
      [
        "za",
        -10.55033480342654
      ],
      [
        "▁conversation",
        -10.55089099463826
      ],
      [
        "▁ghost",
        -10.55098979834601
      ],
      [
        "▁lift",
        -10.55183933707105
      ],
      [
        "V",
        -10.55192478159606
      ],
      [
        "▁rush",
        -10.552063029185378
      ],
      [
        "▁odd",
        -10.553846791801725
      ],
      [
        "▁Use",
        -10.553948219352272
      ],
      [
        "▁clearly",
        -10.554414970431116
      ],
      [
        "▁message.",
        -10.554425703215196
      ],
      [
        "▁Thomas",
        -10.554871120284943
      ],
      [
        "▁Charles",
        -10.555090371484283
      ],
      [
        "▁What'd",
        -10.55566869884584
      ],
      [
        "▁sudden",
        -10.55586544769763
      ],
      [
        "▁Adam",
        -10.555892407942164
      ],
      [
        "▁Sister",
        -10.555914812562598
      ],
      [
        "▁old.",
        -10.55603522486222
      ],
      [
        "ie.",
        -10.556293314672663
      ],
      [
        "ding",
        -10.5567005259723
      ],
      [
        "▁fucked",
        -10.557028191342503
      ],
      [
        "ard",
        -10.557083864512991
      ],
      [
        "▁free.",
        -10.557149459610844
      ],
      [
        "▁gay",
        -10.558331386254856
      ],
      [
        "▁belongs",
        -10.558584972185326
      ],
      [
        "▁believed",
        -10.559417344771552
      ],
      [
        "▁stage",
        -10.559538072868492
      ],
      [
        "▁Mama",
        -10.560522271003288
      ],
      [
        "▁goddamn",
        -10.56106064805326
      ],
      [
        "▁action",
        -10.561191886066611
      ],
      [
        "▁pro",
        -10.561443182183694
      ],
      [
        "▁condition",
        -10.561817878454896
      ],
      [
        "▁Yep.",
        -10.563013155030047
      ],
      [
        "▁moon",
        -10.56449606005698
      ],
      [
        "▁class.",
        -10.564937854025183
      ],
      [
        "▁Charlie",
        -10.565182506318257
      ],
      [
        "▁buying",
        -10.56524887252758
      ],
      [
        "▁Van",
        -10.565716562306893
      ],
      [
        "▁together?",
        -10.565863699732228
      ],
      [
        "▁House",
        -10.566860396591254
      ],
      [
        "▁Doctor.",
        -10.567433925832828
      ],
      [
        "▁long?",
        -10.567489293378769
      ],
      [
        "lan",
        -10.56809075950323
      ],
      [
        "▁gang",
        -10.56809889009563
      ],
      [
        "▁boyfriend",
        -10.569986153864882
      ],
      [
        "per",
        -10.570005282053843
      ],
      [
        "▁Send",
        -10.570891403702982
      ],
      [
        "▁Quite",
        -10.571707381316044
      ],
      [
        "▁Bi",
        -10.572272620948056
      ],
      [
        "▁Du",
        -10.573912218394508
      ],
      [
        "▁lab",
        -10.574019542661825
      ],
      [
        "▁bird",
        -10.574256432629246
      ],
      [
        "▁brother?",
        -10.57526595340688
      ],
      [
        "▁According",
        -10.57580786686423
      ],
      [
        "▁beauty",
        -10.57703011721885
      ],
      [
        "ring",
        -10.577113482159358
      ],
      [
        "▁women.",
        -10.577559738440758
      ],
      [
        "▁Tonight",
        -10.577889851640528
      ],
      [
        "▁view",
        -10.578493359946714
      ],
      [
        "ize",
        -10.57855745468263
      ],
      [
        "▁interview",
        -10.578771330039707
      ],
      [
        "Where'd",
        -10.579013590735908
      ],
      [
        "▁hidden",
        -10.579125543558204
      ],
      [
        "▁promise.",
        -10.579353753884345
      ],
      [
        "▁Chris",
        -10.579414812001009
      ],
      [
        "▁mum",
        -10.579521871518963
      ],
      [
        "▁opening",
        -10.579757765370134
      ],
      [
        "▁dollars",
        -10.579888196401557
      ],
      [
        "▁greatest",
        -10.580521112713631
      ],
      [
        "▁nor",
        -10.581122778202795
      ],
      [
        "▁open.",
        -10.58177313834206
      ],
      [
        "▁too!",
        -10.581825346249053
      ],
      [
        "▁suicide",
        -10.582092592004924
      ],
      [
        "▁pair",
        -10.582183194662589
      ],
      [
        "▁friends,",
        -10.582286639654132
      ],
      [
        "con",
        -10.58278288498939
      ],
      [
        "▁Baby",
        -10.58279653853856
      ],
      [
        "▁Everything's",
        -10.582816815296464
      ],
      [
        "▁welcome.",
        -10.583304945483686
      ],
      [
        "▁seconds",
        -10.583678683689126
      ],
      [
        "▁hungry",
        -10.585176883987629
      ],
      [
        "▁dangerous.",
        -10.585666796600652
      ],
      [
        "▁cream",
        -10.586072044613914
      ],
      [
        "▁I'II",
        -10.586099976608136
      ],
      [
        "▁deliver",
        -10.58715897691508
      ],
      [
        "▁gentleman",
        -10.587787348284614
      ],
      [
        "▁market",
        -10.58861312302898
      ],
      [
        "▁prepare",
        -10.588918670319249
      ],
      [
        "▁regular",
        -10.589477824653684
      ],
      [
        "cha",
        -10.589671602700284
      ],
      [
        "▁ID",
        -10.590799453513744
      ],
      [
        "▁ho",
        -10.591038503955438
      ],
      [
        "▁band",
        -10.591598758135738
      ],
      [
        "▁Li",
        -10.591711453642809
      ],
      [
        "▁girlfriend",
        -10.592258770093215
      ],
      [
        "▁Couldn't",
        -10.592280042607491
      ],
      [
        "▁Coming",
        -10.593031742870744
      ],
      [
        "▁career",
        -10.59336945649064
      ],
      [
        "▁pop",
        -10.593592248175437
      ],
      [
        "▁favor",
        -10.593843825168408
      ],
      [
        "▁rain",
        -10.59401459121299
      ],
      [
        "▁Clark",
        -10.59425710440212
      ],
      [
        "▁Kill",
        -10.594305949785754
      ],
      [
        "▁Ko",
        -10.594462759273206
      ],
      [
        "▁Mind",
        -10.594707600581293
      ],
      [
        "▁Also",
        -10.595892692301382
      ],
      [
        "▁barely",
        -10.595960148970349
      ],
      [
        "▁Seems",
        -10.596580221061696
      ],
      [
        "▁Look.",
        -10.596638220898262
      ],
      [
        "▁flowers",
        -10.59665631444367
      ],
      [
        "▁Majesty",
        -10.597003078656488
      ],
      [
        "▁feelings",
        -10.597676719325388
      ],
      [
        "▁dogs",
        -10.597722677346724
      ],
      [
        "▁hair.",
        -10.598043580991328
      ],
      [
        "▁accident",
        -10.598288619390075
      ],
      [
        "▁gentlemen.",
        -10.599254286899855
      ],
      [
        "▁smile",
        -10.599693322478933
      ],
      [
        "▁Believe",
        -10.600187709250136
      ],
      [
        "▁checking",
        -10.60071179159178
      ],
      [
        "▁dude",
        -10.600872036472802
      ],
      [
        "▁Ri",
        -10.601201410928804
      ],
      [
        "▁early.",
        -10.601216788863674
      ],
      [
        "▁waited",
        -10.602127379869094
      ],
      [
        "▁records",
        -10.60282631110328
      ],
      [
        "▁future.",
        -10.603063550246704
      ],
      [
        "▁control.",
        -10.603100886491523
      ],
      [
        "ak",
        -10.60351960078656
      ],
      [
        "▁Although",
        -10.603558625833047
      ],
      [
        "▁amazing.",
        -10.603910384096304
      ],
      [
        "▁shame",
        -10.606279247146192
      ],
      [
        "▁Eh",
        -10.606911855298376
      ],
      [
        "▁Ready",
        -10.607381790339224
      ],
      [
        "▁stories",
        -10.607825447681783
      ],
      [
        "▁create",
        -10.608603317943162
      ],
      [
        "▁ticket",
        -10.609147063531571
      ],
      [
        "▁Going",
        -10.609536173265075
      ],
      [
        "▁father,",
        -10.61030884420049
      ],
      [
        "▁weird.",
        -10.610382590055512
      ],
      [
        "▁driver",
        -10.610497981257218
      ],
      [
        "▁Tommy",
        -10.61066955732502
      ],
      [
        "▁Anybody",
        -10.610679456449317
      ],
      [
        "▁ways",
        -10.611069425109578
      ],
      [
        "▁intend",
        -10.611225976403034
      ],
      [
        "▁trial",
        -10.611543959757698
      ],
      [
        "▁grown",
        -10.611715574871042
      ],
      [
        "▁Russian",
        -10.611828933443654
      ],
      [
        "▁cab",
        -10.611832710062464
      ],
      [
        "▁department",
        -10.611846499817066
      ],
      [
        "▁pray",
        -10.612068329246474
      ],
      [
        "▁brother,",
        -10.612367247153626
      ],
      [
        "▁matter,",
        -10.612460110820376
      ],
      [
        "▁dancing",
        -10.612539664892246
      ],
      [
        "▁lord",
        -10.61289153316772
      ],
      [
        "er's",
        -10.613354084297407
      ],
      [
        "▁Santa",
        -10.61382106990384
      ],
      [
        "▁total",
        -10.614399546994662
      ],
      [
        "▁Leo",
        -10.614920134602391
      ],
      [
        "▁floor.",
        -10.615082084276814
      ],
      [
        "▁Z",
        -10.615170614888775
      ],
      [
        "▁manager",
        -10.6164510029981
      ],
      [
        "▁saving",
        -10.616800901456276
      ],
      [
        "▁listen,",
        -10.617565137642686
      ],
      [
        "▁borrow",
        -10.617729948779749
      ],
      [
        "▁system.",
        -10.617914626016528
      ],
      [
        "▁survive",
        -10.618052662109806
      ],
      [
        "▁Ryan",
        -10.618268284361209
      ],
      [
        "ies",
        -10.61850459517809
      ],
      [
        "▁excited",
        -10.619564623791856
      ],
      [
        "▁Bobby",
        -10.620022975291873
      ],
      [
        "▁understand,",
        -10.62008329105968
      ],
      [
        "▁now...",
        -10.620235831997304
      ],
      [
        "▁amount",
        -10.620239315868783
      ],
      [
        "'ve",
        -10.620440323850394
      ],
      [
        "▁whoever",
        -10.620568102632078
      ],
      [
        "▁returned",
        -10.620617047920277
      ],
      [
        "▁wise",
        -10.620740386871036
      ],
      [
        "▁island",
        -10.621030849193067
      ],
      [
        "▁rough",
        -10.621567166040832
      ],
      [
        "hat",
        -10.62194053082328
      ],
      [
        "ley",
        -10.62219917458093
      ],
      [
        "▁\",",
        -10.623548926507423
      ],
      [
        "▁fuckin'",
        -10.623978862594804
      ],
      [
        "▁depends",
        -10.624078199242293
      ],
      [
        "▁road.",
        -10.625728119754722
      ],
      [
        "▁US",
        -10.62591858380555
      ],
      [
        "han",
        -10.626112178421346
      ],
      [
        "▁handsome",
        -10.626219228190712
      ],
      [
        "nd",
        -10.626450067916394
      ],
      [
        "▁tour",
        -10.626931924873778
      ],
      [
        "▁wife,",
        -10.62720921573822
      ],
      [
        "▁Laura",
        -10.628127288806716
      ],
      [
        "▁9",
        -10.628462322977526
      ],
      [
        "▁dead?",
        -10.62869202456032
      ],
      [
        "▁help?",
        -10.629000636540736
      ],
      [
        "▁LIKE",
        -10.630445037104025
      ],
      [
        "▁St",
        -10.632401173606924
      ],
      [
        "▁discovered",
        -10.63241241294185
      ],
      [
        "▁lives.",
        -10.63243798476152
      ],
      [
        "▁bodies",
        -10.632845019247693
      ],
      [
        "▁Han",
        -10.633234827458422
      ],
      [
        "▁sooner",
        -10.633928019885316
      ],
      [
        "▁Park",
        -10.634202597551864
      ],
      [
        "▁managed",
        -10.635520566462292
      ],
      [
        "▁Maria",
        -10.63572331654898
      ],
      [
        "▁Captain.",
        -10.635878456349072
      ],
      [
        "▁project",
        -10.635938588618457
      ],
      [
        "▁meal",
        -10.636052676744544
      ],
      [
        "▁offered",
        -10.63632342163896
      ],
      [
        "▁focus",
        -10.63644852596768
      ],
      [
        "▁leaving.",
        -10.636616568628218
      ],
      [
        "▁High",
        -10.637778708573432
      ],
      [
        "▁color",
        -10.637944728779246
      ],
      [
        "▁female",
        -10.639144811505934
      ],
      [
        "▁impossible.",
        -10.63992600870489
      ],
      [
        "▁pleased",
        -10.639939581435028
      ],
      [
        "▁comfortable",
        -10.640057456795487
      ],
      [
        "▁Rose",
        -10.640597262461071
      ],
      [
        "▁daddy",
        -10.640673814193876
      ],
      [
        "▁roll",
        -10.641332655141785
      ],
      [
        "▁solve",
        -10.641410815935195
      ],
      [
        "▁apart",
        -10.641543882949057
      ],
      [
        "▁Larry",
        -10.641974085306597
      ],
      [
        "▁picking",
        -10.642053655611964
      ],
      [
        "▁bill",
        -10.642258191922668
      ],
      [
        "▁necessary",
        -10.642415535145073
      ],
      [
        "▁realized",
        -10.642486309177515
      ],
      [
        "▁waiting.",
        -10.642560803693684
      ],
      [
        "▁decent",
        -10.642939067849774
      ],
      [
        "▁hurry.",
        -10.643210883123224
      ],
      [
        "▁kidding.",
        -10.643450829732531
      ],
      [
        "▁street.",
        -10.643832269267046
      ],
      [
        "▁much?",
        -10.64400684013528
      ],
      [
        "line",
        -10.644162148585725
      ],
      [
        "▁people?",
        -10.64500903722543
      ],
      [
        "▁male",
        -10.646600351941364
      ],
      [
        "▁crying",
        -10.6468504099482
      ],
      [
        "▁longer.",
        -10.646947826744068
      ],
      [
        "▁dad's",
        -10.647520329194355
      ],
      [
        "▁He'd",
        -10.647620704493564
      ],
      [
        "▁Green",
        -10.648999168586323
      ],
      [
        "▁outta",
        -10.649555879693056
      ],
      [
        "▁meaning",
        -10.649893102758991
      ],
      [
        "▁brave",
        -10.650073649554598
      ],
      [
        "▁surely",
        -10.6504973081442
      ],
      [
        "▁Cha",
        -10.65156140688908
      ],
      [
        "▁expected",
        -10.651872072253305
      ],
      [
        "ran",
        -10.651928871117926
      ],
      [
        "▁Pick",
        -10.651957077641322
      ],
      [
        "▁familiar",
        -10.652745297824236
      ],
      [
        "▁Bar",
        -10.652881387775636
      ],
      [
        "▁official",
        -10.653509524233597
      ],
      [
        "▁heat",
        -10.65391830129639
      ],
      [
        "ster",
        -10.654042042167298
      ],
      [
        "▁how's",
        -10.654896968940452
      ],
      [
        "▁animals",
        -10.655025073181244
      ],
      [
        "▁copy",
        -10.65533609977914
      ],
      [
        "▁particular",
        -10.655789870951612
      ],
      [
        "▁try.",
        -10.656085006518047
      ],
      [
        "▁friend?",
        -10.6562847945526
      ],
      [
        "▁owner",
        -10.656426342943584
      ],
      [
        "▁finger",
        -10.656985444828996
      ],
      [
        "▁spread",
        -10.657499402883465
      ],
      [
        "▁Ah.",
        -10.657700700601152
      ],
      [
        "▁mood",
        -10.65815034997276
      ],
      [
        "▁strike",
        -10.658760428894668
      ],
      [
        "▁likely",
        -10.658888090890702
      ],
      [
        "▁No...",
        -10.659790128479372
      ],
      [
        "▁Lu",
        -10.66035626981368
      ],
      [
        "▁operation",
        -10.660474024265737
      ],
      [
        "▁Grandpa",
        -10.660985929541242
      ],
      [
        "▁problems.",
        -10.66127255173372
      ],
      [
        "▁200",
        -10.661490340711682
      ],
      [
        "ok?",
        -10.661652365852378
      ],
      [
        "of",
        -10.662213970676088
      ],
      [
        "▁missing.",
        -10.662267895439427
      ],
      [
        "▁See?",
        -10.662900990169131
      ],
      [
        "▁falling",
        -10.663166904884347
      ],
      [
        "ze",
        -10.663372224355838
      ],
      [
        "▁carrying",
        -10.663406837336138
      ],
      [
        "ng",
        -10.6636280160857
      ],
      [
        "▁Almost",
        -10.664723988713316
      ],
      [
        "▁world,",
        -10.665070927651822
      ],
      [
        "▁GET",
        -10.665924079578565
      ],
      [
        "▁Carl",
        -10.666050763866547
      ],
      [
        "▁sake",
        -10.667097124654653
      ],
      [
        "▁strength",
        -10.668376258714096
      ],
      [
        "▁corner",
        -10.668516744480712
      ],
      [
        "ju",
        -10.668631385810803
      ],
      [
        "▁reached",
        -10.668719354275916
      ],
      [
        "▁anymore",
        -10.669151275454672
      ],
      [
        "▁immediately",
        -10.669158656805324
      ],
      [
        "▁Whose",
        -10.669580454810337
      ],
      [
        "▁Jack.",
        -10.6699230834159
      ],
      [
        "▁everywhere.",
        -10.670128697067078
      ],
      [
        "▁interesting.",
        -10.67073859197253
      ],
      [
        "▁Su",
        -10.67087647799872
      ],
      [
        "▁cards",
        -10.6710074756309
      ],
      [
        "▁dating",
        -10.671349550436188
      ],
      [
        "▁Madam",
        -10.672267540071058
      ],
      [
        "▁Saturday",
        -10.672313403961594
      ],
      [
        "▁appear",
        -10.672841972536968
      ],
      [
        "▁Aw",
        -10.672939398406212
      ],
      [
        "▁ex",
        -10.673653011859336
      ],
      [
        "sen",
        -10.674670843188604
      ],
      [
        "▁devil",
        -10.674828274968888
      ],
      [
        "▁students",
        -10.675462485680166
      ],
      [
        "▁runs",
        -10.676181323953614
      ],
      [
        "Ain't",
        -10.67700065415072
      ],
      [
        "▁soldiers",
        -10.678424108828878
      ],
      [
        "▁ideas",
        -10.678554564387248
      ],
      [
        "▁nature",
        -10.678569649618018
      ],
      [
        "▁damage",
        -10.67955839606713
      ],
      [
        "▁changed.",
        -10.680034196607046
      ],
      [
        "▁Need",
        -10.68071907697075
      ],
      [
        "▁lost.",
        -10.680822813196496
      ],
      [
        "▁warn",
        -10.68103608865433
      ],
      [
        "▁bright",
        -10.681131628481678
      ],
      [
        "▁director",
        -10.682304463758271
      ],
      [
        "▁tomorrow?",
        -10.682415036758
      ],
      [
        "▁Star",
        -10.68341041236448
      ],
      [
        "▁pool",
        -10.684175479405807
      ],
      [
        "▁lunch.",
        -10.684436079361332
      ],
      [
        "▁members",
        -10.68503902055414
      ],
      [
        "for",
        -10.685593223679888
      ],
      [
        "▁Darling",
        -10.686074803844658
      ],
      [
        "▁alright.",
        -10.68653234026796
      ],
      [
        "▁Japanese",
        -10.686643216479371
      ],
      [
        "▁beach",
        -10.686809977327927
      ],
      [
        "▁Unfortunately",
        -10.687271261801827
      ],
      [
        "▁Answer",
        -10.688064503470924
      ],
      [
        "▁Dave",
        -10.688435704563062
      ],
      [
        "▁feet.",
        -10.688820627113309
      ],
      [
        "▁Simon",
        -10.68885360179744
      ],
      [
        "ya?",
        -10.689040763778657
      ],
      [
        "▁though,",
        -10.689257168737775
      ],
      [
        "▁destroyed",
        -10.689516886704013
      ],
      [
        "LY",
        -10.690346684864211
      ],
      [
        "▁staff",
        -10.690676049558324
      ],
      [
        "▁works.",
        -10.69070731834707
      ],
      [
        "▁OH",
        -10.690746170003392
      ],
      [
        "▁Shouldn't",
        -10.691088527926656
      ],
      [
        "▁actually.",
        -10.69149762207102
      ],
      [
        "▁professional",
        -10.691971590372404
      ],
      [
        "▁business,",
        -10.69199907659679
      ],
      [
        "▁drove",
        -10.692515694929508
      ],
      [
        "▁air.",
        -10.69263636215372
      ],
      [
        "▁emergency",
        -10.693024104105318
      ],
      [
        "▁doing.",
        -10.693608138514522
      ],
      [
        "▁Down",
        -10.693811507989338
      ],
      [
        "▁Might",
        -10.694028513898516
      ],
      [
        "▁connection",
        -10.69421322386136
      ],
      [
        "▁start.",
        -10.69425035393108
      ],
      [
        "Whoa,",
        -10.694301217572768
      ],
      [
        "▁year,",
        -10.694935612995229
      ],
      [
        "▁London",
        -10.695575979777894
      ],
      [
        "▁then...",
        -10.696163752148424
      ],
      [
        "▁horrible",
        -10.69648972925497
      ],
      [
        "▁quickly.",
        -10.696680197644438
      ],
      [
        "▁easily",
        -10.69695860152036
      ],
      [
        "▁signal",
        -10.697440511384592
      ],
      [
        "res",
        -10.69778602291514
      ],
      [
        "ler",
        -10.698031371757756
      ],
      [
        "▁photos",
        -10.69828439157373
      ],
      [
        "▁leader",
        -10.698539901050337
      ],
      [
        "CH",
        -10.698734946482356
      ],
      [
        "▁jealous",
        -10.698996099222036
      ],
      [
        "▁Ne",
        -10.69914240185257
      ],
      [
        "▁situation.",
        -10.699317452267628
      ],
      [
        "▁committed",
        -10.699887217526198
      ],
      [
        "▁crack",
        -10.700302101272529
      ],
      [
        "▁CAN",
        -10.700400189142217
      ],
      [
        "▁OUT",
        -10.700701184907848
      ],
      [
        "▁Sunday",
        -10.70132504379939
      ],
      [
        "▁tip",
        -10.701383903357677
      ],
      [
        "Man,",
        -10.701478935410478
      ],
      [
        "▁screw",
        -10.702178822597878
      ],
      [
        "▁weather",
        -10.702989601549804
      ],
      [
        "▁Easy",
        -10.703773638193772
      ],
      [
        "▁around,",
        -10.704354457618027
      ],
      [
        "▁cousin",
        -10.704590989433214
      ],
      [
        "▁piss",
        -10.705328246710373
      ],
      [
        "▁dump",
        -10.70644378277107
      ],
      [
        "je",
        -10.706651601250504
      ],
      [
        "▁sat",
        -10.706679370533292
      ],
      [
        "▁farm",
        -10.706687673491652
      ],
      [
        "▁Roger",
        -10.708540514832931
      ],
      [
        "▁Eat",
        -10.70919965864415
      ],
      [
        "▁stomach",
        -10.7094428047472
      ],
      [
        "▁everybody.",
        -10.709693147783002
      ],
      [
        "▁gentlemen,",
        -10.709963701012985
      ],
      [
        "▁school,",
        -10.710178446114975
      ],
      [
        "▁area.",
        -10.710663906063832
      ],
      [
        "▁medicine",
        -10.710728009612495
      ],
      [
        "▁Follow",
        -10.711101031655872
      ],
      [
        "▁cake",
        -10.711414933308262
      ],
      [
        "▁first,",
        -10.711759029245938
      ],
      [
        "▁Indian",
        -10.711791481181114
      ],
      [
        "▁sword",
        -10.711845658373925
      ],
      [
        "▁family,",
        -10.712086487659075
      ],
      [
        "▁bag.",
        -10.71258165296454
      ],
      [
        "▁refuse",
        -10.71279059810755
      ],
      [
        "▁X",
        -10.712897265677087
      ],
      [
        "▁Ta",
        -10.713308492809896
      ],
      [
        "▁covered",
        -10.713547144503078
      ],
      [
        "▁according",
        -10.713552023328647
      ],
      [
        "▁permission",
        -10.71415540776405
      ],
      [
        "▁bite",
        -10.714279230678622
      ],
      [
        "▁break.",
        -10.715097246627336
      ],
      [
        "▁matters",
        -10.715836115403718
      ],
      [
        "gu",
        -10.715896086353402
      ],
      [
        "ped",
        -10.71599629637528
      ],
      [
        "▁forever",
        -10.716104148555338
      ],
      [
        "ham",
        -10.7163397644452
      ],
      [
        "▁trade",
        -10.71664832496927
      ],
      [
        "ier",
        -10.717104774221324
      ],
      [
        "▁investigation",
        -10.717230356980105
      ],
      [
        "▁weight",
        -10.717528259436513
      ],
      [
        "▁original",
        -10.717932047171177
      ],
      [
        "▁chat",
        -10.718066794470728
      ],
      [
        "▁fixed",
        -10.718108992755011
      ],
      [
        "▁words.",
        -10.718411105377172
      ],
      [
        "▁Papa",
        -10.71844340552644
      ],
      [
        "▁burned",
        -10.719088336031415
      ],
      [
        "▁capable",
        -10.71952810790814
      ],
      [
        "▁noise",
        -10.719559561908936
      ],
      [
        "-year-old",
        -10.719737895595603
      ],
      [
        "▁dreams",
        -10.719821485171034
      ],
      [
        "▁kicked",
        -10.71995002145896
      ],
      [
        "▁eaten",
        -10.720277043407116
      ],
      [
        "▁doin'",
        -10.720606823670355
      ],
      [
        "▁Either",
        -10.720967946168782
      ],
      [
        "▁Ja",
        -10.721612607449954
      ],
      [
        "▁loose",
        -10.722514045766326
      ],
      [
        "▁faith",
        -10.723247786751177
      ],
      [
        "▁Looking",
        -10.724362226684685
      ],
      [
        "▁sub",
        -10.724555832032088
      ],
      [
        "▁working.",
        -10.725914663283586
      ],
      [
        "▁State",
        -10.72611506055239
      ],
      [
        "▁bad,",
        -10.72618034550566
      ],
      [
        "▁touched",
        -10.726239801144786
      ],
      [
        "▁Pull",
        -10.726636456022916
      ],
      [
        "▁Yu",
        -10.726914759529595
      ],
      [
        "▁relax",
        -10.728479030975237
      ],
      [
        "▁date.",
        -10.728628196970869
      ],
      [
        "▁la",
        -10.728902845929772
      ],
      [
        "▁fought",
        -10.72914129572416
      ],
      [
        "▁recently",
        -10.72928041368588
      ],
      [
        "▁Jan",
        -10.72947524730812
      ],
      [
        "▁games",
        -10.730059097321744
      ],
      [
        "▁numbers",
        -10.73025225770858
      ],
      [
        "▁pleasure.",
        -10.731118041514964
      ],
      [
        "▁afraid.",
        -10.731759431521589
      ],
      [
        "▁jerk",
        -10.73176138932208
      ],
      [
        "▁Shit",
        -10.7322985349498
      ],
      [
        "ated",
        -10.732934482849355
      ],
      [
        "▁UP",
        -10.732949755063212
      ],
      [
        "▁swim",
        -10.733282957841284
      ],
      [
        "▁ruined",
        -10.73347862250082
      ],
      [
        "▁late,",
        -10.733494951966412
      ],
      [
        "▁Fucking",
        -10.73406976256667
      ],
      [
        "▁Tim",
        -10.73438179040373
      ],
      [
        "▁desk",
        -10.735096301572996
      ],
      [
        "▁mouth.",
        -10.73530720916336
      ],
      [
        "▁base",
        -10.735444598436812
      ],
      [
        "▁shake",
        -10.735685043102714
      ],
      [
        "▁goodbye",
        -10.737080687215975
      ],
      [
        "▁Boy",
        -10.737358916984844
      ],
      [
        "▁clothes.",
        -10.737430286179723
      ],
      [
        "▁dream.",
        -10.737450194698948
      ],
      [
        "▁created",
        -10.73750029964561
      ],
      [
        "▁this...",
        -10.737729960877031
      ],
      [
        "--",
        -10.73782192333599
      ],
      [
        "▁ahead,",
        -10.7398956179664
      ],
      [
        "▁hi",
        -10.739963268174796
      ],
      [
        "▁hook",
        -10.740136203862708
      ],
      [
        "▁Wasn't",
        -10.741524239081048
      ],
      [
        "▁contract",
        -10.74170952751504
      ],
      [
        "▁storm",
        -10.741710030787868
      ],
      [
        "▁John.",
        -10.742013667547829
      ],
      [
        "▁pal",
        -10.742489723357798
      ],
      [
        "▁wait,",
        -10.742831449837848
      ],
      [
        "▁pants",
        -10.74369653990688
      ],
      [
        "▁ABOUT",
        -10.744199273223275
      ],
      [
        "▁Ed",
        -10.744287507310316
      ],
      [
        "▁enough,",
        -10.7445062682084
      ],
      [
        "▁Friday",
        -10.744615331177716
      ],
      [
        "our",
        -10.744996749879698
      ],
      [
        "▁shower",
        -10.74518754332859
      ],
      [
        "▁happening?",
        -10.74615216747557
      ],
      [
        "▁honey,",
        -10.746393842999188
      ],
      [
        "▁teeth",
        -10.746475123848157
      ],
      [
        "▁Jake",
        -10.7466786532299
      ],
      [
        "▁family?",
        -10.746983420919175
      ],
      [
        "▁funeral",
        -10.747050648652806
      ],
      [
        "▁thinking.",
        -10.748587330430484
      ],
      [
        "▁collect",
        -10.748997145319215
      ],
      [
        "▁East",
        -10.749909982843434
      ],
      [
        "▁Start",
        -10.750611633680236
      ],
      [
        "son.",
        -10.750695867401904
      ],
      [
        "▁Wanna",
        -10.750725501548697
      ],
      [
        "▁ship.",
        -10.751182193231566
      ],
      [
        "▁Fire",
        -10.751312180071306
      ],
      [
        "▁subject",
[...]
